[PAD
[UNK]
[CLS]
[SEP]
[MASK]
$
*
[
\
]
_
¡
£
¤
¥
¦
§
¨
©
ª
¬
®
¯
°
±
²
³
´
µ
·
¸
¹
º
¼
½
¾
¿
À
Á
Ä
Å
Ç
È
É
Ê
Î
Ï
Ð
Ñ
Ó
Ö
×
Ø
Ù
Ú
Û
Ü
Ý
Þ
ß
à
á
â
ã
ä
å
æ
ç
è
é
ê
ë
í
î
ï
ð
ñ
ò
ó
ô
ö
÷
ø
ú
û
ü
ý
þ
ā
ă
ą
ć
Č
č
ē
ę
ě
ĝ
ğ
Ĥ
ĥ
ī
İ
ı
ĺ
ļ
Ľ
ľ
ł
ń
ņ
ŋ
ō
Œ
œ
ŕ
ŗ
ř
Ś
ś
ŝ
Ş
ş
Š
š
ū
ŭ
ź
ż
Ž
ž
Ǝ
ƒ
ƛ
Ɲ
ǁ
ǎ
ǐ
ǔ
ǘ
Ǫ
ȍ
ȕ
Ș
ș
ɑ
ɒ
ɔ
ə
ɛ
ɡ
ɣ
ɪ
ɲ
ɸ
ʁ
ʃ
ʉ
ʊ
ʌ
ʏ
ʐ
ʒ
ʘ
ʟ
ʰ
ˆ
ˈ
ˌ
ˍ
ː
˗
˚
́
̋
̌
̡
̶
Α
Δ
Ε
Θ
Κ
Μ
Π
Φ
Χ
Ψ
Ω
ά
έ
ή
ί
α
β
γ
δ
ε
ζ
η
θ
ι
κ
λ
μ
ν
ξ
ο
π
ρ
ς
σ
τ
υ
φ
χ
ψ
ω
ό
ύ
ώ
ϑ
ϕ
ϡ
Ͽ
А
Б
В
Г
Д
Е
Ж
З
И
К
Л
М
Н
О
П
Р
С
Т
У
Ф
Х
Ц
Ч
Ш
Ю
Я
а
б
в
г
д
е
ж
з
и
й
к
л
м
н
о
п
р
с
т
у
ф
х
ц
ч
ш
щ
ы
ь
э
ю
я
ѐ
і
ї
ј
ҁ
Ґ
ғ
Ҙ
Қ
қ
ҫ
ү
ә
Ԙ
Հ
ա
ե
յ
ն
ր
ְ
ֲ
ִ
ֵ
ֶ
ַ
ָ
ֹ
ֻ
ּ
ׁ
א
ב
ג
ד
ה
ו
ז
ח
ט
י
ך
כ
ל
ם
מ
ן
נ
ס
ע
פ
צ
ק
ר
ש
ת
״
،
؍
؛
؟
ء
آ
أ
ؤ
إ
ئ
ا
ب
ة
ت
ث
ج
ح
خ
د
ذ
ر
ز
س
ش
ص
ض
ط
ظ
ع
غ
ؽ
ـ
ف
ق
ل
م
ن
ه
و
ً
ٌ
ٍ
َ
ُ
ِ
ّ
ْ
ٮ
ٱ
ٲ
ٳ
ٴ
ٸ
ٹ
ٺ
ٻ
پ
ٿ
ڀ
ڃ
ڄ
چ
ڇ
ڌ
ڍ
ڎ
ڕ
ژ
ڤ
ڦ
ک
گ
ڵ
ۀ
ہ
ۅ
ۆ
ۉ
ۊ
ۋ
ی
ێ
ۏ
ې
۔
ە
۞
ۥ
ۦ
۩
ۮ
۰
۱
۲
۳
۴
۵
۶
۷
۸
۹
ܐ
ܒ
ܗ
ܘ
ܝ
ܠ
ܢ
ܪ
ܬ
ܳ
क
द
न
म
र
ल
स
ह
ा
ि
ी
ु
्
ং
ব
ল
া
ੀ
த
ப
ம
ல
ழ
ி
ு
்
ท
ย
ไ
ລ
ວ
າ
་
ག
ད
བ
ཡ
ི
ོ
ა
ბ
ე
თ
ი
ლ
ო
რ
ს
უ
ქ
ማ
ሬ
ር
ት
ኛ
አ
ግ
ᑌ
ខ
ម
រ
ែ
្
ᴅ
ᴇ
ᴍ
ᴏ
ᴘ
ᴛ
ᴡ
Ḧ
ṁ
ṛ
ṣ
ṭ
ẍ
ế
ệ
ụ
ἀ
Ἀ
ἐ
ἔ
ἡ
ἱ
ὄ
ὰ
ὴ
ὶ
ᾶ
ῆ
ῖ
ῶ
‖
‘
’
‚
“
”
„
†
‡
•
…
′
″
‹
›
‼
⁄
₁
₂
₃
€
⃣
ℓ
™
ℹ
←
→
↔
↖
↩
↵
⇐
∀
∆
∑
∗
√
∷
≈
≠
≡
≤
⋙
⌘
⌚
⌞
⏰
⏱
①
②
─
┈
┐
╞
▂
▃
█
▐
■
□
▪
△
▶
▸
►
▼
◀
◂
◄
◊
●
◦
◻
☀
★
☎
☑
☕
☘
☝
☟
☹
☺
☻
☿
♀
♂
♠
♡
♣
♥
♦
♫
♬
♭
♯
⚕
⚜
⚠
⚡
⚪
⚫
⛔
⛩
✅
✈
✋
✌
✍
✏
✓
✔
✖
✧
✨
✹
✾
✿
❀
❁
❄
❊
❌
❖
❗
❝
❞
❤
➖
➿
⠀
⦁
⬅
⬆
⬇
、
》
〜
〰
の
み
ア
オ
カ
ク
コ
ス
ッ
ト
ド
ナ
ニ
フ
マ
ム
メ
ラ
リ
ル
レ
ン
・
ー
一
三
中
京
健
偵
共
凝
動
化
北
华
叛
名
告
和
国
國
地
坁
坎
坐
坘
坝
坡
坿
大
家
少
山
岡
島
平
忠
愛
探
教
文
新
方
日
晈
晊
晎
本
東
殉
氏
民
江
法
海
源
漫
牛
独
画
県
知
神
粵
義
者
肉
行
裁
試
語
資
転
運
道
金
銀
集
高
꞉
국
대
도
몽
삼
선
시
어
오
쟁
전
조
주
태
한
珞
﴾
﴿
︎
️
🆕
🇮
🇯
🇰
🇸
🇹
🇺
🌈
🌎
🌏
🌚
🌝
🌟
🌱
🌷
🌸
🌹
🌺
🌻
🌿
🍁
🍂
🍃
🍋
🍎
🍦
🍩
🍰
🍷
🎀
🎁
🎂
🎃
🎉
🎒
🎥
🎧
🎭
🎵
🎼
🏃
🏘
🏢
🏳
🏷
🏻
🏼
🏽
👀
👁
👄
👇
👈
👉
👌
👍
👏
👑
👖
👙
👜
👥
👨
👩
👪
👫
👬
👶
👻
👾
💁
💄
💉
💋
💍
💎
💐
💑
💔
💕
💖
💙
💚
💛
💜
💝
💞
💡
💦
💪
💫
💬
💭
💯
💳
💵
💻
📃
📄
📅
📊
📌
📍
📕
📖
📚
📝
📞
📥
📧
📩
📱
📲
📷
📺
📼
📿
🔊
🔗
🔣
🔥
🔱
🔴
🔵
🔶
🔷
🔸
🔹
🔺
🔻
🕊
🕐
🕛
🕯
🕶
🖤
🗄
🗐
🗣
😁
😂
😃
😄
😅
😆
😇
😈
😉
😊
😌
😍
😎
😏
😐
😑
😒
😔
😕
😘
😙
😞
😟
😢
😤
😥
😪
😫
😭
😱
😻
🙁
🙂
🙃
🙄
🙈
🙊
🙋
🙌
🙏
🚌
🚑
🚕
🚖
🚗
🚘
🚙
🚚
🚛
🛑
🛣
🛵
🤓
🤔
🤗
🤚
🤪
🤲
🤷
🥀
🥧
🦋
🧡
##ر
##ۆ
##ڤ
##ا
##ی
##ە
##گ
##د
##ش
##ڕ
##ن
##ک
##پ
##ێ
##و
##س
##ت
##م
##ل
##ز
##ب
##ج
##چ
##ڵ
##خ
##ئ
##ه
##ژ
##ح
##ً
##ع
##ف
##ذ
##ث
##ق
##إ
##أ
##ِ
##ّ
##َ
##ص
##آ
##غ
##ء
##ْ
##ة
##ې
##×
##ـ
##ُ
##ğ
##۹
##۶
##۲
##ط
##ؤ
##¬
##ٍ
##ş
##û
##ٌ
##ض
##ľ
##î
##😔
##۳
##۰
##ظ
##λ
##ώ
##σ
##α
##□
##н
##т
##е
##л
##и
##г
##ц
##я
##۸
##®
##ۊ
##ڎ
##έ
##τ
##ρ
##о
##с
##ф
##к
##й
##۱
##ۮ
##ٱ
##В
##ê
##а
##ē
##ļ
##р
##ш
##ь
##Ş
##ּ
##ַ
##ת
##۵
##🏻
##♂
##️
##👜
##⁄
##珞
##😍
##💜
##۷
##å
##à
##י
##ְ
##ה
##ו
##ָ
##ǐ
##ۦ
##©
##Ø
##±
##²
##❗
##¨
##←
##ā
##۴
##🌹
##🌎
##✨
##у
##ç
##¯
##ۥ
##É
##Ç
##ă
##◦
##🚕
##🚗
##ֵ
##ד
##ֶ
##ן
##🆕
##ύ
##μ
##🌸
##📖
##👍
##π
##ε
##ო
##ს
##ე
##ბ
##м
##华
##民
##共
##和
##国
##ı
##ä
##✅
##ү
##і
##💻
##ŝ
##ր
##ա
##С
##К
##Е
##Р
##О
##А
##ν
##ά
##β
##ι
##ς
##ª
##Ù
##ó
##ٸ
##ō
##新
##一
##ч
##ә
##💕
##┐
##🍁
##📍
##ˈ
##é
##İ
##💭
##💚
##ɡ
##ʊ
##💦
##ř
##ї
##κ
##ω
##ψ
##נ
##Û
##ʏ
##ʃ
##ִ
##ל
##ס
##ט
##š
##ۀ
##💔
##ท
##ย
##ῆ
##︎
##✿
##❤
##Ĥ
##ξ
##ο
##🚖
##מ
##א
##¸
##リ
##ナ
##ル
##😙
##🌷
##💎
##🎭
##п
##б
##🙈
##☟
##¦
##è
##ü
##ί
##📞
##🙏
##°
##ש
##ы
##Ü
##ŋ
##ə
##γ
##ம
##ி
##ழ
##★
##►
##♥
##◄
##д
##🏼
##ٲ
##ɔ
##ׁ
##ό
##á
##📕
##č
##♦
##ж
##в
##ー
##→
##⠀
##ã
##Ê
##삼
##국
##ĺ
##╞
##ł
##з
##😑
##😁
##¾
##Ú
##φ
##📺
##😻
##Ý
##ੀ
##🙄
##👌
##ڇ
##💪
##Þ
##ϡ
##☺
##🍂
##🍋
##📝
##ڀ
##ᴏ
##ғ
##ɪ
##ʟ
##ᴇ
##ሬ
##δ
##қ
##👏
##˚
##▃
##´
##🏘
##📥
##ि
##्
##ु
##ʁ
##🚚
##ע
##晊
##晎
##ѐ
##ɛ
##😫
##😞
##И
##П
##́
##ð
##🎂
##🕯
##ם
##🇹
##⛩
##ス
##ト
##地
##方
##¤
##ö
##😱
##☻
##島
##県
##오
##⃣
##ა
##რ
##ი
##Ԙ
##♣
##🇯
##✌
##💛
##ר
##😏
##ě
##本
##語
##👖
##平
##の
##ٳ
##➖
##🤔
##⚠
##😘
##ô
##ū
##¹
##独
##裁
##者
##😄
##☕
##ñ
##ī
##Д
##●
##ी
##र
##х
##💄
##💍
##👙
##🕶
##ོ
##ད
##😂
##✔
##ј
##כ
##坝
##ۏ
##🏢
##ב
##道
##💯
##צ
##─
##υ
##€
##í
##χ
##👩
##💋
##晈
##🚙
##🚛
##ך
##ὰ
##🤗
##ֲ
##ז
##😭
##🍰
##한
##🔥
##🎵
##┈
##✹
##❁
##💙
##ń
##😉
##😥
##θ
##⏱
##ю
##ܠ
##ܘ
##ܝ
##ܬ
##ܳ
##ܐ
##η
##画
##家
##â
##🙌
##🕛
##❌
##시
##대
##😊
##☑
##ý
##💉
##🚘
##ː
##æ
##ֹ
##ח
##🍷
##🧡
##🎼
##🤚
##🙃
##ؽ
##🙋
##Œ
##🕊
##स
##क
##म
##🎉
##Ö
##😃
##⬆
##😢
##פ
##ή
##न
##द
##ҫ
##🏽
##✈
##🛣
##ニ
##カ
##氏
##👥
##🌺
##ʒ
##🌱
##☿
##🎃
##👈
##ῶ
##ہ
##ҁ
##探
##偵
##コ
##ン
##È
##♀
##😇
##☝
##👫
##₂
##坘
##🔵
##Á
##⌚
##🍃
##ņ
##⬅
##̌
##ラ
##🤓
##ὶ
##✍
##Š
##ṁ
##ٴ
##💞
##😅
##ǔ
##ு
##ல
##்
##🦋
##ג
##ß
##µ
##👄
##Ǝ
##👨
##⚕
##📱
##щ
##レ
##■
##∀
##ा
##ह
##ø
##ŭ
##🇸
##🇺
##ʌ
##◀
##Î
##⬇
##도
##ṭ
##ᴡ
##ᴍ
##̋
##³
##み
##👇
##ল
##ᾶ
##조
##선
##몽
##💵
##😟
##ῖ
##М
##Л
##Я
##ܪ
##ܒ
##ṛ
##😒
##🤷
##💑
##運
##転
##メ
##£
##ܗ
##ܢ
##🖤
##þ
##ल
##岡
##💐
##😎
##۩
##☀
##ë
##¥
##🌿
##ッ
##ク
##ˆ
##✋
##義
##Ä
##👬
##ɑ
##전
##쟁
##주
##어
##💖
##😆
##უ
##ლ
##❄
##告
##😌
##江
##⚜
##♬
##化
##京
##🚑
##э
##🌚
##神
##💬
##ụ
##オ
##🙊
##🍎
##👉
##ム
##集
##🔷
##教
##া
##ং
##۞
##🌏
##🔹
##ֻ
##Ґ
##🤲
##յ
##ե
##ն
##▼
##💡
##🌈
##文
##愛
##😈
##Ҙ
##🌻
##▸
##태
##Г
##海
##ž
##動
##😪
##ἱ
##❀
##🛵
##🔗
##源
##🚌
##☘
##☎
##💝
##🍩
##த
##ப
##Ñ
##Ï
##꞉
##ζ
##ɒ
##📿
##ć
##🔻
##ٺ
##❝
##ᑌ
##ℓ
##📲
##🎁
##ི
##ག
##肉
##✾
##ś
##ę
##💫
##👀
##Ш
##ŕ
##🛑
##山
##ɲ
##♠
##↖
##🏃
##😤
##少
##າ
##ວ
##👻
##國
##ٿ
##🔱
##ź
##ƛ
##Ɲ
##名
##📌
##坿
##▂
##🍦
##ק
##თ
##北
##⚪
##🔴
##🔺
##🎀
##У
##👑
##知
##マ
##銀
##🔶
##坡
##👶
##ż
##ɣ
##█
##📃
##ʰ
##☹
##➿
##ὴ
##三
##ማ
##ር
##ኛ
##ą
##🤪
##😕
##📧
##📩
##™
##ẍ
##ᴅ
##្
##ម
##ែ
##រ
##ド
##⇐
##ግ
##🥧
##ان
##ەر
##ەک
##ەو
##ەی
##ار
لە
##وو
##انی
##او
بە
##ای
##ست
##ەن
##ەم
##رد
##ات
##ەت
##ێک
##نی
##ەوە
##ام
##یی
##دا
کە
دە
##ری
##ێت
##ەڵ
بۆ
##ێن
##اری
ئەو
##ەکان
##ەکانی
##ین
کو
سەر
##اڵ
##دی
##ەب
##ەڕ
##ێر
ئەم
##اس
بەر
کورد
##از
پێ
##شت
##ێکی
##کی
کۆ
##ۆی
##ەل
##ەتی
هەر
##اب
##ەری
##ەند
##اک
##ۆر
##ێو
##یر
##اد
##انە
بوو
##ێم
یەک
##راو
دەک
##ەکی
##کرد
##ەش
##ەز
##ەوەی
##مان
##ستی
کرد
##ال
##سی
##ەد
##تی
##ێژ
##سەر
##شی
ناو
بک
##ەیە
ڕۆ
##ون
کوردست
##اند
دا
دی
ئە
##اش
دەر
دو
##اتی
ئی
##ییە
##ەکەی
##ێز
##گر
##اق
##گەی
دەست
##ەنگ
##ەکە
##ۆن
##ایی
##لی
##وون
خو
هەم
##انەی
##ارە
##ەوت
##ور
ڕا
##ۆک
دوو
خۆی
کوردستان
##دە
پەڕ
هەڵ
##یان
سی
کۆم
ڕۆژ
دەب
##رو
##ەخ
پێش
##وان
##اوە
##بەر
##رۆ
##زی
##وم
##ووە
##اریی
بەڵ
##را
##رێت
لەسەر
##هێن
##ێی
##ەنج
##گی
##وە
##ارەی
##یش
هەو
لەگ
کار
لەو
ئا
##ڕی
##اسی
##اوی
##می
زۆر
##امی
##اڵی
##کە
مان
هاو
ئام
خۆ
##ەنی
##وی
پار
##ایە
وەک
جی
##ێد
بەش
##ەس
##ایب
لەگەڵ
##ارد
##نام
نییە
##وک
##ەندی
##پی
##ێراق
##ێش
هەرێم
##نە
نو
##ووی
دەکات
##گەر
گر
##وانی
پەی
کەس
لەم
##کردنی
##شتی
گۆ
نی
##مانی
هەموو
عێراق
ئەوەی
##گە
بەڵام
##رین
##ەف
تایب
وت
##نەوەی
یەکەم
من
بەه
##ەیەکی
##ێست
##ازی
##ێب
زی
پەر
ڕوو
گو
ئەنج
##ایەتی
ئیس
کۆمەڵ
گەڕ
##تر
##یل
##ها
##ایەن
##راوە
##گرت
##اتە
##ەست
نا
##بوو
##کاری
بوونی
##ۆم
##گای
بی
ئێر
تایبەت
##ژی
##ەق
هی
##ڕۆ
تا
هەیە
نێو
چەند
##وور
مانگی
وەر
بن
بەک
پۆ
پەڕە
یان
وڵ
ئەوە
##ەمان
بێ
##مە
##دار
##ەیەک
سو
دوای
##اتر
##جی
در
می
ئێم
##اف
##رس
##ێژە
وی
خەڵ
فەر
##یە
##کەوت
کوردی
##نەوە
حک
##ۆت
دەبێت
گەڕان
##دو
##بی
ڕێک
##کا
دەو
ئاز
##چی
##ڵی
کات
##ۆکی
بەست
##اژ
ساڵ
ئەگەر
##دانی
لەب
ڕێ
لی
ئێست
##ێری
##گەیاند
##ەمی
##است
##الی
##دان
چاو
##بوون
##ییەکان
وەز
درو
بز
##ووری
##ەه
لەن
##ادی
##ەلی
##ۆری
ئای
بڕی
ئێران
نەب
##وت
بەڕ
جیه
بێت
چی
##رسی
شێو
##خو
ئێمە
پێک
هات
##ۆز
تور
##وار
##ەیی
کەم
هێز
##دەک
##ەیان
پەیو
بار
##ێتی
مو
##ەین
##وونی
شار
هەڵب
ال
##ێنی
پاش
##ۆش
داو
##هات
تر
گۆڕ
حکوم
##ێند
دەس
ئاس
دروست
دەرب
سیاس
زیاتر
##ەور
##ەدا
بەکار
شو
خۆیان
نەک
ئەر
##ۆنی
زانی
بڵ
##ەنگی
##ەتە
ژم
##دەو
لەک
بب
هیچ
بەرنام
ویکی
##تە
داب
بکات
سیاسی
##ێتەوە
پێوی
مام
##گیر
##دیا
##یز
بو
گەور
با
وڵات
هەڵبژ
ناوچ
لەبەر
دەکەن
کوردستانی
##ووس
هە
کاری
##ەتەوە
مرۆ
##پێک
##ردنی
##ییەکانی
زان
داڕ
ئیسل
سل
دەد
ئێستا
##ەپ
بوون
لەل
کۆن
یاریی
کێش
بەن
ئاو
تورکی
##داری
##ەوی
سەرب
سەرۆکی
ساڵی
تۆ
هەرێمی
##کردن
بکەن
پەرل
##ەج
کر
بووە
دەوڵ
##ەوێت
چون
لایەن
##لە
##ستە
بد
پی
لێد
مرۆڤ
بەو
##دەست
وێن
هەب
##حم
باب
##ید
یاری
یاس
##رێ
سەرۆک
##زانی
بەپ
دووەم
##هەم
پەیوەندی
##ۆڵ
تەن
##ۆڕ
گۆڕان
تێ
##ێمانی
لێ
##رینی
ئاش
هەروە
تەو
##کەی
##ەرم
چونکە
هەول
کەر
##دیۆ
مێژ
##یراق
شی
##هەڵ
هەروەها
تێک
بەم
نە
سێ
##ەممە
پێن
بەکارهێن
دەت
پارێز
##ود
سەرەکی
دەکرێت
هەڵبژارد
ویکیپی
دڵ
دەڵ
##ارەت
تی
ئەند
بەخ
سلێمانی
دەستکاری
لای
ڕای
##ارێکی
ئین
نەخ
پارتی
##کر
ژن
کردووە
بەسەر
##اوەی
##گری
##ەکانیان
##کو
جۆر
ڕێکخ
##ینە
##ژم
ڕاپ
##تو
##ستان
خوێند
کان
ئاب
ئۆ
ئار
تش
ئەمەری
بیر
##وز
سەب
عەب
##وکر
وە
ئاماد
داڕێژە
دیم
##یانی
##گەڕ
ئەنجام
داد
دان
باش
تشرینی
جێ
ڕاب
##وس
##زم
##اران
دەسەڵ
بەت
##راوی
ماف
هون
##ێل
چوار
##وب
##کاریی
هەولێر
دۆ
بکە
ویکیپیدیا
کۆت
##پانی
مە
بەڕێو
##ەبی
بەرپ
زانیاری
##ێڕ
نەت
ڕی
##کردنەوەی
تورکیا
داوە
##ران
عیراق
وتی
پێی
هەواڵ
گرن
نێوان
باس
شت
ڤی
پاڵ
ڕوود
##خی
##اپ
سەبارەت
ڕۆژنام
شاری
ئەمری
##خۆ
##گا
یەکێتی
بۆیە
ناک
دەستی
##اکی
بزانە
##کرا
مەر
باز
نزی
خەڵکی
##اغ
##حەم
حیز
جیاو
ڕاست
عەر
ماڵ
ڕاگەیاند
گشتی
شەڕ
##ێرە
##اکانی
##ایەت
لەلایەن
##ەکاندا
جیهانی
##کات
##چاو
درێژە
##انەوە
تەم
تاک
بەردەو
ئەمەریکا
هێن
حکومەتی
یانەی
بینی
لێک
وتار
ڕەو
گەی
پرۆ
لەبارەی
لەه
##ێژی
بڵاو
هەند
ڕۆژی
گەل
سن
خۆش
قس
دەی
##زان
بەب
بەرنامەکانی
پڕۆ
باو
بەهۆی
##اندا
بەستەر
##وڵ
پەرلەمان
یەکگرت
لەس
ئەمە
ئاماژ
نوێ
لەئ
##ردوو
##ێتە
مندا
##دوو
##اندنی
مۆ
بری
##شک
##راون
کۆتایی
##ادا
شوێن
لەپ
بەستەری
##ئاو
##رێن
بڕ
##وەر
##ێکدا
##ترین
##ێڵ
نم
##مەر
دیموکر
لەناو
دیکە
##کۆ
ئیسلامی
کاتی
ئەی
##تەر
هێر
ئەنجوم
##ردن
کردنی
لیستی
##مەتی
محەم
بەرز
##ول
##امبەر
خاو
مۆن
##گەری
##اتەوە
##ۆزی
ناب
##کار
تاو
بەردەوام
شەممە
دەربارەی
دەنگ
نیشت
دوا
##هێنانی
##ێنەر
##ونی
داوای
##رۆی
##اع
دەنگی
هۆی
تەنی
بچ
دام
خەڵک
ناوی
##ییەوە
##ەزار
چۆن
هەن
یا
وتوو
یەکێک
پرسی
##ەتا
ئەن
تری
##ایەکی
چارە
##وری
##کوک
جەل
چال
ژیان
سیست
##یری
##شتن
بەل
##دەم
ئەمڕۆ
##فر
ڤیدیۆ
دانی
پێشمەر
ئاشکرا
کاژ
ژمارەی
ئەنجومەنی
گون
##ەبەر
هۆک
##نج
پۆل
##ڵاتی
ناس
جار
##ایک
##بوونی
کاژم
ژیانی
##ەندە
ئاڵ
دار
##ۆست
ست
مۆندی
داهات
کاژمێری
##ەیت
سوری
##ەشی
ژمارە
##دەر
سەد
داع
##ازە
##ێشت
ڕایگەیاند
زین
##اه
تۆم
##ایەوە
##اقی
منداڵ
نیش
فی
##ەستی
مۆندیال
وەرز
##توگ
گەر
##نیش
بەرهەم
فیل
یەکان
ئەوان
بەدەست
ئازادی
##قی
کراوە
بەپێی
##انیی
تەنیا
##حی
##ەع
بەشداری
یار
زۆری
قور
تو
دەم
##زگ
بکرێت
زمان
بارزانی
پێنج
##انگ
باڵ
وەکو
ڕۆژهەڵ
##شن
ئەمریکا
##گو
تەنها
شیع
گرت
بر
داعش
نوو
##حمەد
##ەفت
##پەر
##کەر
بێرە
قۆن
لەنێو
##ەکەدا
هەوڵ
##ۆل
##ووک
ئەمرۆی
##بە
بەشی
##ارەتی
پێویستە
چەندین
نەتەوەی
بەرەو
##ێرد
دەبێ
ڕو
تون
ئەندام
##ووت
جەلال
##رە
ناوەڕ
شان
هەمیش
جیهان
لەوە
ڕاپۆر
ئاگ
ئەحمەد
##ەوتن
پل
##کت
فەرمان
##گەل
تاڵ
یارییەکانی
مێژوو
ئەل
کاتێک
پەڕەی
ئەک
##جە
چەک
گۆر
مەب
نزیک
تیر
##ەمانی
ڕابردوو
عەبدو
دەسەڵات
##پەڕ
حز
##یت
##اندن
ئازاد
ڕە
ئەس
لێدوان
خزم
پۆلی
دژی
##ێوە
##فی
ئەد
بەرامبەر
دژ
دەکرد
##ەخت
پیر
سەرکەوت
دەوڵەتی
##دەی
##ینی
##کراو
شەه
##سان
##بانی
##ستانی
سوپ
مەد
##شە
##وچ
دەستپێک
سەی
توو
##نەی
قۆناغ
لەڕ
کت
بگەڕ
مافی
ئەمەش
تەک
##ەوەو
کەوت
ڕوون
عەلی
وەزارەتی
بەغ
##خان
دامەز
##کەش
مامۆست
##بێت
ئیم
دەرەوەی
##ییەکی
ژێر
جیاواز
##ەلە
##بەی
دیاری
##شتنی
بەڵکو
ئیسپانی
بنەم
کەرکوک
وڵاتانی
دوێن
مەس
هەزار
وەزیری
ماوەی
بەرپرس
باشت
حکومەت
##بوونەوەی
فر
نەو
##ینەوە
##تان
##سەی
بەستەرەکان
##روپ
محەمەد
خان
پڕ
دەتوان
ژوور
دەگ
پشت
ئەنجامی
هەردوو
##ەبانی
کۆماری
کتێب
دەردەک
نووس
ئاسای
دەڵێت
ملی
گرنگ
ڕووداو
یەکگرتوو
ئامان
برد
ئاگاد
پێشوو
##ۆشی
##اکان
بەکارهێنەر
##جار
دەوڵەت
پڕۆژ
ئیسلام
##ەکەیان
نەد
##دایە
##داریی
ئەمرۆ
کردن
ئاژ
وتووێژ
وەڵ
شۆڕ
نات
سوریا
##یەکان
تاڵەبانی
باسی
توان
ڕەنگ
دەچ
لەش
ئەست
زمانی
گوتی
جەم
پارێزگای
یە
عەرەب
دوور
بەتایب
وا
تەند
##ومەر
##پەی
##ینەوەی
##ئی
##بای
لاو
هەست
دەن
نەخۆش
تەواو
بەرە
##ووم
هەی
پەڕەیە
پیاو
گەورە
##ێمی
خەب
##ێکە
لەد
بکەین
هەنگ
ڕۆژهەڵاتی
بای
##چوون
ئەوەیە
ئەوەش
دەکاتەوە
شک
##ابوو
ئەڵ
##کردەوە
هەمان
هێرش
بەغدا
موس
بەد
##شتە
تەندرو
واتە
ئەب
##بار
تەواوی
##انەت
هەڵو
##سەری
وێنە
##لا
##بەری
##ایان
هەڵبژاردن
بڕیار
مەت
عێراقی
نام
##اخ
##ییان
نیشتمانی
بین
##ند
جێب
چارەسەر
درێژ
##انیش
چاوپێک
کەل
هەندێک
##خواز
پەڕگە
وەش
سەربەخ
ڕاد
ناڕ
##شیان
سین
کور
##ابی
##وا
داهاتوو
ها
بەئ
##گرن
ئۆت
##ۆژی
وەرزش
##خست
کچ
بڕیاری
یەکەمی
سەردانی
وەزیر
ماد
سووری
تەق
##گرتن
قوت
##ڤی
ماو
بگەڕێ
بخ
سیاسیی
ناوب
ئەف
هەرچ
دەیان
ژوورەوە
##ێنە
##گرتنی
خزمەت
سەرکرد
کەن
بابەتی
گەلی
بەشداریی
##ەوانی
##ەوان
بەوە
خول
یارمەتی
هاوڵاتی
پێویست
پەیوەند
کردەوە
نر
خولی
##وود
##کارییەکان
هونەرم
##ەرە
جۆرە
ڕووی
خۆر
پەرلەمانی
گشت
##گرێت
لەی
چاوپێکەوتن
##پرس
جێبەج
دەردەکەوێت
ڕەخ
زیاد
##استی
نوێنەر
تەنانەت
##گەیەن
سای
##ێوەی
یارییەکەی
ئاستی
##انیان
##بن
سەرچ
پێو
بینینی
پیش
تەکن
ئەوا
حیزب
##اڕ
سەرەت
پشتی
بانگ
سەرچاو
##ۆس
تایبەتی
##ەران
بەهێز
##ۆتەوە
پەیام
کاندی
ڕۆشن
##ەرمی
##ەنت
##ورد
توانی
##ژەو
کی
ڕێگەی
دواتر
##واری
نەبوو
کۆمپانی
ئۆتۆم
دیکەی
##اتری
##انسی
##وونە
کام
ڕژ
حیزبی
چاپ
ئابووری
هێم
##دەوڵ
##ەنە
تووشی
پێویستی
ئەیل
##ەلا
دەخ
کەری
##لم
ئەز
گەش
هێزەکانی
هێزی
دوایین
##ێنێت
کاک
گف
تەندروستی
##سا
ناز
بەبێ
هاوپەی
نوێی
چالاک
مەک
##جەم
عومەر
فەره
ورد
ئیسرا
ئیسپانیا
خاڵ
##نا
هەرێمە
هێزە
##دەد
قەر
کۆمەڵایەتی
خرا
لەنێوان
پۆستی
##یم
ئایا
##خۆی
خۆم
نەم
پەروەر
هەبێت
کرا
##ەکردنی
##ارەکانی
بەج
##انەوەی
##انەدا
دەدات
ڕۆژئاو
نەوت
ئەویش
هاوو
ئینگ
خوار
بگ
##گەلەری
شوێنی
بت
مست
مێژووی
زانست
##ژێر
کەو
بابەت
ئو
مانگ
سوی
##سیۆنی
##ووچ
پارێزگ
##ێس
پەن
ڕادیۆ
کوژ
کارە
##چوونی
چاک
تەکنەل
##شدا
مەز
##بک
##ەبەری
دەکەین
##واز
کوڕ
پاراست
حەس
شەش
بەرپرسی
ول
##ەرەنگ
تۆمار
##ەفا
کێشەی
هەڵس
ڕێژ
گوت
دەتوانی
هەمیشە
هەمەرەنگ
ڕزگ
##ێنن
سیاسەتی
دابەش
کۆنگر
هەبوو
جگە
ڕێز
خوارد
خۆپ
ئۆتۆمب
##لان
ئەندامی
ناوەندی
پێشمەرگە
لەر
پرس
قەز
##ڵا
دەسەڵاتی
هاوڕ
##ەکەمان
##ەمە
##ەختی
تاقی
خاوەن
لیژ
عەرەبی
کۆنف
دانیشت
ڕاپۆرت
خوێن
ڕێگای
##گوز
##رانی
##ایەک
سام
مار
میل
پێکهات
ڕەش
ژنان
باک
پێشکەش
##ڕینی
##ایەتیی
نێودەوڵ
##ەکانمان
##اوت
وڵاتە
هێشت
وتیشی
پەرلەمانت
دراو
##کان
هۆکاری
فار
لێر
کەسی
هەل
گفتوگ
پێڕ
دەق
##گیری
دیموکراتی
##ەوێ
ساز
##انەیە
تێدا
##دوای
برین
دوایی
فەل
گەنج
ڕۆژنامەن
بەشێو
سیاسەت
ئاماژەی
کەریم
ناوچەی
نەتەوەیی
پێشت
نیشان
داگیر
##نامەی
سپی
خست
وڵاتی
دەزان
زۆربەی
هاتوچ
##ەکەم
نۆ
کاندید
##ێکیان
سەربەخۆ
کوردیو
بەس
دەبێتە
گەرم
وایە
هەتا
بواری
##خۆش
هونەرمەند
ڕاستی
##لت
##افی
##ما
تاوان
پرۆژ
##دەب
بەختی
##دەمی
لو
##تەوە
ئیت
ئازار
##ازدە
##ایەی
گە
##این
ئەوانەی
تە
##ستر
ڕێکخراو
##ووسی
کراو
عوس
##الیا
##زە
##رگ
##خانەی
سەربازی
##سیۆن
##کۆی
دەبین
بەرژەو
قوتاب
خۆمان
ده
مستەفا
هەستی
##انەش
ئینگلی
ناتوان
گەڵ
شەڕی
لەدەست
عەبدول
ناوەڕاست
بەلام
مۆبای
ڕێکخراوی
شێ
ببینە
کانوونی
کۆب
پێشنی
مەبەست
میدی
ملیۆن
حاڵ
بهێن
بەف
هاوب
##ودۆ
سەع
ئەوروپ
زیندانی
##ەرانی
بکەیت
لێکۆڵ
فڕ
دەز
##وڕ
جوان
سەرجەم
سرو
فای
دارایی
##فت
تیرۆری
لەژێر
لێدوانی
ئۆپ
حزب
کرێک
کەسێک
##ۆتە
دوێنێی
##ەوتی
قەی
##ووپ
##ئەوەی
پێڕستی
هەفت
##یدر
ئاشکر
هەواڵەکان
##ێتیی
تەل
ئەت
بەی
کارت
بەکارهێنانی
ئەمنی
##ەکرد
گۆڕانکارییەکان
حوک
باوەڕ
جەماو
##وول
##ەکەت
عەبادی
کەسێکی
دێم
##عی
نووسەر
حەوت
سووریا
تورک
یاسا
دایک
##ینەی
چاوەڕ
ڕێد
نرخی
وش
داواک
هەرچەندە
##گێڕ
##وای
تێکست
لەت
##ارییەکانی
##چوو
خراپ
ساڵح
ئافر
لەوەی
##مانە
##ارانی
کێ
##ایینی
کردنەوەی
بەرێو
پۆلیس
هاوکاری
##ۆڤ
پور
دیار
##شەممە
##چە
یاسای
نەه
##خانە
سوپای
##شین
پاراستنی
##بیر
شەر
پاشان
##ادە
دین
وێنەی
سز
بەهەر
ئاژانسی
بەشدار
دەکەنەوە
بارودۆ
##ۆتۆ
##ێنێ
##یشاند
شۆڕش
##وایە
ئەزم
جیاوازی
دەری
دیدار
هەوڵی
شێر
##ەسەند
ڕێدۆزی
خێز
##اجی
ڕەنگە
##کەوتن
##ژمار
قەب
پاس
نەبێت
جو
##ەڕەش
بەتایبەتی
بەرگری
##ەتیی
ڕێب
##پار
##نت
بەگ
میدیا
##هێنی
##ایت
نەکرد
##مەد
##ێستی
##نجی
چاود
نەی
ڕاپەڕ
##بینی
##ژمێر
دابەز
##اڵە
ئاگادار
##چەو
بدە
گرنگی
ئاک
مەسەل
سەرباز
##ەکانیش
بڕیارە
شتێک
شێوەیەکی
##ەدی
پاڵاوت
هونەر
##سر
بەڕێوە
پشتیوانی
گیانی
##شو
بەشێکی
پاک
##تری
شێوەی
ناچ
##ەدە
بازرگ
بدات
وەڵامی
لێی
ڕووداوە
##کردووە
##ەکەش
پورتوگ
ڕەس
بون
مامۆستا
کردوە
شەهید
هەواڵی
پێشتر
##ەیس
بۆچی
دروستکردنی
کۆل
کوڕی
هونەری
خۆیدا
ئید
گەورەی
هاوکات
پیرۆز
ئەڵمانی
خێر
دەکەم
نیە
خۆپیشاند
بەڕێز
نووسی
##ەون
پێد
سەری
شاع
زیاتری
##ەقام
گیر
سەرنج
هاوپەیمانی
فایلە
##ەپێد
حەسەن
دنی
ئاشتی
##ۆوە
##ناک
لەچ
##ەکردن
##کردنەوە
چالاکی
یاریزان
##مەند
چین
کاریگەری
هەڵبژاردنی
##ەکانەوە
ئاست
تێکستدا
سینەم
فیلمی
ئاسایی
بەشدارییەکان
توێژ
##ڕەو
گۆڕانکاری
خۆشەوی
فۆتۆ
خاوەنی
##هەمی
بۆی
ئاسایشی
بەشێک
لایەنە
پاڵاوتنی
هێشتا
##کراوە
چیر
خەبات
گەیشت
کاریگەر
ئامانج
ئۆتۆمبێل
بەناوی
##امان
چار
##ۆنە
هاتووە
##ایانی
ناوبراو
ئامر
سەرم
سەل
چەکدار
لێب
##ەقی
وای
##شەوە
دیموکراسی
##جۆر
بەدی
ئوستر
عیراقی
دای
موسڵ
دواین
ئەگەری
بریندار
ڕووب
##رێتەوە
بود
پەیوەندیدار
بل
##دۆ
پەنج
مووچ
زەر
##شکی
دۆل
##انەکانی
دەگەڕ
وات
بیری
قەڵ
دێ
بدەن
گوند
بڕۆ
##تۆ
ئەندامانی
نێودەوڵەتی
مەترسی
##ۆجی
##ەوا
بەع
زانیاریی
لەکاتی
پاری
یەکی
##اچ
هەنگاو
##اکە
هەژ
##پەڕی
سیستەمی
دامەزر
قوربانی
فیلم
ئینگلیزی
مەرج
##ێین
##انێکی
فراک
ڕۆڵی
بریت
کۆنت
##سیا
ئاماژە
مەبەستی
##سپ
بەشێوەیەکی
##کێش
بەکارهێنان
نەتەوە
ترس
دۆز
##داوە
کۆبوونەوەی
دەبن
گۆڤ
ڕەت
تێگەی
پرسیار
حەز
نوری
زانکۆی
سەرچاوە
##رید
ستای
بەز
ئافرەت
##گەز
##کس
ئیر
باری
ئێو
واش
ناوچە
توندو
بردەوە
کل
باشترین
نیو
##کتۆر
بەریت
سپ
دابین
شەو
##شار
سەرۆکایەتی
بتوان
هەژمار
هێمن
##ەنتین
کۆمەڵگای
##ەدان
هەڵکەوت
ناوخۆ
##ئیلی
##ردا
دیارە
ستر
نیی
کۆچی
پێدەک
##ەشق
##داو
ئەرکی
ئوسترالیا
##سانی
جارێکی
##هێنان
تەر
##وەری
ئەرج
##ئاوایی
دهۆک
پر
هەڕەش
دێت
مێز
میر
شیعر
سۆ
گۆرانی
##ادر
##حاڵ
ڕاو
هەندێ
بزووت
دەدەن
فەرهەنگ
##ێرەی
بەرنامە
##ێگەی
کارەب
نابێت
کۆبوون
یاسایی
ئیسرائیلی
زانستی
ڕەز
##خود
جەنگ
##بیری
ئاسایش
ئاراست
خەری
مال
چا
مەی
کۆمەڵێک
##ەییەکان
##ووڵ
##دانەوەی
##انیا
بەڕێوەبەری
لەهەر
تایبەتەکان
خەل
عوسمان
قۆناغی
کوردستاندا
##ەکەوە
##مین
فێر
وەشانی
##ەخش
خزمەتگوز
##ناو
پێکرد
نای
بکەم
سە
##ساڵ
##اگ
##اردن
شوب
دەڵێن
بەفەرمی
کاتژمێر
پەیامن
##در
##ەبوون
دوێنێ
پێکەوە
زەوی
##رۆش
پێدا
هەرو
##ایش
جێی
حەم
ئیتر
ڕێژەی
##سە
ڕژێمی
##جەی
ئێ
چەم
مەدەنی
دایە
نین
##راه
##ێنێتەوە
سەردەمی
##ۆکە
ماڵئاوایی
نزیکەی
حکوو
نووسین
بەرش
دراون
حوز
تۆپی
شەهی
##ادەی
چارەسەری
خشتە
ئامراز
##وپ
##اکێش
پورتوگال
سێی
##ەژ
بچی
##چێت
##مێکی
##ێنەری
شتێکی
یەکێتیی
##رم
دەکرێ
دوژم
جێگری
ئەرشی
دەڕ
##ڤان
##سەف
##بڕ
کاندیدەکەی
##هەر
دەستکاریی
یاریزانی
##ییەک
یاخود
##ەڵی
ئەرجەنتین
شەپ
##ەیەدا
ڕۆڵ
##ەڕوو
ڕابردوودا
ئەنف
چاوی
سەم
مالی
دیک
سێک
کۆمەڵگە
قسە
خوارەوە
##ۆلی
##بارە
ئێوە
خوێندن
وێڵ
هەڵەب
حکوومەتی
قان
توانای
بەناو
ئامادە
##وژ
##ەیەکدا
سال
بان
شاعیر
خۆت
نوس
دەڵێ
گوڵ
پرۆسەی
##نەکان
##ەکەیدا
تەمەن
##نان
کولت
داوا
سات
بەڕێوەبەر
ئامانجی
ئێستاش
پەڕەیەک
پێشووی
سەردەم
ڕێکخست
لەوانەیە
تێب
کلی
##ارەیەوە
##ۆنت
دەرەوە
مامەڵ
بچیتە
##براه
تێی
تاران
##ۆکر
ئەوروپا
بەرهەمی
فەرمانبەر
بم
پزی
شێخ
ئاخ
##ڵات
ئەیلول
##ابوون
##ەنجام
ژی
ڕود
ئایینی
نەخۆشی
مەدرید
توندوتی
فیدر
##ێزی
دکتۆر
##انێ
حوزەی
##راوان
لێرەدا
بابەتە
##ونە
دڵنی
هەنووک
ڕاستەو
##نیشانی
ڕاپۆرتی
بگر
##ۆژ
هەمیشەیی
نەتەو
##کەوتنی
فەلسەف
هەروەک
دەستگیر
ڕاگەیاندنی
##ییەکەی
تەمم
##فراند
##خستنی
گەورەت
بیست
هاووڵاتی
بەتایبەت
چر
بەرنامەی
ژمارەیەک
سنوور
##کانی
##ڕە
دەسەل
بەندی
ڕیز
##ۆچ
ناوچەکە
ناد
##کێ
ڕۆژنامەی
پێم
ەوە
هەڵبژاردەی
بەرچاو
کەڵ
ڕزگار
لایەنی
کارێکی
توند
وێڵز
تیرۆر
پاڵپ
##بووە
کاروب
تاز
جێبەجێک
##ێوی
##مەت
ناوەڕۆک
##مەوە
هەری
دەرواز
فراکسیۆنی
##مار
ڕاپەڕین
هەینی
جەست
ئەمین
حس
جێگەی
کردبوو
ئەمریک
داڕێژ
ژین
هاوبەش
گۆڵ
هێ
ڕاهێن
##چێوەی
ملم
لەدوای
پێیان
سنووری
باڵای
باشتر
تێد
لەکات
نەوتی
پلەی
##وانین
بڕیارێکی
ڕەوشی
بەیەک
سەرەتای
وەڵام
لەق
##براهیم
دەکا
##ەندیی
##دەن
تەب
شارەز
حزبی
سەرەتا
شوان
فارسی
پەل
پۆلیسی
پڕۆسەی
قەبارەی
ڕێگە
##گومان
##ئێست
ئێراق
هۆکار
##خوازی
کێشە
دیدارو
##ۆڕی
خەباتی
##کەند
لەساڵی
مەلا
وتووێژی
گۆڕینی
لیژنەی
سوور
ڕۆژنامەنووس
دادەن
هاوسەر
شێوە
بازرگانی
تەلەف
دەستپ
ساڵە
ئەنفال
ماڵی
کەچی
ڕیفراند
بۆم
فۆنت
مۆبایل
گواست
ئیبن
جەو
دەزگای
الم
هەنووکەییەکان
##انت
خەی
ڤیدیۆگەلەری
##چەی
سون
##ردو
دەستوور
##زەر
ڕێگ
هەبووە
##ەبوو
ئۆپۆز
قسەی
وەرگرت
بەرپرسانی
فەرەن
##اون
مەکت
خودی
دووەمی
سایتی
گرێد
پێگەی
لەیارییەکانی
یەکتر
ڕازی
##حمد
بازاڕ
سک
هیو
##ئەم
لەخ
##ەکات
بەرژەوەندی
##ەکاری
تەمەنی
##اح
##ڤاڵ
خولەکی
فۆتۆگەلەری
کۆمەڵگا
گروپ
وەرگیر
مت
دەربارە
مەحم
واشنت
کورت
##گرد
ببێتە
ڕاستەق
##ئیل
##ییەدا
##ێران
پەسەند
خەر
##زیک
ئەرشیف
لێن
##ەزێن
##ۆڵی
##انم
ئەدەبی
کەمال
زوو
چاوگ
تەکنەلۆژی
##بون
دەستەی
##بەرایەتی
دیارد
میسر
بەوەی
سەف
شوبات
یەکگرتووی
لەوێ
##یەوە
ڕێو
سیستەم
##بێ
دەبێتەوە
بزووتنەوەی
##ۆیە
تەکنەلۆجی
تازە
عاد
##ارت
چیە
##دەکاتەوە
سەدەی
##انن
##دەدات
ئێرانی
بەیان
دەکەوێت
نهێنی
تێکۆش
باشووری
ئامادەی
گەند
نەبووە
##عر
چارەن
پەرەپێد
ڕەخنە
سەرەڕ
##ایدا
لەمی
داخ
نموونە
##زەی
پێچەو
شۆک
##اشی
ڕەگەز
نوێنەرانی
سویس
سەو
بێگومان
گەڕی
هەڵسوک
سەردان
##مەی
وەل
کاب
بەرواری
گشتیی
ڕۆژانە
مەه
ناکات
##ێچ
هەڵبژێرد
##بو
##امە
هێند
کۆمپانیای
گونج
##حک
لەیەک
کۆمەڵگەی
##ۆگ
ڕاگەیاندن
دەستە
کردو
کۆڵ
خوا
##بەندی
هەڵوێست
وەزیرانی
هێنا
##ەکەس
بکاتەوە
کەی
##ڵاو
##ەنەوە
مناڵ
نوێنەری
##انێک
پێشمەرگەی
ئاین
خەڵاتی
ستراتی
تای
##ەکدا
تاکو
تێیدا
بنەماڵ
ململان
چەکی
لەهەم
##ڤاڵی
پێناس
##ەمەنی
سەرەک
##ەدەست
هاتوچۆی
دێموکر
##اکەی
خەم
##لەی
##نێت
جا
پەناب
##ەیسبوو
##عیراق
ڕۆشنبیر
بەشە
دەهێن
سەرک
گرین
بەپەلە
لێپرس
##بر
دابەزاندن
تەکنەلۆجیا
جۆری
ویل
ێنج
##ەمبەر
##حیا
##کرت
کاروباری
هەت
##ەمین
بەدا
##ەتێکی
عەق
##گاری
سەرکەوتنی
##ارەکان
مەع
ئال
جۆراو
##ەفور
کردنە
ئاسمانی
بێد
ئەمساڵ
##ێنەوە
چۆنی
##دات
کۆنترۆ
بزوت
عەبدوڵ
نیسان
ئیبراهیم
##ییەی
##وش
ئەسکەند
##ەیسبووک
لەبەردەم
شانۆ
##ێنم
چاودێری
فڕۆک
حوزەیران
لوق
سەیر
گیان
ئارام
##پارێز
چاپی
کری
##انس
فری
دەقی
##مەن
دونی
##کری
سۆز
زۆرترین
بەرزنجی
دەبینی
##اریان
##وودی
##کارییە
چوو
بور
کوێ
پێکهێنانی
بریارە
پاڵپشتی
لەکورد
علی
##لۆ
##یرە
دۆلار
ئیست
دەتوانن
پارت
ئەمانە
مێزگرد
وەرب
شێوازی
هۆڵ
##گەکانی
دیکەش
##امپ
ناڕەز
لەدایک
دۆخ
کەسایەتی
یەحیا
بایەخ
بوار
##غان
دڵخۆش
خزمەتگوزاری
لوقمان
دەرو
مەل
##کەری
ئایار
سکرت
شێوەیە
هەلە
کاتە
کۆمەڵەی
پێغ
هان
مەکتەبی
دەتوانێت
##راوەتەوە
تێپەڕ
خۆشی
زۆ
##توانی
##انەکان
ئەش
##ینەو
کردوو
بووم
جەماوەر
بەدو
گوندی
عادل
##ەیل
هاوڵاتیان
فەت
کانی
دەدا
پۆست
هەشت
##لەکان
بنەمای
بەمەب
دواجار
##گیز
##لام
##ەبوونی
بڕو
ڕیفراندۆم
ئەرک
گرفت
میلل
کارەس
##دیای
تێگەیشتن
دووبارە
سەرکردایەتی
##ویەتی
ڕووداوەکاندا
گەرمیان
نیگەر
##بکات
هاند
کەسانی
##ائ
نەبوونی
سەرکەوتن
یاد
دەروونی
سر
لەبەرامبەر
جێگای
هەش
سەرەڕای
##انبەر
دەورو
بژ
دەزانی
##دین
بێو
جوانی
کەشو
لەپێن
ئەوانە
مۆد
##هێشت
دامەزراندنی
##ۆمی
پەک
ئێرە
شارە
نمایش
محمد
فەرمی
##ەوەر
دوازدە
ناسی
##دەکات
ئەڵمانیا
##بژ
ئەسکەندەر
ناونیشانی
بیان
وەردە
شێوەیەک
گرووپ
لەماوەی
هەز
وێنەیەکی
یەکێکە
کۆمەل
گەم
ڕوان
وێب
نارد
غەفور
پایت
بارودۆخی
##ێشی
ئاراستەی
ئەوەندە
ڕۆشنبیری
##ترە
نیشتی
ڕۆژئاوای
##گەیەنێت
##دەستی
تائێست
کەشوه
مرۆڤی
دادگای
##ودی
بۆئەوەی
بەمەبەستی
ئەنجامدانی
بەچ
لەکەر
ان
##یەکانی
##ێیت
شۆڕشی
##بین
ڕۆی
ئاوی
دەستکاریکردنی
فیستی
##رەس
##نەت
ڕۆمان
بەردەم
دەش
جۆرێک
حوکم
هەرگیز
##زمی
لەوانە
گومان
##ێڕی
##اتوو
##اما
دەداتەوە
##ەکو
ڕژی
##جا
##ەکر
سویسرا
خوێندنەوەی
چیرۆک
##اسم
##ەندا
ڕوونی
چینی
جێبەجێ
سروشتی
بێک
شارۆچ
داڕێژەیە
دوژمن
ڕیال
دەستیان
نەز
خەو
مۆڵ
##بان
##اندنەوەی
##ێشاوی
خاڵی
مس
##یروان
##ەکانە
کۆنگرەی
سع
یۆن
دەرکەوت
باوکی
دیال
ئایین
دڵی
کشت
واشنتن
وەف
گفتوگۆ
مانای
ژمارەیەکی
جەنگی
##ەجێ
ئینتەر
مل
چوون
ئیدارەی
گرێ
هێرشی
شارستانی
دەروازەی
##وازی
باڵی
##اهی
مەرجە
کراون
پشک
پارەی
فەرهەنگدا
حاجی
خۆشەویستی
پاڵەوان
هەڵوێستی
سەربەخۆیی
یازدە
هین
##نگ
دەبوو
بال
##کتات
چەو
##نیشان
چۆنە
باوک
کەواتە
ئاگر
لەز
ڕوونکردنەوەی
بەعس
داگیرکەر
سوود
مافەکانی
پاریزەر
##کوو
بەند
##ێڕای
قانونی
مەڕ
گوێ
پارێزگاری
##ێکیش
ڕۆژئاوا
ڕێشاوی
گۆرانیی
ڕاستەوخۆ
##دێن
تاب
تاق
سەرچاوەی
شەم
دەرف
زیان
##ەینەوە
شێواز
یەکەمین
کۆی
خود
ئیسرائیل
##اباد
##ۆف
ئیدی
وەکوو
ڕۆژهەڵات
حوس
##بەسەر
وەرگرتنی
##ڕا
##نامە
##بەست
مێ
مەسەلەی
تێدایە
دەکرێن
لا
عە
نموون
بەرێوبەرایەتی
باشە
##سن
دڵت
ترامپ
##گۆڕ
بەجێ
وەست
ئاڵای
فراوان
تێکەڵ
مالیکی
کیمی
پەیوەندیمان
##ارم
کاف
هۆش
##ەنتی
##ەوەیە
##ردی
وان
##ۆکان
لەمەو
بچووک
کچی
هەڵسوکەوت
##سک
ڕێکەوت
##پە
هەڵەبجە
تەرمی
تێبینی
کۆنفران
عەز
قادر
بەریتانیا
##خانی
باسە
##گرێتەوە
عەرەبەکان
تاری
کشتوک
لەکەرکوک
باشی
ئابوور
ئابوری
جیا
##اوا
فەرم
ڕێککەوتن
تەمموز
ناوەند
مەسع
##هر
##هی
خوێندنەوە
ئیسلامیی
وەزیران
وتاری
گوو
مەری
لەلایەکی
دەتوانین
ئوم
هاتە
گێڕ
وەس
##روپی
پێشمەرگ
زمانەکان
پەیمان
لێو
گرنگە
پش
حی
لەف
دەرباری
چەپ
ئەوانیش
بەداخ
خاک
کۆمەڵە
کۆڕ
##رێتە
بنی
شای
پسپ
##هێنەر
##شینی
مەسی
پێداوی
کەشوهەوا
لاواز
##ێرن
فەڕ
درێژەی
##سازی
##ێنت
##ازان
سەیری
##دەشت
چارەسەرکردنی
بنووس
کەب
بنەڕ
خانە
گور
کولتوور
لەهەموو
ڕۆژێک
##کیان
قەزا
ئاینی
ماند
کۆمیت
ئاه
##وەست
خێزان
##ژە
##ەڕووی
##ۆرت
گری
یەکگرتووەکان
شەقام
واقی
ئەنجووم
بارودۆخ
پەرلەمانتارێکی
بۆتە
لەکاتێکدا
ناچار
##کراوی
ناوچەکانی
##رخ
گەیشتە
##لو
ڕەم
خاکی
دۆست
نەخش
دەزانن
تریش
سیاسییەکان
بونی
کردە
تێر
چرکە
بزوتنەوەی
کەمتر
##ەکار
کوشت
سکرتێری
ئاسی
ێوە
##گار
جەماوەری
تیایدا
کیل
ئۆر
خوێندنی
شتەکان
##اج
ڕێژی
##خت
ئارەز
خواست
##گەیەک
بەرانبەر
سەرپەر
دیکتات
تۆمەت
ڕێکخراوە
مەو
ۆلەکان
دەگەڕێتەوە
عەل
ژنانی
مزگ
ناوەر
ئەستێر
##نەک
قانونییەکان
زانکۆ
ئامارێکی
گەورەترین
بەرەی
منیش
نەکردنی
هاوڕێ
##لێکی
نائ
##رن
ئەندا
##ابێت
فرۆ
##ەدین
جامی
ڕژێم
##ەکاریی
تاکەکەس
وەرزی
بەڕێوەب
مالکی
گرێب
##نین
ڕووبەر
ئۆپۆزسیۆن
کۆچ
کردنەوە
##ەمەن
کۆبوونەو
پەڕەکانی
حەی
نەخۆشخانە
ئەوەشی
چوارچێوەی
پێوەندی
بوونە
دەسەڵاتدار
کەسانەی
بریتی
دەچێت
##ازییە
تاکە
بەدوای
نمونە
##فە
ئەوی
سێیەم
بەق
بودجەی
هەلی
##ێمان
شەری
##انین
زیندان
ناسراوی
جەن
##پێش
ناکرێت
##ڕاست
##ووش
ئەردۆ
توندوتیژی
جاری
##واند
بەگشتی
سۆر
##گان
کۆلکە
گەلەری
ساتەکانی
ون
ئیش
مێش
شیعری
ئەیلوول
یەکل
خۆیەوە
##یاندا
##کاران
عەشق
##رۆز
##ئەو
دایکی
لەخۆ
دڵخۆشکەر
دووپ
هەڵبژێردراو
خوێنەر
لەگەل
مەج
هاتنی
زمانەکانی
کراوەتەوە
هەرچی
سەرس
ببین
##سێ
هز
حکووم
کارەبا
سود
نیشتمانیی
لاپ
بڵاوی
##هێڵ
##اردەک
یانە
چاوەڕوانی
هەمو
##هاتی
نابەر
گەن
ساتی
وێڕای
کەت
محەممەد
گۆران
کارەکانی
##ڕۆژ
پەروەردە
##ۆپی
لێکۆڵینەوە
##ۆمەڵ
کوردستانیشەوە
##ەبێژی
داواکاری
لیژن
هانی
بەهەرێمی
##ەدەر
دەقە
ئاڵو
ئاشکرای
زە
نان
کوشتنی
گۆڤار
داک
قەو
ئێس
بێوێنە
##ەدات
##گرێ
ڕزگاری
ولات
تائێستا
کتێبی
ئەدەب
کۆبون
##سیق
کۆمەڵگ
کورتە
ئاری
پوچ
بانگەش
##تەری
شارستان
لەدەر
هەور
پەیدا
نووسینی
##پر
تەرخان
پشتگیری
وشەی
بۆچوون
سەرکەوتوو
قەت
##ییەکە
پڕۆژەی
هەفتەی
لەئێست
دەخو
کورسی
##یدڕ
چەش
##ێکەوە
جێبەجێکردنی
بدرێت
دراوە
شێرکۆ
تاڵەبانیەوە
بکا
ئۆب
زار
چییە
خودا
لەسەرەت
##اکرد
سیستمی
##کای
وب
هۆشی
##هێنا
هاوس
زۆرین
کوردە
خوێندکار
بەداخەوە
وەزارەت
ئاسان
فەیسبووک
##قە
ئەخ
##کەن
ماوە
مێژوویی
کاتێکدا
بکەنەوە
ئامڕ
##ارەدا
دەکەوێتە
گەشت
سێهەم
شۆکێکی
باشوور
برای
ماڵپەڕی
##بارەیەوە
پڕۆژەکە
سزای
ماوەیەکی
##بوونەوە
##دەس
##ەندەی
وەرگێڕ
تێکدەدات
لەشاری
##ەکانم
عەص
تاوەکو
شتی
وەبەر
کۆری
لێرە
##ەشدا
ئێستای
مەرجی
##اڤ
##گەن
جەژ
خوای
مۆبایلی
زۆرت
لەج
پێشکەوت
پاب
##اندووە
عەصای
پەیوەندیدارەکان
دەف
بکرێن
دۆخی
لێناک
##اسایی
##ەختری
مەحمود
##حمان
##ەنجامی
تەبەختری
میلی
بەردەوامی
بۆن
##حکوم
شارەکانی
وەرگیراو
##تد
##بوڵ
##روژ
##ەوەیی
##لەندی
ویست
کەسە
بۆنە
کۆبانی
ئەح
وەها
دێتە
نار
سروشت
کارتمان
دینار
قۆناغە
ئێستادا
دەترس
هاوش
لیست
##ەکانیدا
سەنگ
##ڤەر
سەرق
گوز
هێناوە
کارتەکانمان
دڵخۆشکەرەکە
مەڵ
دیموکرات
نیشتیمانی
ڕوسیا
##لاوی
##ەکەو
ڕەفت
کارب
ژاپ
##نەبوون
لین
هێڵی
##ییانە
دەیەوێت
حەن
##اردەی
لەخو
دەروازە
کوردو
ئەنجوومەنی
نەن
کوڕێکی
ناوخۆی
خستە
##راوەکان
گونجاو
##کەس
مین
سەپ
شوێنە
پەیامنێر
دەستنیشان
##ویست
جەختی
نیشتمان
هاتنە
بەردەوامە
##فتی
##ریش
قەزای
ناوەی
سەدان
کارگ
ئینس
مردن
پوچەڵ
بارە
ڕاگەی
سەرمای
سەرەتایی
نیت
##کەکانی
ملیار
پۆلەکان
##بهێن
دادگ
وال
دانانی
داهاتووی
بخو
##گرافی
##ڕەوی
##زا
لەڕووی
ڕەه
##ۆپ
نرخ
ڕاوێژ
عەبدوڵڵا
بەخشین
پێدەکرێ
##چاوی
بچۆ
ڕۆژنامە
وس
بارەی
دز
ڕۆژە
هاوڕێی
عێراقدا
بڵێین
##گەیەکی
شۆر
جۆراوجۆر
##با
یش
##لین
##ەدانی
ئەگەرچی
بایت
نابەرپرس
##بووی
##لۆنە
##ێدی
گۆڕانکاریی
کۆمار
قورس
##دام
کۆمیتەی
ئێمەش
مەهاباد
بکرێ
هێنانی
##ۆیی
##ڕین
سەید
شەوی
##ژین
ڕاستە
پرسەی
بەتەو
##کردنە
##مەک
تیش
تەماش
گرتووە
ئۆج
ڕوداوی
گەرمی
خواردن
##تەو
##ۆکەی
جیهاندا
##ناس
##وربانی
نەج
بس
مۆسیق
ڕێکەوتی
##وێ
##نیان
##ەتر
نابێ
##گرانی
فارس
پێغەمبەر
دەمان
حوکمی
ئاگاداری
لەهەفت
دروش
پێر
گی
لەڕێگەی
ئامرازەکان
هەموویان
تاکەکەسییەکان
پرۆژەی
بەهەرحاڵ
کوت
زۆرێک
هەیەو
بەڵکوو
لێناکرێ
وەن
##ەرەوە
ئامڕازە
هێزێکی
اللە
وروژ
##ووست
سور
ئۆک
بەرشەل
بۆش
هتد
##ڕن
بببێت
زەو
پێشنیارت
کلیپ
بێب
تایبەتێتی
ئەدرەس
ڕۆمانی
بەردەست
مەن
دەدرێت
دڵتەزێن
بەرپرسنەبوون
ڕێگا
شەهیدان
##رایەوە
ناتوانێت
##لەتی
وتارێک
خەریکی
موسڵمان
مەسعود
دەبینین
وەرزشی
بەختیار
سەرل
منداڵان
ئەوانی
نابەرپرسییەکان
##ەفی
قەیران
زنج
##راوەی
مایەی
ناش
کۆمەڵی
##مانەی
##نس
کران
##ڵێکی
دەستبەسەر
##ندا
##ەکەشی
نیشاند
##دەخ
باکووری
کوردەکان
ئەفری
##وسی
پیشەس
پێشێل
##گیرێت
یادی
##ازیی
قاسم
گۆڕانکارییە
پلە
##فەر
دەدر
مور
خزمەتی
ویک
بەرپرسیار
ڕووبەڕووی
هاوپەیمان
ئەزموون
##ەکەین
##راوەکانی
بەراو
سامناک
##بایی
سەرهەڵ
##ۆلۆژی
کەرک
ڕەوانەی
مەزه
لاب
ڕووسی
سیاسییەکانی
بازگەی
سەرپەرشتی
بەگو
هەریەک
شە
##دای
مەزن
شەرم
واز
##ەتەق
دڵس
##گوت
هەرە
ئاڵۆز
##انەیان
بهێنە
مەترس
دەوڵەم
##یچ
گەشتی
##لای
لەمیانی
ڕادە
سان
حەمە
نۆر
دیاریکراو
سیم
قەیرانی
نێونەت
کردۆتەوە
بەیانی
بەبەر
لەلای
ئێرەوە
جەوهەر
نەبێ
پەیامنێری
لێکۆڵینەوەی
ژێد
مۆر
کچە
##کێی
نەری
##چەر
چەندە
گەیشتن
فەڕەن
بیروب
میسی
دێموکراتی
پەلام
##ەخشی
##ەواری
بەرد
دابەشکردنی
بەسەردا
کرمان
پێب
بەشەکان
مووچەکانیان
##نەو
هەزاران
کەوتە
لەکوردستان
کارکردن
ئەسەد
نەبوون
##ەکا
شێوەزار
مرۆڤایەتی
گەندەڵی
##پا
بڵاودەکاتەوە
بریتییە
پزیشکی
لەوەش
ڕۆژنامەوانی
دراوەکان
دەنگدان
عیم
قورئ
##مەندی
##ڵە
##کردۆتەوە
پێناو
حەنان
خواردنی
ڕون
هاتوچۆوە
لوغ
کرم
##ەدەغ
دارا
##اسیمی
##درێت
سوید
ئەزموونی
فەتلاوی
ناڕازییە
لەپێناو
زەحم
کەرکووک
دەربڕی
##ۆکانی
هاووڵات
دەستکارییەکان
##عە
فەرمانبەرانە
ئاگاداردەک
##زای
##ماع
دەتوانێ
کوردیەکان
واب
مێر
دەرکرد
##ێننەوە
لەهەفتەیەکدا
ڕەتکردەوە
دەگرێت
خانم
پیل
##ێلی
بەڵێ
بوە
واژ
هونەرمەندێکی
ڕەوتی
محەمەدی
##ارێک
زیر
هەمووی
هیواد
چوونە
واتا
بەپێ
##ۆزیتەوە
پێشبینی
گروپی
داهێنانی
جین
##اکەوت
پێشینە
##سکی
خۆراکی
##ستیان
قەدەغ
کاریگەریی
ئاگاداردەکاتەوە
سۆسی
زا
##ەیتوانی
ڕێی
هەڵوەش
نەر
##اید
بونەتەق
پێوە
##ەزی
##ەلاح
دڵتەزێنەکەی
خۆشەویست
لوغمێکی
##عیراقدا
ئەور
فەرهەنگی
ئەمریکی
##دەهێن
باخ
وەشانەکانی
##تا
تەس
##لاتی
ویکیپیدیادا
بونەتەقوربانی
ڕێنم
تاڵەبانیەکەی
هاوکاریی
دانو
پەیوەندیی
مێن
مانگە
بگرن
گفتوگۆی
سەعید
ڕێبەر
پارە
##ییەکاندا
جێگیر
کاتێ
ژێدەر
وئ
دژایەتی
دابڕ
کوردستانە
عیماد
لەبەرئەوەی
دانیشتوانی
##انییەکان
زۆرینەی
سنە
نەیتوانی
##ودا
لەهەمان
پەکەکە
##ناوەکان
ئان
ئەوکات
ئاوێن
دابن
دەوروبەری
لەهەو
دەستکارییانەی
##ارو
##گریی
دادگا
کارا
مەریوان
##رێژ
##ۆتایی
##اخی
لاد
##بۆ
گواستنەوەی
ئێمەی
وتارە
بەیاننام
##وێن
بەخۆی
زاڵ
باکوور
ئایپی
##ناسی
بڵێم
##ییەت
جیاوازەوە
بێدەنگ
##لۆم
##اکردنی
ساد
##بردنی
شاخ
بدۆزیتەوە
گوم
##ڤە
ڕاهێنەری
ڕک
##ایکڵ
حکوومەت
مامۆستای
##امەی
##لێک
خەون
شیر
##دەکەن
گەیەن
پزیشک
دور
داهاتوودا
##هەل
هاوبەشی
لوب
تیپی
جیاجی
بگرە
بدەین
قازان
خوشک
دەزگ
فیستیڤاڵی
پەروەردەی
تاوانی
ئینتەرنێت
هەتاوی
دانیشتن
پێت
نەکردووە
دەنووس
##ولی
کەش
##یران
خۆپیشاندان
ڕاکێش
بەنرخ
فێستی
دەگاتە
بۆیان
پەڕگەیەک
##دارە
هەبێ
##ریان
کەناڵی
##ماندا
##سین
پێچەوانەی
سۆزان
کوکی
##وق
خالی
تێڕ
هەژمارێک
وەنەو
##ۆرم
سەڵ
شێوەزارەکان
سووت
بەرشلۆنە
کەمی
##ایەتە
پرۆس
##گڵ
کێشەکانی
مێنۆی
موژ
بینینەکان
العر
##ۆنەی
میللەت
دەدرێیت
پییەوە
تەنگ
پەرەپێدەران
شایانی
##ووکە
ویکییەدا
پەڕەکاندا
پاڵپشتیمان
ئەدرەسەوە
شکست
##تن
سەردەشت
جارێک
دنیا
##ەکەن
وەه
بەدوادا
پێدانی
پەنا
##گل
درووست
شوێنناوەکان
ئۆباما
##ڕەس
پێشوازی
##ێنین
پەیامی
##انیە
گەڕانەوەی
میدیای
کەرتی
نیز
سعودی
##زانە
چەکدارانی
##شێو
کوردیی
ور
ببێ
ژنە
##ەخانەی
شەق
ڕۆح
ململانێی
پایتەختی
##دانە
##هان
ئازاری
ساڵانی
##ەخۆ
کرماش
کاتدا
##کەم
هەرب
##ەستە
مادەی
سەن
کش
فەرەنسا
بینیمان
چاودێر
تۆپ
زۆرتر
##جانی
کۆنفیدڕ
حیزبە
##کاتە
##جەکان
هێندە
##آت
لەبیر
##راوانی
ماوەیەک
نەوەی
بەڕێوەبەرایەتی
لایەنەکانی
سنور
بەجۆر
##پێ
##جۆرە
ئاغ
##لێر
##بونی
یەکتری
دەل
##کراون
نیشتەج
ڕێبەری
عب
پێکهاتەی
##نانی
ساڵەی
کوردستانەوە
پێمان
ئاڕاست
کارو
ببێت
ئازەر
##حان
لەسەری
پای
سایتە
##وەی
گەرد
دەزگا
وروژێنەر
بەهەمان
لایەک
گۆل
بڕیارد
بەرەنگ
##بکەن
دیسان
ناکۆکی
ئەنجامدا
بەگر
دیکەوە
ئەستێرەکان
##هێناوە
نەکراوە
ڕەخنەی
ئاهەنگ
کەسانە
##تەی
ستایلێکی
##ینا
نادی
وتەبێژی
سنوری
ڕایان
مەرجەکانی
گروو
دەور
نەف
##زاد
ڕێکخستنی
لاپەڕ
بەرب
سوت
شارد
هەنگاوی
فەرمانی
کۆنفیدر
حاڵەت
##اڵا
سەرمایەد
گۆڤاری
کۆمی
بەهاو
ئاوا
##باری
دەرچ
بارەیەوە
زیندوو
بەوەش
مەرگ
عەزیز
نەیان
دەرهێنانی
ماک
لەبواری
عوسمانی
پەیوەندییەکانی
هۆ
ستەم
هەڵدە
بانگەو
##الیزم
مێرد
##هاو
ئیتاڵی
##انێت
نەرم
کۆمۆنی
سەرت
دەکاتە
سەدام
نێچ
پێوەند
ئەمینداری
دەبنەوە
مناڵەکانی
ڕەنگی
ئەه
وەنەوشە
گوێرەی
ڕوانگەی
سبەی
##قین
خەیاڵ
بنەماڵەی
##ێکانی
##زین
هێل
بەری
کەسوک
ئاد
##وات
هیچی
سەلمان
سەرنجر
پاڵەوانی
داگیرکەرانی
##غی
هەلومەر
ئەکتەر
کافرۆش
پۆڵ
گەمار
##نز
کۆمەڵایەت
سەوز
پیرۆزبایی
بەرشەلۆنە
لەدژی
هەڤاڵ
یاریگای
برو
خۆک
وڵاتەکەی
کێشمەک
لایەکی
هەڵبژاردنەکانی
##سل
##وویەتی
گەلێک
ئەخل
خوێنی
چەکداری
باڵا
تەش
پەس
##ییەتی
فاک
درا
##ەشەوە
دەستووری
ڕابرد
نێت
چاکسازی
گەیەنرا
##هاتە
ناوە
بەگوێرەی
##ونج
##اردنی
گەیاند
ستایڵێکی
##کەکان
کوشتن
تێدە
کۆنترۆڵ
##گەکان
منداڵی
سەعات
موژدێن
دۆزینەوەی
##وندی
شاه
##ایم
عەشقەکە
بەلای
کۆبوونەوە
##خۆشی
تەلەفزی
##ایکڵۆپی
هەموومان
##ازیل
پێدە
##ێگای
جن
پڕۆژە
مزگەوت
ئینسایکڵۆپی
سەرنجراکێش
دەوری
لەجی
پرسیاری
فیلمە
خەس
سەرچاوەیەکی
بەریتانی
هەڵسەنگ
ڕەزام
سەنت
##اییە
بەکورد
ناحی
ئامادەیی
شارەوانی
لەمەڕ
##دەری
پێداچوون
ئارامی
سەربەخۆی
##ێیە
تیرۆریست
لەکار
چووە
مانەوەی
توندی
گوتیشی
هەروا
گل
پەروەرد
جم
##گۆ
##امەتی
عی
##زیکی
ڕووناک
زەم
تاوانبار
بەڕێوەچوو
ڕۆژانی
پرسە
##گاکانی
ڕادی
##اعی
بکرێتەوە
##اسە
بیت
##رای
ناتوانن
سەرنجی
پەڕانە
شارا
##ەکەیە
وەرگ
سەرو
بورجەکان
ناڤ
##انیانی
لێدوانێکی
پاشەک
دەرمان
شوێنێکی
ڕیش
##داد
ڕۆژنامەنوس
دەگێڕ
پەراو
##اڕی
مەش
ویکیپیدی
ڕۆن
ڕیزی
نییەو
##اوەکانی
وم
مات
ناکەن
دەرەکی
کرایەوە
حوسێن
##وف
لەهەڵ
سم
داهاتی
ستراتیژی
##وتی
بەرێوە
ڕاگەیەند
دیپ
برا
##ناوی
بەراورد
بنکەی
##لیم
چیرۆکی
هاووڵاتیان
کەند
سەمایەکی
بڕیارنامەی
شیعە
نەس
ئەمڕ
دەکرێتەوە
گرینگ
ئازادیی
سێر
زۆرە
وردەکاریی
فو
##شاری
ڕەسمی
دەزانین
دەخاتە
عین
##ەیش
گول
قار
پارچ
لەئێستادا
گەلانی
دژە
کۆمپی
##مەدی
یون
کارەسات
توێژینەوەی
خوازی
ڕوی
سێکانیانی
ترەوە
##اوان
سێش
گۆرانییەکدا
نێچیر
##نووس
کۆبانێ
کاربەدەست
##ەڵە
##ەکانت
بتوانن
از
بۆئەم
خەرج
کوردستانیش
نازانم
##گرام
##سۆن
چارەنووسی
دەستکەوت
تاوتو
بگرێت
##ووڕ
شاند
نەوش
گرەنتی
بڕوای
##ووپا
##اوەر
کرمانج
دەترسن
ئیتالی
باران
تریشی
تک
##بەت
خۆراک
موحەم
ڕەخن
##ەینە
دەچێتە
نوێنەران
ماددەی
نەهات
پەنجەرە
جاران
تەئ
کۆیە
کارمەند
ڕاشی
جەخت
##هاتوو
بەهەم
##تما
بەرێز
دەرگای
سینەمایی
##ژیی
هەستیارە
پەڕەیەوە
هیوا
گەری
ژنی
سەخت
ئیسماع
بەح
ڕاستیدا
بەگرەوە
ڕاوە
لێژ
##ەڕی
بڵاوکردنەوەی
نوسی
ڕژیمی
هاتن
##دەت
گروپە
##ەقیق
تار
پەرەی
سەرچاوەکان
سار
خۆیەتی
ئازەربای
میس
گەلەکەمان
مووچەی
دێرین
نێونەتەوەیی
ئور
شارۆچکەی
ناسراو
تایبەتمەند
ڕووبەرووی
تەی
جەع
لقی
ئینجا
ڕام
شیو
ڕاس
کاتەدا
ناشتنی
گرتن
##وین
لەچەند
ئێراندا
دڕ
حسێن
سلۆڤ
##کاو
زۆریان
##خس
##هێ
پارچە
ئاشت
سەقام
##ەلان
##کردوە
فەرماندەی
##رواتی
بەنی
لەچوار
زایینی
##ەرێکی
ساڵێک
##ێدار
ئینسایکڵۆپیدیای
ویکیپیدیاوە
بپارێز
##اییەکان
بەرج
##ژمێری
مرد
نوسین
ئاریتما
عێراقە
سوپاسی
لەپێش
ئەشک
امین
ئێوارەی
##کردنیان
بێن
##ئەوە
چۆنیەتی
لێپرسراوی
بازاڕەکانی
ناکۆک
واقیع
گۆڕەپ
##یرەکان
##گرتووە
##گەیشت
وەشانەی
##بکرێت
گرێدەری
بۆچوونی
تیرۆریستی
لەهەرێمی
##لەمان
##رابوو
هەڵە
کێشەکان
##له
ئاڵمانی
نیم
ئەڤ
نیگەرانی
##کردنەو
بێز
ناوخۆیی
فەرحان
##لات
ئاراوە
کتێبێک
##انەو
یەکسان
گۆڵی
کۆیل
ڕێوڕەس
##لێمانی
ڕەوان
سەرکوت
ڕۆحی
دەبنە
کشتوکاڵ
قبوڵ
کێشمەکێشی
یۆر
الع
کرێکار
##ەڵات
قوڵ
تەکنی
کرماشان
نەورۆز
پێشکەوتن
نیشانەی
هەڵگری
دادپەر
هەمووان
حاڵەتی
وەسف
چوارشەممە
##ەکێش
لاوانی
##توری
لەمەوبەر
بەپێچەو
##اوەکان
بتوانێت
داکۆکی
دابوو
لەبار
کۆنە
هەواڵدەر
دووشەممە
زۆرب
بەرهەمهێنانی
بەرزی
کوردان
پێشەوە
ئەحمەدی
لاوان
پتر
دەسەلات
دواکەوت
کۆکردنەوەی
##وانینی
##رۆڤ
ڕیاڵ
پابەند
بەروار
##ۆنیا
هۆڵی
##ەتەکانی
بەدەر
سەق
کەلە
دەکەو
عر
##وێژی
کاتەی
##رێنەوە
بەرژەوەند
ما
کاڵ
گەشەپێد
##گرین
خەت
هەژار
لەمێژ
بەشار
##وانە
لانی
چاوەڕوان
مەیدانی
سەنتەری
کەناڵ
ژینگە
پەیوەست
سارد
دەیانەوێت
عەم
پاریس
گرد
دانراوە
دەگۆڕ
لەپەر
دەزانێت
##اوەو
دەوڵەمەند
##کورد
باشوری
##گرتوو
خۆیاندا
مانۆڕی
دەکرا
دێن
##رایە
کۆنفیدراڵی
مەڕاسیمی
لەدی
فین
نەماوە
##مدا
هیوای
پلانی
زۆرجار
##اسەری
##ۆرک
ورم
هەڕەشەی
کۆمپیوت
##بەند
تەندروست
چە
##ەسپ
کوردپا
کەلت
بیانی
##ەوەری
نوێنەرایەتی
تان
بووین
بنووسە
سوودی
مرۆیی
ئەوەیان
گەورەیە
ئەمج
دانا
##فۆن
بێتە
##بیا
سەربەخۆییە
مافە
وتەی
سودەکانی
##دال
کاس
##هم
هەڵبژاردنەکان
لێکەوت
پان
پێشک
بۆر
بنیات
گرێبەست
جوڵ
خانوو
شکێنی
تابل
پەخشی
ئاخر
ویلایەتە
شانۆی
زێڕ
##اییەوە
##پرات
ئەوەشدا
قووڵ
هاوڵاتیانی
گەناوی
بنەڕەتی
##ژن
ڕووسیا
بەڵێنی
##اوەتەوە
##ێردا
بەڕاستی
شارەکە
عەقڵ
قوتابی
##ەڕۆ
لەسلێمانی
ئەمریکاشی
دابینکردنی
کۆتاش
ئیع
ڕووداوەکانی
قەڵەم
کۆمنز
بەجۆرێک
دەستب
سویدی
##لایەن
دەستپێکی
نوێت
##کۆل
سوک
نەوشیروان
مێژوودا
ئۆپۆزی
##قەی
وعیراقدا
کۆتاشەوی
دەهات
گرەنتیەکەی
ڕیک
##ووز
ڕایگەیاندووە
ئیسماعیل
جەستەی
گوندەکانی
بگۆڕ
یوس
مای
بەنرختر
یەکشەممە
پیشەسازی
ئەندامێکی
ئاکام
یەکسانی
ڕێکەوتن
نێچیرڤان
##ەپە
عینایەت
##شەی
پیاوە
تۆمەتبار
ڕیزبەندی
اڵ
نەخۆشخانەی
تەقینەوەی
پرۆژە
سۆران
پێشواز
ڕووداوەکان
بێج
پارتە
خالید
کەوا
##لەمانی
تیپ
فران
ڕاشیگەیاند
##پەنج
نەتەوەیەک
##رۆید
ئاسیا
ئومێد
بەڕێوەبردنی
وەرگرتن
قوتابخان
وردە
کۆنفیدڕالی
بەڵێن
##ادایە
یانەکانی
لەناوچ
##ییانەی
ساخ
ماندوو
فل
بۆنەی
ئاژەڵ
دووپات
لەسن
##ەزانی
بەدەستهێنانی
لۆ
ڕایدە
##یست
##ەکەیەوە
بەرف
بدۆز
واد
خوێنراوەتەوە
ئەلی
##ئەند
بەهیچ
میوان
دامەزراوە
لێرەوە
ڕاستەقینەی
ئەستیرەکان
درۆ
##تۆن
زەحمەت
ئامێر
ئەبو
گرووپی
##اماد
مەم
ئەوەندەی
##انەن
لەندەن
##ێوەر
##دەکرێت
عەبدوڵا
کەڵک
باوەڕی
##ەتدا
کۆنگرە
##هێنەری
ئەنجامد
دەدەین
##چاری
بەشێوەی
وپ
زەب
فەز
کۆمپانیا
خولەک
هەموان
هەولێری
##مەنی
ئاماژەیە
##دانەوە
بڕوان
دەبات
خۆب
فەیل
ڕوب
ساڵانە
میکانی
دێمۆکر
نوسەر
هێڵ
ئابووریی
ڕاستەقینە
چڕ
##جاری
لەسەرەتای
ئەفغان
ئەمەریکی
دواتری
جەمال
دانیشتوو
##ییەکانیان
خراپی
##الیست
##ڕانی
پەیوەندییە
##ئە
##وج
هەڕەشە
خەجێ
##وەو
##ئەنجام
وردەکارییەکان
سەرقاڵی
یاریزانە
بەخو
نەکات
دەژین
سڕ
بیروڕ
ئاسمان
فیدراڵی
یەکلایی
##دەدا
سەرەوە
ڕاگرتنی
لێکرد
##پۆش
##دیان
بآ
هێما
عار
مەح
بانگەشەی
بهێنێت
##سم
ویستی
##الە
##ووتی
تردا
##لاع
دیکتاتۆر
زای
گەشەی
مۆڵەت
یوت
گرفتی
بەردەستدایە
خەزێن
کۆنفرانس
دەریای
فێری
ڕێنمایی
لەگەڵا
بەرچاوی
چەمکی
##ویانە
پێناسەی
لەکۆ
میواند
##تانی
دنیای
هاتوون
پاشا
ڕێکخراوەکانی
##جێ
فیدراڵ
یەکگرتووەکانی
ئێک
قوتابخانەی
دڵسۆز
خێزانی
سووک
داگرتن
کەسایەت
جگەر
زێد
پڕۆژەکانی
دەزانم
ورمێ
مردنی
پێداویستی
ئیمپرات
کاز
چوارەم
حاک
حەیدەر
جل
لەکۆتایی
بەکاری
خێرا
بێتەوە
کەمێک
##شتەر
بەدەستی
قەرز
##بێژ
دەڵێم
ئینسان
خورم
بەخێر
کوژران
میدیاکان
پەراوێز
کردووەو
جوگرافی
گرووپە
خەڵات
ئەندازی
مانگێک
کلاسی
هیند
بکەوێت
به
وابوو
##داتا
##ژاد
یانەکەی
بلاو
##باران
سب
منی
سوڵ
لەدا
حەو
ئیخ
ویکیداتا
کاروان
بزانن
حزبە
گوایە
مح
هەواڵدەریی
وێ
هەربۆیە
مەسیح
کاوە
##اهەنگی
ڕووبەڕوو
ستی
دەگرن
لایەنەکان
بازاڕی
نموونەی
##وێنی
بریاری
##کران
##اسیۆن
وری
پێشکەوتوو
ناڕەزایی
لەگەڵدا
زیانی
##اغی
بەتەواوی
پەیڕەو
کرێکارانی
سەندی
##الان
کەموک
کابینەی
مەرگی
بچوک
کوردیش
ووش
چیتر
دەبەست
وێست
خۆتان
نێ
##دن
##بانگ
##اندان
##هیر
گیانیان
قسەکانی
مەبەستە
باشترە
کەپ
تووش
بخۆن
مردوو
سیناری
نەهێشت
لەمبارەیەوە
کوژراون
ڕایانگەیاند
##راب
خانەقین
لوبنان
##ادان
##وڵمان
دەوت
##ژیان
دەکوژ
ئەکادی
##ەغ
ناوچەیە
##وڵات
یوتوب
کەلار
دەستەبەر
عەش
##ینگ
توشی
ترسی
دونیا
کەرکو
دۆسی
##وێژ
پیاوان
کارگێڕی
یۆنانی
##ووەتە
خاڵە
##ارێز
##روست
زانک
کۆنترۆڵی
##ەشە
بناغ
کچان
##چون
سێشەممە
خەزێنەی
فرە
##شێوەیە
لەع
لێیان
ڕێژیمی
##ەشت
##ەدایە
بکوژ
ڕەشید
جەب
بەرهەمە
دەوێت
##وشی
ئاوێنەنی
مووس
##کن
بریتین
##بوونە
##اسانی
سیروان
کاریان
بزانین
##لوو
یوسف
بڵاوکردەوە
##نشین
شەهیدانی
مامەڵە
پارێزگاکانی
سیاسییە
سامان
بێجگە
##لێ
وشە
هەناردن
دەگرێتەوە
هێندەی
قوب
وێران
شۆڕشگێڕ
چەوس
کڵ
مەسیحی
##اوانی
هەڵمەت
شەنگ
ڕووداوی
قۆناغەدا
توانا
بکەینەوە
ناکرێ
##ڤا
نمون
ئەکات
دیاردەی
پێکدا
##گیریی
دەژی
##تیک
یارییەکە
##وەتەوە
تەع
گەندەڵ
جەنابی
بووەتە
دیس
##ەکێ
دادوەر
ماس
دەستور
##چێ
شێرپەنج
##ەددین
##دکا
ئامادەب
ئەمەریک
غەز
##ەماڵ
گەڕانەوە
دانە
سووریە
پێشان
وه
##یەتی
مرۆڤەکان
گۆڕی
##پەرست
پێشکەشی
تەئکی
گاز
هۆن
پاسدار
دیاریکردنی
##تین
##ەتان
##گەلێکی
ئاستێکی
سەلاح
لەدو
##وزی
گۆڕانی
##اردە
##وولی
##گرە
ئێوارە
ڕق
##ارین
##پێکرد
ڕێگری
نەتوان
بچێتە
دەردە
##یشدا
دینی
##جید
##ەمبەری
ئەفغانستان
خاتوو
دید
کارەبای
کرێکاران
##کتور
غەری
دۆڕ
ئۆپەر
گوێی
بەستەرەکانی
پڵ
##ەمید
پسپۆڕ
##ارییە
کۆپ
وڵاتێکی
موڵ
ژاپۆنی
چەشنە
است
قی
خۆڵ
شوێنێک
لەخۆی
کۆر
ڕاز
دواتریش
ئەفسەر
پیکس
بەمەش
نازناوی
شم
حەر
##شەم
##ەکیان
ڕابردووی
##ریکا
##ابەر
دادگایی
پلان
کەمکردنەوەی
سەران
ناتوانێ
##هەڵاتی
داناوە
تکایە
زانا
مارک
قایم
بشار
##پێو
وشک
بوونەوەی
پرسیارە
لوت
نابین
فەلسەفەی
##حن
##ەبەی
خام
##ڕێت
##پەری
ڕاگەیەن
دزی
بۆتەوە
علیە
نەوە
ڕەنج
سزا
ئەفس
ئایفۆن
ئەق
بەهەموو
##وەکان
یەکێت
##پۆل
##دنی
گرێدانەکان
دادوەری
دانمار
##ەکرێت
ڕێکخستن
ڕەزامەندی
کامێر
بژی
سەرۆکایەتیی
خەریکە
##ەبە
گووتی
بەهێزی
##میل
بەبۆنەی
بەڵگەن
ئاسۆ
##ڤانی
##ێکم
نمای
لەبەرچاو
کیش
##ساز
باکوری
لەچوارچێوەی
##ەزان
##بونەوەی
مسۆ
بوونەوە
مانچ
کیلۆ
ئەبێت
پەخش
##شتەی
وز
گەیاندنی
کەمپ
تێن
هەولێردا
قورئان
دراوەی
یانی
هەرچەند
کانونی
دیموکراس
بڵاوکراو
زەند
وزەی
ئەشکەنج
قوتابخانە
##پێد
ئاوات
##گەریی
شکستی
##بری
##ێکردنی
پێویستیان
ناوبژی
گاڵ
شۆف
جووڵ
دروستبوونی
چارەی
ڕەق
ڕەوت
پیت
سوو
##رانەوە
ژینگەی
ئاید
گەورەو
##استیدا
##اسیۆنی
##ێزە
موح
لەدەستدا
##گەیە
##شاد
نووسەری
شا
بەخش
ناسراوە
ئاشکرایە
##بخ
شانازی
##گەین
کۆنتڕۆ
کرتە
کوردانی
##کرایەوە
چوارچ
##ەستین
##ویکی
ڕوودەدات
##رانە
##گەلی
لەدەرەوەی
کەسوکاری
##حاڵی
سوپاس
بخاتە
ئامادەبوونی
دووهەم
نێر
مێشک
##ژیانی
سینەمای
##الیستی
بڵێ
بۆخۆی
داواکاریی
بۆسەر
بەرازیل
خەلی
هەموار
بەشەکانی
دۆزی
جەز
سەڵاح
بەرەنگار
دل
##ڤین
دەناس
##کرن
ڕوسی
وک
بەشداربوو
واتای
##ەڕۆی
یارییە
ئاوێنەنیوز
ڕۆڵێکی
هاش
ئەبوو
زنجیر
هاوکار
##شم
بەکارد
لەیاری
داوایان
خۆڕا
جۆن
##انا
براد
هونەرمەندی
##نک
پێداویست
ڕێن
پێدەکات
هەڵد
دانوستان
##گرم
دروستی
ڕست
درام
##لیس
بۆمان
ئەنجومەن
بەهاری
ساب
بەناوبانگ
بووەو
دەستەو
بۆت
لەعیراق
پێشکەوتنی
پارێزگا
کردەوەی
قام
دیت
کۆنس
هەردوولا
##گات
ناڕەزایەتی
ئافرەتان
فەیلەس
##ەنین
##میدیا
دانیشتنی
حەفت
قازی
##ێرت
گوزار
ترسناک
گرتنی
ڕۆیشت
تەخت
ڕۆژهەل
دەروون
لایەنێکی
سەرباری
ناپ
تۆڕی
گرنگترین
نێوانویکی
##چن
هاوشێوەی
لایەنێک
یەکجار
ئاوێنە
بیرکردنەوەی
کا
ئاوەدان
فەرەنسی
##فری
پیشان
باڵیۆزی
یەکێکیان
ئەسپ
##ەتەی
هەوڵەکانی
تیادا
بەیەکەوە
فەرمانڕەو
ئازەربایجانی
بکەرەوە
##فا
مانچست
نیوەی
ەی
##ڵق
قاچ
سەرش
پەرە
مەگەر
##اتیک
حەش
ئیرادەی
ئیتلاع
کاردانەوەی
الح
##مز
بوارە
##ەیەی
ڕابردو
##ەسی
هەڵبەت
دەزگاکانی
وتم
##لک
##کراوەکان
پال
بەهر
##ستا
قا
##رۆنی
##وکس
دیداری
هەبوونی
##قا
##ۆد
پایتەخت
کەسانێک
زیرەک
ڕەوش
کۆمپیوتەر
هەفتەیە
قەرەب
شاندی
موع
ئەردۆگان
وەرگرتووە
گەنجان
##ێدا
لێت
متمانە
بەعسی
کوردەکانی
ئەمڕۆی
سەرهەڵدانی
هۆز
دەرباز
العربی
ناردن
دێر
پەرەپێدانی
ئامۆژ
##تۆی
مسۆگەر
تایبەتمەندی
دیمەن
دەنگدەر
سەرکردە
##ەوەکانی
ڕەگەزی
فۆر
کۆبونەوەی
##امبەری
نوێترین
بنچ
ئەورووپا
ترا
حاڵی
ەر
سەرچاوەیەک
فرۆشتنی
ئێن
عەس
شون
نەکەن
شیرین
ناردنی
##ینەکانی
یەکێکی
##نینی
ڕاوێژکاری
کرابوو
##های
ئاکامی
تەح
ڕێزی
ئەدی
##ارەیان
پێوەر
بۆشایی
جول
نوێک
خستەڕوو
جەژنی
سوننە
تۆمەتی
##اکاندا
کۆڕەک
لەمان
ئەردۆغان
تاکی
ئاسانی
کامی
##ۆساید
الق
بڵێن
بگاتە
مع
پەرت
سوپا
##گەکە
مون
##گواز
کاربەدەستانی
##ەنا
بناس
هێندێک
##ادری
زیادی
سندو
ڕیف
گران
مۆسیقا
##انداوە
داخواز
کەئ
یارم
لەبەغ
ئەکادیمی
ئاگری
فەلسەفە
یەکە
##ڕۆژی
کۆنفرانسی
##ەلم
##امەت
دادەنرێت
##اعیدە
ڕف
کۆمسیۆن
پاڵێو
هیوادارم
##بەش
چاوەر
چۆنیەتیی
بەخشی
دیپلۆم
خانەن
##گۆڕی
##اتینی
بەرپرسێکی
##ودەز
چۆ
چو
مەشق
لەگەڵی
منداڵانی
کشتوکاڵی
ناحیەی
واق
پیاوێکی
##اکردنەوەی
مامۆستایانی
نەشتەر
ڕژیم
لێکدانەوەی
خەڵکە
##ڕەحمان
خواستی
کۆمەڵکو
##ێنتی
##یند
مەخ
زوڵ
سەرەکیی
دەخواز
##وڵی
دەتوانیت
هەلبژ
لاوی
دەرچوو
کتێبە
لۆگ
شەحن
سێکسی
ئێز
توانیان
بکەی
ویژ
کولتووری
میوانداری
ویکیمیدیا
نیشاندانی
تیڤ
ئازادیخواز
بگەیەن
نەش
زیاترە
ئاماری
مامەڵەی
##ارات
مرۆڤە
دەبەن
صلی
دەکەیت
##ێرانی
##ِن
ئاساییە
سەرکردەی
##سکۆ
سکاڵ
لایەنگرانی
##ماڵ
دیکتاتۆری
##ورە
پیس
دەسەڵاتە
نال
##کردوو
هەناس
##ییەکانەوە
میت
سەند
##اوای
دەرکردنی
تیشکی
شتە
شاد
ڕوبەر
بەها
هۆڵەندی
##ستن
بۆنی
خال
##ارانە
ناوچەیەکی
دۆلاری
هەڤ
لێبو
ئێرانەوە
سەفەر
بانگەواز
پاشای
##الیزمی
چارەنووس
سیاسیەکان
چۆڵ
مامۆستایان
مۆبایلەکەت
ئێمەدا
ئابی
بارەگای
داری
##اینی
بەدڵ
تورکمان
قەد
ڕەزا
دەمێنێتەوە
دەرفەت
ئیج
خوێندکاران
ڕاهێنەر
تیۆری
ڕۆژاوا
ئۆکر
دروستکراوە
گەشە
هاری
پاکستان
سیر
##اداشت
هەفتەیەک
دووچاری
##ەکەر
کوردیدا
یارمەتیی
ژیانێکی
تاکوو
##هاتنی
##ەڵک
متمانەی
بودجە
کارێک
نوسراوە
##تیل
ئیمەی
میان
بەسەری
##وورد
یاریزانانی
یەکەی
##رت
بەهای
##اندی
ئایندەی
کەوتنە
ئاڕاستەی
کوژرا
##ەدار
##فەی
تێکۆشانی
فاشی
##رک
هەنگاوێکی
شەڕێکی
خۆرئاو
هەرکەس
جیابوون
##اندەوە
##مێس
ماری
هەوڵدان
دەستدر
ئاواز
بۆس
العربیة
هاتوچۆ
پەیوەندییەکی
##ەنسی
ئامەد
سلێمان
بێه
مەجید
دەربەندی
پورتوگالی
ئەپ
دیالۆگ
##بل
##رێس
کەرکوکی
فوئ
لەچاو
لەسەردەمی
عەف
عبدال
ئوس
مێت
گەڕەکی
کورتی
فەڕەنسا
ئەمن
ڕۆناڵ
##ەستەی
پەیکەر
نەکرێت
ڕوداو
دیوانی
دات
کەلوپ
تەڵ
دیو
ئەگ
چل
خێرایی
حیس
کرێکاری
سەروەر
ڕاسپ
قوڕ
##آتی
##ێکدایە
##وژی
ئیتاڵیا
پیرۆزی
نێودەوڵەت
##یشە
نەداوە
فشار
عاش
کۆریای
ڕاستەخۆ
جەعفەر
زمانە
دەبینێت
بەرێوەبەری
دەستیپێکرد
سۆڤی
ناح
گووگڵ
پیکسەڵ
بێکاری
قەن
##دێکی
نزیکی
ناسیۆن
لەبری
پتەو
سێکس
دەوڵەتە
نەناس
زانیارییەکان
کلت
شین
سامانی
وێنەکان
پیاوی
ئۆتۆمبیل
پەت
مەعری
هاوچەر
##ارن
پێشبڕ
بانکی
ئارەزووی
ڕیزەکانی
دروشمی
پێست
وسلم
قەرەدا
بیرکردنەوە
فرۆک
بەرژەوەندیی
##کرێت
##اوەڕ
بۆل
##ەتن
تیا
تیۆر
لاتینی
ڕەج
بینراوە
##ەبێت
##ەترین
ڕێوشو
##ەرز
لەشی
ئەلع
ناخ
زاخۆ
میللی
ڕێککەوت
##گم
کێشەیەکی
زمانێکی
ئەلب
##سیاس
کێب
جیاوازە
موزیک
##ەنیا
بەشێوەیەک
فوئاد
##کل
وتارەکان
جلو
ڕۆم
لەوبارەیەوە
بەخت
بیرۆکەی
ڕاش
##تیکی
لەلێد
##ُم
کۆمێنت
ئەندرۆید
لەڕێی
ئیمەیل
سێب
##ەمەوە
سەرچاوەکانی
ببنە
دواب
کۆشکی
لەشک
##مەز
##ەکراوە
##ردە
ببن
پێکهاتووە
ئۆس
لەرێگەی
مەڵبەندی
گەو
قەل
بەڵگەی
ئەوەبوو
ئەکەن
مەدەن
ڕۆژانەی
هاوکێش
بەمان
هەڵەی
##شتر
پێیوایە
ڕانیە
ئیتالیا
##قل
میلان
دەرهێنەر
چەق
##ۆیەکی
##اکاری
##کارانی
بتوانین
جۆ
درێژایی
مۆڵەتی
ئامادەکاری
کورس
بەمشێوەیە
ڕاگەیاندووە
نووسراوە
مەزهەب
نارەز
موچەی
تەماشای
تەقینەو
عەد
##اسای
دامودەز
##ەخس
خۆشحاڵ
##گەو
ژمار
عیراقدا
بەڕێوەدە
لێژنەی
سەرد
نەبن
دەرفەتی
هزری
ململانێ
بایرن
کردوون
کیلۆم
##کارە
فیر
سیتی
حەقیق
ناخۆش
ڕێککەوتنی
هۆکارەکانی
کەوتووە
ئامێری
دەریا
نەتەوەکانی
گالی
##ەکانیاندا
خورماتوو
سەرمایەداری
نەیانتوانی
ژیانیان
ژووری
سینەما
چەمچ
تیم
ناسنامەی
##جان
##ەمینی
دێموکرات
بەرەوپێش
ناوەراست
موق
تایبەتە
بەرهەمەکانی
کێڵ
فرمێس
هاوولاتی
لەبن
ناویان
کڕی
##دیۆل
لەڕۆژ
ناوچانە
ماست
بەدرێژ
تووی
خەز
##وویی
##لێن
ئەمەی
کۆتای
ئامادەیە
پەسند
بەتوان
چاوەڕێی
خیان
ژاپۆن
پانت
کارکردنی
هەژاری
ەو
این
##ەوەن
سەربازیی
##ادین
سەروەری
خواز
ئامادەکردنی
نادات
بڕوا
##ەرەی
گەرمیانی
پەرەسەند
مانەوە
بنەما
نەدا
لق
خانەی
دەکردەوە
ئۆجالان
گەڕایەوە
بایەخی
ئینگلیز
عربی
ڕەشی
دڵشاد
ئاژانس
##جەو
خێڵ
##سای
##خستن
##یین
##ۆماری
هاتوو
بوونەتە
جیهانیی
ماوەتەوە
ڕایدەگەیەنێت
پێداچوونەوەی
بانە
##انەکەی
بچێت
نیشانی
لەلایەک
یەوە
ئوت
گۆڕەپانی
تام
ئۆپۆزسیۆنی
بەرگی
شەرەف
پێموایە
پێدەچێت
وردی
بێبەش
##قامی
ماسی
##ێرێت
##ڕێ
##مەدین
کردبێت
دەبەخش
##ەرەکانی
کون
##نیا
پێشنیار
قۆڵ
دیاردەیەکی
کەسەی
پێناوی
##پێکردنی
ئیخوان
ناوەڕاستی
ئاخۆ
توانیویەتی
پە
مشت
دوکتور
کێشەیە
##ریت
فەرهاد
دامەزراو
سەلی
سەرلەن
شەڕە
تەرم
نوێژ
ببینی
سوکایەتی
ار
واژۆ
هێنان
کاو
ناتوانین
لۆژی
میون
قارەمان
ناودار
هیندی
شۆرش
##فرۆش
دەستوری
شن
وج
##الا
مێژودا
فەرماند
چەت
میانەی
سیاسیەکانی
##ڕای
درەنگ
زەی
جێن
جڤ
سەریان
ئەبی
لەکۆن
حیک
بشارەوە
جلوبەر
ئەتۆمی
دەبینن
لیبر
هاتۆتە
بریتیە
مەزهەبی
##هاتووە
##یزی
قسەکردن
دایەوە
پەلاماری
داخوازی
یانەکە
پیاوانی
دەربڕینی
##ومی
سەربە
کاکە
##ارییەکان
##ەوانیی
ڕادەیەک
هاوپەیمانیی
کارەساتی
##اندایە
##ادەیەک
تیرۆریستان
##پڕ
ام
دیالە
تاریک
سبەین
مەترسیدار
##ەوەش
ڕوویدا
نێرد
پاسەوان
بەرێوەبەر
تف
کەمە
مێژوون
##لەت
ئیداری
چێژ
##اشە
نیشتەجێب
شۆڕشگ
لەح
برایەتی
هۆشداری
بێدەنگی
لەفەیسبووک
باوکم
##بێتەوە
##دەبێت
بکاتە
وەرگێری
ئیئ
هەڵبژاردنە
ەم
ئیل
کۆتاییدا
ڕاستەوخۆی
##ووکی
تورکیە
ڕادەی
سیاسەتمەد
##ەنها
ئەتلەتی
ئاڵوگۆڕ
ئەنق
بوارەکانی
گەنجانی
کۆمەلایەتی
##ەختە
لەلێدوان
جێگر
لەهەولێر
بۆند
سەرەنجام
##ابن
خوێندکارانی
بکەو
دەسەڵاتدارانی
کوم
ئەبێ
سازمانی
ئەوەتا
شام
جوتی
قازانجی
کوردایەتی
پڵەس
##ِی
هەورامی
موت
لەهەڵبژ
وچ
یاسایە
تیڤیەکان
##تەرخ
فڕۆکە
هەنووکە
##سۆ
وەبەرهێنان
لەپێناوی
##کێکی
##ددی
ئەکتەری
##گانە
لایەنگ
ووشەیەک
مالیزی
عەباس
##ەڵاتی
هاوار
خانەو
بهێنن
ڕووداوەکە
خەیاڵی
دەڕوات
##اییەکانی
دەکەینەوە
دراوس
نەهێشتنی
##مانەوە
ئۆپۆزیسیۆن
##ردنەوەی
دووپاتی
هێو
چەسپ
لەسوری
کردۆتە
ئەرمەنی
خاوێن
پێکهاتەکانی
پاکی
سیاسەتە
نەدەکرد
وەب
پۆستە
الن
##چونی
##شیکردەوە
ڕووخانی
وێر
دەربڕین
توویتەر
##نداڵ
##اویکی
گۆلی
نەخێر
ویکیپ
هێرشیان
لەدوو
شەرعی
بردنەوەی
ئینسانی
##بووم
لەبەش
خوێندکاری
قورب
مژ
پەرست
دانیشتووی
##ێدارە
##بۆوە
ڕوخس
هۆڵەندا
بەفر
##تل
بانگهێشت
خەمی
بژاردەی
هەڵمەتی
کوردییەکان
زنجیرە
پێیە
کوردستانیان
ڕامی
بەرنامەیەکی
ماڵەوە
ئەخلاقی
دانیشتوان
تۆر
ستاند
##لەم
خەونی
##کەوتی
پێشتریش
تازەی
کەسیان
بەبڕی
موچ
ئیستا
سۆم
عەبدولڕەحمان
چوونی
ناوەندە
کوژرانی
مارکس
بۆکان
##گراف
زانایانی
بەغداد
دۆخێکی
فێستیڤاڵی
لێدانی
گەشەپێدانی
کێشەو
گەریل
ئەهلی
مەغ
کەسیش
خەریک
سەقز
ئیمەیڵ
پێچ
بابەتێکی
دوکان
وەی
حوکمڕانی
درێژی
باج
نامەی
خوازیاری
سەدر
هاوسەری
لێوەر
دەوڵەتانی
##گەه
تاجی
بەجی
دیوار
فەرام
بریتانیا
##رەتی
ئاپ
کۆمسیۆنی
دیکەدا
سەرز
هەندێکیان
چەمچەماڵ
ڤان
##تم
نیاز
##ورکی
کاندیدی
میدیاویکی
دەفەرم
بیل
بڵێی
##ابێ
ناشی
لینوکس
زێ
بینیوە
زام
##ەفتە
دەردەکات
##اراست
دەستبەر
پێشنیاز
تۆز
بۆمب
نەخشەی
موسوڵمان
ناڵ
نەخۆشخان
قاسملوو
تامی
##ایتد
##وخ
##ژەن
دۆن
یی
حەزی
وەرگیراوە
##ەبەیانی
باوە
هەبوون
##ێمە
میوانی
##دەدەن
حاکم
##َّ
بەربەست
سڵ
فەرانسی
بەرپرسیارێتی
ئیمام
کڕینی
لەوان
ڤال
ئەمریکای
ئیز
##کاتدا
لەپاش
شەقامی
بەڕێوەچوونی
##پرسی
مری
ڕەسوڵ
دەوروبەر
نەمان
کەمتەرخ
نەریت
پێغەمبەری
یەکیەتی
موزیکی
چن
تاڕ
پیران
کرواتی
ئەستۆی
جان
ناوچەکەدا
سەنتەر
گومانی
ئەبوب
ڕووخ
دەتوانم
ببوو
ود
دەبم
زەنگ
##پێچ
##ەوار
کەڕ
یەکەمیان
چەکدارەکانی
نیزامی
##شتووە
##پیر
لەوڵات
فراکسیۆن
گازی
زۆربەیان
بگێڕ
ماڵپەڕ
بڕە
بێنە
بیرو
پراک
گەورەتر
ڕەسەن
دادپەروەری
کریستیان
کەمپی
بدەیت
واقیعی
ئەستۆ
لاوازی
بوارەدا
ناوداری
بەکاردەهێن
ئینگل
##شا
وڵاتانە
زیادکردنی
فیکری
ئایدیۆل
بمان
لێکۆڵینەو
دەداتە
##یەکی
##کەین
مۆدی
دەسەلاتی
سێیەمی
لەزۆر
##شەو
توون
جەژن
تێکشک
تاهیر
هەریەکە
##راوێکی
##ەریان
سەح
جدی
##گاو
هزر
##وودا
گەیشتنە
تەکنیکی
خەلیل
شارەد
ڕاپۆرتە
##ێکمان
جەر
هەق
بەوەدا
ببێتەوە
##ۆچوونی
##مێ
شۆ
هاندەرانی
##فان
سەرچاوەکە
برینداربوون
قۆناغێکی
##بووڵ
لەکۆمەڵ
کوڕە
کونس
بەرگریی
مەتر
هەندێکی
هەماهەنگی
نەجمەدین
خۆیشی
##زادە
یۆرۆ
##ەدەن
نەگ
پاشم
کاتێکی
دەستەواژ
خۆپێش
ڕەمەزان
دەوڵەتێکی
کومی
بنەماکانی
دەهێنێت
چیای
لەسێدار
شور
زله
یاساکانی
بردنی
##زێ
سروو
دەمانەوێت
##فرۆ
قازانج
##ورتی
ژیر
##پۆشی
لابردنی
فەلەستین
دوورە
مانا
##ندی
##دەبێتەوە
ئێع
دونیای
سعودیە
مۆدێرن
ئەلف
چالاکیی
##تاری
مەنس
بەرزکردنەوەی
بمێنێتەوە
سەه
دەستپێد
داهێنان
پێکهاتە
دەچن
##راوەتە
ژان
هەنگاری
پێناسە
موراد
##ژەی
یەکەمجار
وێنەکانی
دەڤ
تابلۆی
دەربەندیخان
دەرکەوتنی
ئۆجەلان
سەرکردەکانی
فەیس
موش
عەقڵی
ناوچەیی
دیمۆکر
وو
الج
سێبەری
ڕوویان
شیعەکان
##کاتی
گڵ
ناساندنی
سوڵتان
وەفدی
چوارچێو
نادیار
الس
##ەڵکی
نەخو
بەرپرسە
##پەروەر
هاووڵاتیانی
لام
خاڵێکی
هۆشیار
مایەوە
ئامادەن
کەشتی
ببەست
بەشداریکردن
مەیدان
##اندنەوە
تۆی
بەدرێژایی
ئامۆژگاری
نزم
ڕێژیم
بەکاربهێن
لەمە
شاعیری
##چووە
یاساو
##فیس
هەردووکیان
دامەزرێن
##ەمدا
نێودەوڵەتیی
##گن
ئۆکراینی
ڕۆژنامەنووسی
دەزانێ
دەرەک
فەو
##کترۆنی
زەرد
کول
##ایەدا
تەلەفزیۆنی
وزە
ناکەم
ئامانجە
سەردەمە
وەخت
بەڕی
بەردی
کێشەکە
چاویان
##ریک
ئەنوەر
سپۆرت
##لاند
ئەوێ
یەکڕی
شەنگال
وەربگرێت
دێنە
پاراستن
باسیان
فاکتەر
ویکیپیدیای
بووبێت
##گەلێک
ولآت
سەرتاسەری
دڵنیا
لەبەغدا
بەڵگە
توندوتیژ
##ەدوای
هۆکارە
بگەڕێتەوە
##گیان
##مانیا
##گاکان
انی
##امانی
وەردەگرن
بنکە
##سیم
ڕووەوە
موک
لەتی
پەرلەمانتارە
کال
گرینگی
ئیمپراتۆری
زاری
خۆشە
سڵاو
##رەو
پۆدکا
هەڵی
##هام
شەف
##وند
شێوازێکی
جام
هەژم
لەحکوم
گێڕانەوەی
##ستەکان
پێشنیاری
ئەستێرەی
زیند
خستۆتە
لەبەرژەو
##ابە
گەڕەک
بەکر
##سال
فیکر
کردووەتەوە
ڕۆژان
بهێنی
حە
پێوەندیی
ئۆکتۆ
دەیەی
هەواڵێکی
مانگرتن
بزانێت
چوونکە
یو
تیشک
هاووڵاتیی
ڕەتی
جارە
دەمی
##بڵ
ئاڵوگۆڕی
##خەری
حکومی
ئەرت
بخەنە
کەتەل
##ایەتییە
ئایەت
##مر
دەبوایە
خوە
##خستنەوەی
وەلی
ڕۆژنامەنووسان
بەنزین
بەشێکە
##پەرستی
لەپاڵ
ماچ
بدا
دەیەمی
نوێیە
سەرلەنوێ
سیستم
##ەلایەن
##کام
مەسەلەیە
غەریب
ژەه
##بەخت
جە
##نەر
##ستانە
بنک
ڕەحی
لەرۆژ
یاریدەد
هۆکارێکی
هاوسەرگیری
کارتی
گیراوە
پاپ
نمایشی
پەرلەمانتار
یاریزانان
جەه
ڕادەستی
لایەنگری
لەڕاستیدا
دڕند
بڵاودەک
لەئەنجامی
مانچستەر
حەمەد
##وێت
کوژراو
ئەوەمان
##اکردن
بچنە
کاتال
لێوە
##دم
تاقیکردنەوەی
ویلایەتی
نایاسایی
مارس
دیل
پرد
یۆنان
##اکانیان
ژێرپۆل
دامەزراندن
نۆروێژی
تۆک
تۆڵ
دایکم
لەپەی
هونەرمەندان
کارەک
چالاکییەکانی
دەستپێش
دەستێوەر
##یلە
لەبەرئەوە
ئازی
##امین
کارەی
ڕاستییە
دانیشتووانی
ڕەچاو
جیاتی
دەنگیان
پارێزگاکان
ئاڵۆزی
یێ
قەس
##ابەری
خەڵکانی
جوم
وەربگرن
شیوعی
نۆی
ڕێباز
لێکەوتەوە
لەڕێگای
ئاوڕ
بەدەستهێنا
پشکنینی
مەلی
لەباز
فرۆش
ڕێگر
بەئاماد
##لەند
میسری
دیر
بتوانێ
پۆڵۆنی
حەق
##فیق
ناوەڕۆکی
شاندێکی
##ەستینی
کەه
نەروی
گرێبەستی
بەوت
بیانووی
بڵێت
##لانی
ئەخلاق
ڕۆشنبیریی
دوان
غەی
کم
توندڕەو
مەبەستەش
کردم
بینین
لەنزیک
ئامادەبوو
ئیلام
قەندی
ئۆڵ
ڤیدی
##وویانە
سیاسەتەکانی
ڕێزگرتن
وەرنە
خانمە
وخ
##بکەین
ئەرکە
چالاکانی
پێشوازیی
شەع
##یو
##انسە
پەرلەمانتاری
هۆشیاری
مارکسی
یەمەن
ئەستەم
نەق
دەتوانرێت
مۆز
##ەکرا
زۆریش
جیاوازیی
ترە
فەق
مایک
ولە
نەمر
ڕێبازی
سەختی
##ێژەی
وانەی
##دێت
سەربەر
دۆخە
##یرانی
هۆیەوە
زر
سەرەکییەکانی
##ێڕاق
جەستە
ئۆردوو
پەیڕەوی
بارەوە
پێکدادان
کرن
نەتەوایەتی
بودج
##دەخات
دابمەز
چاپکردن
##کاتەوە
##رۆژە
پەنابەران
لەئاستی
لەعێراق
بەرفراوان
##بێل
توڕ
##دینی
##گەرایی
دروشم
ڕۆناڵدۆ
لەقۆن
##اسان
نەیتوانیوە
وڵاتەدا
عەفرین
##ارەکە
##ایل
کۆش
یەکیەتیی
##لاو
دەرکەوتووە
##ورم
مر
فشاری
نیسانی
##چەند
پێشو
هێنانە
##هە
کورددا
بەتایبەتیش
مەحموود
##وڕی
دانمارکی
بکرد
کوردستانێ
دەچنە
بایک
##پت
پەنابەر
هێناو
ئارەزوو
پێچەوانە
خراپتر
بناغەی
پەیوە
بیرۆک
ئارادایە
بەڕێک
##من
بنەماڵە
کۆنگرەیەکی
شانی
کۆمەڵایەتیی
بەرەوڕ
##وورە
بێژ
موج
نووسەرانی
##ڵێت
##دک
پەنابەری
شارەزایی
کیمیایی
سلۆڤاکی
گۆرانیبێژ
جوول
لەشکری
پو
نووسینگەی
ئەبوبەکر
مزگەوتی
ئاشنا
متمان
کێبڕ
ای
زەحمەتکێش
سزاد
میونخ
ڕادیۆی
ناه
ڕووت
حکومەتە
تێکۆشان
بەتەواو
یەکێ
##ۆرد
##لەوی
ڕێژەیەکی
##ێشە
بەهار
ناخی
بەکۆمەڵ
دەگەیەنێت
درێژخ
پێنجشەممە
##فتە
بەهەڵ
##اوەند
پآ
هێزو
##بکاتەوە
لات
##اوەری
داهێن
ئەمانەش
ئەژمار
بانگهێ
هەفتە
تووڕ
شێت
دەگوت
ئەیلوولی
سالار
گلەیی
چۆمان
ئاشن
##ایانە
##اکار
ماون
شوو
هاتووچ
دەستپێکردنی
هەڵک
ڕاوەست
لەناوچەی
##دیە
##گەیەنن
خەرجی
ئازادکردنی
کەریمی
کەنی
##ییدا
کاتالۆنی
حەل
ڕوونیکردەوە
خۆیانەوە
پێنجەم
تێگەیشت
ڕۆژنامەوانیدا
##بەرەکان
خەلکی
##گران
دەمەوێت
باڵاد
بێنن
##بەرە
##ەوتنی
مەکۆکان
ڕۆب
لەسوریا
##باز
ئەوکاتە
ڕووناکی
##شمان
دەیەوێ
ژنێکی
جۆرەکانی
باکور
جەلەو
بڕوات
عەدنان
ڤێ
##یەک
##قر
قەرەبوو
بەکوردستانی
چالاکوانی
منداڵە
کوێر
فکری
ئەوتۆی
##ۆرە
گاڵتە
##انییە
هۆل
سەرپێ
باشور
زیندانیانی
فۆڕ
##پیران
##ۆنا
##بیل
##ەتنامی
##سو
خەسڵ
بەتاڵ
کرداری
ئاوارە
قوتابیان
بەرمیل
لێم
##بۆر
دووەمین
لەهستانی
##گایەکی
تریان
هاوی
ستراتیژ
عوم
سەردانیکراوی
##ریب
ئەمجارە
ڤیەتنامی
خۆپیشاندەران
ناڕاست
ڕەمزی
پۆڵۆنیایی
هاوچەرخ
##ایا
ئایاری
نەگەیشت
هەنگاوە
الت
ئاغا
ڕاپرسی
شەک
دیز
دراوی
وەلێ
##ێرگ
مەکەن
زوڵم
##بد
فینلەندی
سامانە
وەدەست
پت
بپرس
تاس
گەیشتنی
باسکی
هێرشەکانی
هەواڵە
کەمترین
ژنێک
بخرێتە
سەرمایە
وەردەگرێت
ڕەحمان
هەردو
ناگ
بەرەنگاربوونەوەی
وق
الی
پێشی
ئامانجەکانی
وەری
جەستەیی
سالی
##گۆش
مەزنی
ماددە
بەزمانی
عارف
ئەمریکاو
##بات
شارو
بەپێچەوانەوە
لانیکەم
بەکارب
گواستنەوە
ڕاگرت
هەلومەرجی
موحەممەد
فراوانکردنی
گۆڕانکارییەکانی
شەیت
نەمانی
پەیمانی
##دەسەڵات
لەناوبردنی
هەردەم
نیزام
جیاب
وەبیر
جیهاد
تاوانە
ئێمەیە
ڕەفتار
بەدواداچوون
بەهۆیەوە
کچانی
##کدا
مەڵبەند
##ونیزی
لۆک
پەشی
لەسەرە
##ەکەتان
لەژ
##ێکت
بەدەستەوە
##پاڵ
##وونەتە
فەرامۆش
مەسەلە
##ێنەی
##اود
پرەنسی
خات
نیوز
تورکیاو
##فتەری
تۆمارکرد
بێئ
بەنگل
##باس
ڕاگیر
ڕێبوار
##شتیی
دەڤەر
بەدیهێنانی
بوونیان
دامەزرانی
ئەتۆم
##ردومان
##هانی
سادە
بەرجەستە
کیمیاب
لەمانگی
ڕوانینی
پاڵەوانێتی
فێستیڤاڵ
دەستدرێژی
مادد
گەورەکان
گەیشتۆتە
##ەتاح
##ەکانیانەوە
هەوڵێکی
قوربانیانی
پەیامێکی
ئامریکا
##وەند
قەناع
دەچێ
ئالی
مادی
ساڵانەی
بەهێزکردنی
سیف
##گەیاندنی
عێراقەوە
ئەوسا
سەعد
ئیسلامییەکان
##اردی
بەرخۆ
نووری
هێرشە
ئەج
دەره
خور
ڕەفتاری
##بۆک
هاوسەنگ
زەمان
هەڵدەب
سیل
یاخی
##ومە
##رێنە
##برێ
ئێەند
بەرگ
بەناوبان
##آو
کەوتۆتە
سلۆڤێنی
گرتوو
هونەرمەندانی
جموج
ماز
دەچوو
مێشکی
زەمین
##ڤاڵە
سبەینێ
بابەتانەی
پشکی
##سازیی
گوزارشت
بانگهێشتی
ئێەندونیزی
بکرێتە
##ەزم
خستنە
کۆنی
##بایت
##ردەوە
دۆس
شوباتی
کەسایەتیی
بکر
حوزەیرانی
##ەکانیشی
شایەنی
لاوە
کەنداوی
عەی
##ەمەز
ئەوروپی
##ەکراو
بڕیارێک
بشک
نانی
##هەموو
بەدە
بەسەرۆک
پەلە
دواوە
باراک
پێکردووە
دەگەڵ
ئیمان
سەردار
##ریە
ڕۆژەی
پێچەوانەوە
نز
##گوێز
باژ
لەوانەی
##درا
دەکێش
##لیسی
مق
##بول
ئەمان
سەلام
نێوانی
قەیرانە
کۆبوونەوەکە
عەشیر
یەکسەر
گەشەکردنی
جێهێشت
لەوەدایە
##ەرو
##شان
هاوڵات
ناوەرۆکی
جاد
ئەوتۆ
دەنگدانی
توخ
ڕێزلێن
چەر
##ەح
خولەکە
##نەکانی
ناکەین
ماش
کیلۆبایت
##ێرا
کانت
شەقامەکان
##گەیشتن
ڕووناکبیر
##ەویست
پەرلەمانتارانی
##وەندی
چاودێریی
بەرزبوونەوەی
شانۆک
خۆڕ
لەجیاتی
##گوێ
نێوانیان
چالاکوان
کشانەوەی
وێل
##ێکان
شەڕو
##ێنرێت
الْ
##اهەنگ
پێشبڕکێی
##کەت
بۆلگاری
##ەناو
ئۆرگ
مادە
##ەخۆش
شنگ
دووری
ئەتلەتیکۆ
##ەکانتان
پشکنین
خشتەی
هەڵسەنگاندنی
##نەدا
بەتەنها
##ڤیچ
وشی
ڕەحم
جۆراوج
##ارەکەی
مەنگ
کادی
##ستەی
فەری
کۆلی
##ساڵی
عێڕاق
لەچی
هەڵگیر
نوێدا
##کوژ
##ارا
بەندە
ڕێکخراوێکی
دەگرت
##ۆسی
تورکمانی
ڕزگارکردنی
ددان
ئیران
##ەڕێو
ڕەنگدانەوەی
بەڕێوەدەچێت
ولاتانی
لەماڵ
هەولێرو
بووی
بردووە
لەپشت
مۆدێر
گۆش
الش
لەبەردەست
لەوت
##ورا
توانیویانە
تۆش
ئێڤ
##زو
بینای
ڕاپۆرتێکی
هاتوە
هەڵوەشاندنەوەی
دۆسیەی
ببنەوە
تەڕ
چاڵ
سایەی
ئەمشەو
سمین
دەرونی
##بێژی
بلی
هوشی
ماوەیەدا
شیاو
ویلایەت
##ەکەیەتی
خۆشحاڵی
لەوێدا
##ووزی
دەستگیرکردنی
تین
دارستان
چینایەتی
ویکیپرۆژە
##کێشی
مەحک
هەوا
گوتاری
پاسداران
خۆرهەڵاتی
تێرۆری
فۆرم
دەنا
زانستە
بازنەی
بەشداریکردنی
##گرتووەکان
نەشتەرگەری
##ییەکانیش
سۆڤیەت
##گرامی
لیتوانی
ئەمەیان
##ندە
ئێستە
تۆماری
سەرسوڕ
کارەکە
نەریتی
##کەو
اردو
ڕەخس
گرتبوو
شمش
دەفتەری
بداتەوە
لەقەڵ
بەدوور
ترو
جاف
کێشی
ڕەجەب
فکر
سەندیکای
دژوار
وەرگێڕانی
##ەتیڤ
کۆمەڵایەتییەکان
فەرمانگەی
##گوزاری
دەوە
وڵاتان
##ەید
گڕ
لێدان
تەواف
##ۆدا
میز
یەکەمدا
نەکەین
دەستم
##ریس
##ێژن
پاد
سەرپەرشتیاری
فاتی
بدەم
شەپۆل
نەین
ئاڤ
تێپەڕی
##ماس
ئەرکێکی
کۆنتڕۆڵ
بێنێت
بەدڵنی
بەخۆیەوە
لەزان
پێکی
##کەوە
پوور
##بەکر
لیبیا
بەشدارییان
خراپە
جودا
جینۆساید
##خەر
بەرهەڵ
بەستنی
ئەلق
ئەسڵ
سۆشی
خۆشیان
جیاوازەکانی
قەتەر
حەوی
دەرهێنەری
بانگخواز
بێش
##ەخۆر
ساغ
ڕێوڕەسمی
بەدەم
##کەوێت
عەلمانی
هەلومەرج
##گەڵ
##ووڵی
مووچە
ڕۆژەدا
خە
فەلەستینی
پێشەوەی
پیاوێک
کوشن
نەخواز
##ەشیان
دووبار
بۆردومان
تەئکیدی
##ەخسی
هاشمی
کریستیانۆ
نیشانە
نایابی
تێگەیشتنی
شوف
شێوازە
چەندان
##ێرم
تەف
نائاسایی
هەڵسوکەوتی
##ەڵان
دەرمانی
شێرپەنجە
##ترێ
کیلۆمەتر
ئوز
بەرامبەری
دوژمنی
شارەکان
لەوەدا
##ەڕاو
توێژینەو
##سرەت
##ابان
دەرئەنجام
مەراسی
##سیی
ئەندامان
دەسکەوت
هەرکات
سەدی
##انییەوە
جارێ
تیمی
بگرین
هۆکارێک
جەبار
سەرانسەری
تەپ
##کم
تاد
بەتەنیا
سەربی
کۆد
ئالان
##ەدەی
پێشەنگ
خۆپیشاندانی
##راونەتەوە
ناوەندیی
فیلمەکانی
دەبی
##ۆمێنت
سیمین
کارمەندانی
##شترین
##اهیر
##ەندان
تێدەپەڕ
ڕۆنی
پۆلە
قەندیل
جیاجیاکانی
##دیق
سێربۆک
لووت
##ارەوە
دەوێ
بینەر
هیل
ڕاهێنانی
قود
دەکەونە
هونەریی
لەسەرجەم
زیادبوونی
##ورت
##ارێ
بەرن
مێژوونووس
##اکر
دەستپێکرد
ڕوبەروی
ترۆ
نەبین
لەهەند
جاریش
نییەب
توندوتیژیی
میلیشی
##انییەکانی
کاغ
##بازی
سێربۆکرواتی
پرۆگرام
قسەکانیدا
سەرچاوەکەی
ئەمنییەکان
زو
موبار
ساڵان
کەوتن
##ێرێ
دۆڵ
هیبرێ
بەجێهێشت
شەرمەزار
نامۆ
دەپرس
هاتبوو
بیرم
##ەداو
تراژی
ڕاستەقین
موو
هێرۆ
ڕەئ
ڕەهەند
##گیرد
بگات
هاوین
##اە
##ترینی
سۆرانی
شەریف
دەکەی
ڕاهێنان
##دەکەنەوە
نف
##انەیی
سەقامگیری
##ابوونی
##ئیس
##ەکیش
##هِ
دامەزراوەی
بەوەکرد
نەژاد
خوێندراو
ڤیت
پۆز
هەڵات
هەڵەبج
کەمئەند
تایلەندی
کچێکی
ساخت
دەنگەکان
##تاش
ئەنجامە
ڕاپەڕینی
خوڵق
زۆرن
پاساو
دەستبەرداری
پێرستی
دەدەم
نایەت
کۆڕی
گەورەکانی
پێشەنگی
سەرنجڕ
ڕونی
ئێسپیران
کامەران
##کین
ڕووداوێکی
##عەت
پێکەنین
وادەی
ئێسپیرانتۆ
نیوە
دەڕوان
نالەب
دەرێ
سەک
الل
ئەنجامداوە
##فەری
دەردەب
شەوە
هێلکە
لەئاست
بەرهەمهێن
کۆمۆنیستی
دەکەمەوە
ئەمساڵدا
عن
چواری
##ایدی
##رەت
پێشین
یاداشت
دەوترێت
ڕۆژێکی
##ەقیب
جۆرج
لەپارێز
چاکی
لەبەردە
##نسی
هاور
##اڤی
##حە
قەدەغە
ئاوە
سەرە
کۆسرەت
زانیارییەکانی
ئایند
آن
بابەتەکان
##سیست
کوو
جگەل
ئەڕ
سیاسیدا
ئەرێنی
ولاتە
##شەممەی
سەفەری
##دراوە
ساڵدا
##هەوێ
نەچ
جوانترین
زلهێز
تێکڕای
هاوسەنگی
ساو
##اردا
نەدەن
##هەری
بەئاسانی
ناتوانم
لێدوانێکدا
##وودە
شۆڤ
##فانی
ناچاری
تایمز
تەلەفزیۆن
##ومەنی
ڕۆژنامەوان
بەچەند
هەس
فیستیڤاڵ
عام
شادی
وایان
ڕێپێو
نەخۆشییەکانی
##لیمی
بونیاد
بکەوێتە
مرۆڤێکی
بەوتەی
بۆرژ
##ومانی
بەهەشت
دەشێت
داخراو
ئایدۆلۆژی
ئینت
تورکیادا
دەبآ
زەری
وڵاتێک
تونس
تەممووز
##ێمەوە
تەها
##ُمْ
دێری
بوی
تۆت
کەئەم
ئیح
هەڵم
جووتی
قبووڵ
جیهانە
او
ڕێس
سانس
گەلان
مەخم
ئەمنیەتی
هەوای
زێڕین
فەتاح
ملکە
دەخات
بەهێزتر
دەرئ
حەمید
سیستەمە
ئاگای
زەین
##ەوای
ئۆتۆمبێلی
##ومار
دەج
بەدر
ببینن
مش
ئەگینا
دڵم
ئەمڕۆش
ئەمیر
گەلاو
گۆشە
بڵاوبوونەوەی
میو
سنوورەکانی
لەشکر
پیشەیی
حەج
بەرپرسیاری
یەز
##ەلەی
مووسا
بەرین
دووی
سیاسیە
کەنەدا
مەجاری
نوسینی
ئەودا
کۆبونەو
قایمقامی
لەمیانەی
##ۆمپی
بەزۆر
دەدو
پەنابەرانی
سادق
سەرکردایەتیی
فیش
شیاوی
ئەنتەر
کەئەو
بکەنە
ئاستەنگ
داخەوە
لەپەرلەمانی
میهر
##ڤیل
لەدەستداوە
ئیق
ئۆپەراسیۆن
بوەست
هەڵبژاردە
چاکە
لەوێش
خاوەند
نەتەوەکان
پسپۆر
ئینگلتەر
لەهاو
پارێزەر
##ەخۆشی
##سەد
ئاوایی
شارەزا
وەرگرتنەوەی
##دەدرێت
##ەبن
هێنایە
پێداگری
پەڕگەکە
نووسەران
پڕۆس
##موکر
نۆڤ
##ایەر
گورگ
داوی
دەرەنجام
##ووسیت
مص
دوابەدوای
##تەس
نیشتیمان
کەنداو
ئەندامەکانی
چای
داخستنی
گۆرج
دەسپ
##ویی
سەردەمەدا
شێعر
لەکوردستاندا
##خۆر
##ەوش
هاواری
تەیب
##ەتەوەو
میللەتی
پشوو
بەمجۆرە
فەی
پێویستمان
##بڕین
پێشکەشکردنی
##اتا
بەیانیان
نایاب
دەستنیشانی
دەنگەکانی
##وەز
ین
کوردیان
##ۆرتی
لێتۆنی
نازانن
فێد
نەوەک
گرتەوە
سفر
میتۆ
پۆدکاستی
ببینێت
دۆزرایەوە
##ایەو
سەرپ
هەرز
خز
داین
بڵاویکردەوە
ڕووباری
ساڵیادی
یاسین
فەلسەفی
ئۆز
##ەبات
داڵ
دەه
بۆسنی
هەڵگرت
##بەخ
گۆی
دۆستی
موحەمەد
کەد
دراوسێ
وریا
دەهێنن
ات
##مۆن
##اییی
دەخرێتە
بش
سەرانی
شاردنەوەی
دەگرێ
هەیئ
گوشار
نامەیەکی
نق
تەلە
بڵاوکرایەوە
ئەمەیە
##بووەوە
بڕیاریدا
لەرووی
گۆرجستانی
تواناکانی
لەتورکی
ئایندە
##گەوە
عەو
##اتیکی
##اوەیەکی
چۆنێتی
جاش
حەکی
لەئار
ئەکرد
ڕێورەس
پاوە
کن
کفری
##وەتە
تۆفیق
##ریا
پەیوەستە
##خا
ماڵە
سکۆت
چەن
لاف
بەڕای
گالیسی
ئاوارەی
ڤای
نادەن
دەگەر
پاشایەتی
##ێلا
سنوورد
سەرقاڵ
##حانی
هۆر
##عا
لەکاتێکدایە
وڵاتدا
##بدات
نور
کارەکانیان
پەنجا
یونایتد
##ردنەوە
سەروو
##ێڤ
##مو
ژیاندا
ئیمتی
بارودۆخە
ڕەف
کارەکەی
##هێڵێت
##ێڵی
دەنگە
یارییەکی
##جین
##بکەنەوە
گەنجی
وانە
##ێبی
برایم
لەوانەش
قەرەداغی
قاعیدە
##هاتن
سەفین
ئەوق
##ەخان
سوتەمەنی
لێهاتوو
دەرچووە
دروستکرد
ئەرمەن
گەورەیی
میراود
ڕێبین
نەکەوت
یەپە
نزیکە
##ێرین
##الێ
نەزان
حکومەتێکی
دیج
کۆمپانیاکانی
ئیمز
##عری
بۆوە
##دەگرێت
وتارێکی
شتانە
مەق
وەرە
کەڵکی
کۆمەڵگادا
بەدواداچوونی
دەستپێدەکات
موسڵمانان
##ێسی
تاوانەکانی
سەرج
بەئامادەبوونی
ئاسن
سۆفی
دڵەڕاو
لوی
زیانێکی
خانی
ئۆگ
سندوقی
کومیتەی
بەنگلاد
تل
##اییەکی
##بوونەو
داوەتە
سێدارە
میدیاکانی
##نووسی
دەبوون
ناتۆ
##نو
مانی
دەشک
دەشتی
##اوو
##ائی
دەپارێز
بۆرد
تایبەتدا
نیشتەجێ
چێشت
##اترین
##ڕێژ
هار
خۆیی
میراودەلی
لەبەرژەوەندی
ئیئتیل
بڕوانامەی
دەستکرد
ئەتوان
باڵیۆز
واشنتۆن
دابەزینی
چەواش
بانگەوازی
##ێنینەوە
دەکەنە
ئەنبار
وەڕ
هەڵسوڕ
تەز
هادی
کۆبوونەوەیەکی
لان
پژ
باپیر
ری
تاریکی
فۆل
##ادەیەکی
قوتابیانی
لاش
##الەت
بێلا
مانگانە
ئاراستە
##امەوە
سیستەمێکی
دوورو
##یانەوە
دیسانەوە
ئەوین
شەخسی
ماڵپەری
جاڕ
دیناری
##رەی
دیمەنی
خزمەتگوزاریی
قاڵ
ئیمزا
برسی
##وکڕ
ناوبژیوان
وەسفی
دزەیی
بەتەواوەتی
کادر
نیوی
پەروەردەیی
بگەڕێنەوە
حەماس
##دەکەی
پشتیوانیی
ڕان
##کارێکی
##مای
دەبینرێت
دەشت
چالاکییە
ئات
شەرع
بێزار
##گەیی
کاتەوە
بیرد
بەهاوکاری
##لس
##ەکەسی
لەئی
بژین
نێوخۆ
##ارەیەکی
ئاشکرایکرد
##ێنراو
نابن
کۆمەڵکوژی
دێڕ
سیخو
تەقەمەنی
دەیانەوێ
ڤە
ئەنی
کۆمەک
هاتی
دەروازەیەکی
لەبەشێکی
میکانیزم
دەرچوون
بێکەس
کوردەواری
دەین
حکومەتەکەی
##ڕان
##اندوە
مووش
##ەڵا
لەئەنجام
بریار
دڵسۆزی
سەلاحەدین
زادە
ڕواڵ
جیاکردنەوەی
چەمک
فش
دیاردە
##ڕووسی
دیمەشق
##بیت
لەوێوە
کوڕەکەی
سۆسیال
زەمەن
##کۆڵ
نائوم
نوی
قادری
جۆراوجۆری
نزیکدا
شارێکی
دادپەروەر
نووسیوە
ڕۆژەکانی
بوایە
لێهات
ئاڵا
موم
ئاوار
##گریت
پڕۆگرام
##فۆر
##ەنجومەنی
مانگرتنی
کاردەکەن
کامیان
حەویجە
کۆمەڵانی
فەرمانبەرانی
بەباشی
تیژی
##اڵەی
پاو
##ۆنیۆ
ڕاستیی
نێوی
ناوەکی
داگیرکردنی
##وەکانی
##بایە
نووسراو
##انەوەیە
هەتاو
##آی
##شتوو
گەشتیاری
##ێدۆنی
تەقەی
بێلاڕووسی
بڵاوکراوەتەوە
الب
زایۆنی
مۆدیوول
هەڵدەست
توێژینەوە
تەلەفۆن
بەڵگەنام
##کراوەکانی
نەخۆشیی
سێدار
ڕەخنەگر
بوونەتەوە
پڕوپ
تاوتوێ
لەهەرێم
بانگی
اس
ڕژێمە
سەپاندنی
ساڵیدا
سەلماند
کەسانێکی
جیاوازەکان
شانۆیی
خزمەتکردنی
میلیۆن
نازناو
##خانەکانی
سەردانەکەی
##لەو
پا
ڕۆژدا
هەواڵن
ئەدات
سپای
##اییدا
تاکەکان
ئاهەنگی
غازی
سەڵاحەدین
جۆرێکی
خۆن
مشتوم
دابەزی
گەشتو
بەڕێ
تۆق
ماکێدۆنی
لیۆن
سۆن
دوورخ
دەیگوت
مەبەستم
ببات
بکەمەوە
نارەزایەتی
زێر
دڵنیام
ڕانە
فڕۆکەیەکی
##کەرە
##جاریش
کەیس
##ۆلۆجی
هەزارو
خۆپێشاند
درێژخایەن
مۆرین
ڕێبەرانی
##ەتیان
##رۆس
هاتینە
کوردەوە
حدک
شەهیدی
پێشمەرگەو
خۆشگوز
مەهدی
ڕوویداوە
تەقینەوە
هێمای
##چک
دەرچوونی
پارچەی
##کردنەوەو
یاریزانێکی
هەواڵگری
گەمارۆ
خۆز
گوتم
برس
مەرک
فەرمانبەران
##کراوەتەوە
نمونەی
لەبەردەگرێتەوە
##گیرێ
##کریت
##یشەوە
هەیەتی
دوورکەوت
کەلتووری
##اتان
گۆشت
ئیستۆنی
مۆری
##گەور
هاورد
وایکردووە
ڕەوای
کۆپی
ڕەوا
ئەنقەرە
ڕابەر
ڕەحیم
گەیاندە
تۆن
پووچ
مۆسکۆ
دەگات
ڕاژ
هەنارد
کۆمیسیۆنی
قۆناخ
شەست
دەستەڵات
هیچیان
نەما
یێن
لێبوو
دێو
##کرنا
فڕۆکەخانەی
سەقامگیر
حاز
شاڵ
##ئێستا
##بەرانی
تاکەکانی
پێگەیەکی
بەرجەست
دیاردەیە
کەسەر
##نیە
تێڕوانینی
خانەنشین
دەرگ
بێلایەن
لیژنەیەکی
یاساکە
ئایدیۆلۆژی
نەتەوەیەکگرتووەکان
سەنگەر
وڕ
پەڕی
خەڵکدا
بەسرە
زێب
دیواری
##کوردستان
بەوات
پێشەوا
فراوانی
##هۆ
##ەبڕ
##ێکیدا
عەرەبە
تۆمارکردنی
خستن
کازاخی
ئەرد
هێرشێکی
##دوا
هەروەکو
ئاژاوە
پێیانوایە
سوێد
##کەینەوە
زانایان
بەسە
دەبینم
جۆز
##غڵ
ماددی
سەلیم
لەکۆنگر
کاروانی
ڕێگەیە
ئەوپەڕی
##بکرێتەوە
دۆزەخ
عەدا
دەکەون
الک
گفتوگۆک
##دەکەوێت
لەساڵ
ڕەهەندی
بووەتەوە
یاریگا
پەرلەمانتاران
##نێ
چوارەمی
جوانە
##کۆن
تەواوەتی
یەکانی
لەژیانی
##بهێنێت
ند
فەڕەنسی
ئەوانەش
چەپی
وەرچەر
پەرلەم
لەمێژووی
خرایە
بەرژەوەندییەکانی
گال
هم
زستان
##وێست
ڕووبار
##ەتێک
##ەڕوی
ڕەسم
غەم
دەبینێتەوە
باڵو
بەژ
بەپێچەوانەی
ناوەرۆک
گەمارۆی
دڵنیایی
پەیوەندییەکان
ئەدەبیاتی
ڕاستگ
گرنگەکانی
دواییدا
یەکیان
زەه
##ارەز
بەیاننامەی
تال
##ەنێس
شتانەی
سواری
##ختار
##ەکەیاندا
##نامەیەکی
##لیا
فیلمەکە
نوسینگەی
واڵ
ئێڤەنێس
بەستن
بیب
هیج
سەرسام
بەنگلادێشی
مەکسی
ئەنجامدرا
کەیسی
مۆسیقای
بەبڕ
ئاق
دێمۆکراتی
کەک
##ساد
غاز
موڵکی
چێڵ
سەرۆکوەز
پشتگوێ
مەحکووم
دروستکردووە
زۆرینە
##ەفەر
دەشڵێت
کوردستانییەکان
##احی
نوێژی
ڕاپەر
فێڵ
فیدڕ
گوڵی
کارەکان
بگرێ
شنگال
سەربەست
##بدەن
ڕس
ناوکی
ڕکابەری
لەکۆی
ئەفریقا
وام
ژێرد
وەح
ئاوارەکان
خەلاف
هەرێمدا
نەناسراو
ناسیون
دەگەی
خوارێ
بیروبۆچوونی
سەگ
بەدوو
توانایی
چاوەروان
##دەکان
کردنیان
کردی
سێو
شەپۆلی
##ەمپ
هونەرمەندە
##نەوی
ئاماژەیان
تامیلی
بەرو
خودای
کۆسپ
هاوسەرەکەی
##ەبردنی
گوڵان
لەنی
دانیمار
لەبەرامبەردا
ئاوێزە
لێکرا
داڕشتنی
حیزبەکان
وادەکات
ئەرێ
کارەکتەر
##هادی
ئێستاکە
زەق
بوخ
ژمارەیان
حەبی
##ترن
بج
بزانم
ڕاشکاو
حاڵەتە
نهێنییەکانی
زاگر
سایکۆل
شاز
بگرێتەوە
تەلەفۆنی
ڕیفراندۆمی
##ڵاوە
بەگرن
یاسایەک
ئاخوندی
پێشانگ
پارێزەری
دیزاین
##ڵان
##کەریم
##لیۆن
لێدەکات
دەکەوت
دەسەڵاتێکی
##هین
##ەبان
گرفتە
گەلە
بێر
تاڵی
##ایتی
تورکیاوە
جەمیل
گەشەسەند
نۆز
##زیی
قۆناغەکانی
ئومێدی
بازرگان
##باد
##چەک
ئێرانە
ووت
هەستم
نامە
مەحکوم
گەورەیان
ئەوکاتەی
##کاوی
##بێتە
نەبینی
پارلەمان
##نەکراو
ڕۆژژمێری
نامی
جەلەولا
ڕێکخەری
##گۆر
شێوەکاری
پێشمەرگەش
##بەج
قەڵا
پشتیوان
پێشن
شنۆ
بەبەش
زاراوەی
ناوەوەی
هەڵبەتە
نەخوێند
قورسایی
گەنم
بەئاو
لەگەڵیدا
فەرەنس
گەیشتووە
شەشەم
کارەساتە
گۆت
براک
لەتەک
دادەنێت
برێت
وع
هەرسێ
شارەدێی
##رآ
##ەکلی
لێکۆل
بەتوندی
گرتە
لەئاس
وێرای
نیشتەجێبوون
توی
تێڕوانین
بکێش
##خە
##ەوانە
بەمەر
##ێنراوە
##اشدا
##اکت
##ونەتە
هەڵەیە
گەرانەوە
بۆکس
لل
یەکت
جلی
بەشەی
##ێنیت
ناسر
ئاند
دەگر
بزووتنەوە
پارێزراوە
خوێنەری
ئیشی
پیاد
کەناڵەکانی
دەستخۆشی
خانووی
##ەفیق
بات
حزبەکان
##روز
تێکدانی
پچ
##ەرای
##اشا
ئیدار
##ەوخۆ
کوردس
ناوبان
##بیلی
داود
بەشداریان
سەیرە
##وگر
##ازیلی
بیروباوەڕ
ڕۆیشتن
ئەنگ
##وبون
بابان
ئەرکەکانی
عیش
##شید
ماوەیەکە
##وەش
برینداری
سیناریۆی
##بۆتەوە
ڕاگەه
خانمان
نەهێڵ
هەورامان
لەخولی
لاسایی
شیکردنەوەی
نیازی
لەقۆناغی
##ئاوا
بوم
##ڵای
دواخ
ڕاکێشانی
ئینتی
کۆلێژی
دوژمنانی
پەرەسەندنی
دەمەوێ
بەناوبانگی
جوو
هام
دیب
بکردایە
##کوت
ئەوەدا
ناوک
نیمچە
وسەر
##نشینی
##وکی
##خوارد
ماستەر
ئێعدام
کاتێکیش
قۆر
دەنگێکی
ناشرین
وبەر
قوربانیی
ئەنجامەکانی
کۆپتەر
بیروڕای
ژیانە
سەدا
گەرچی
چەکدارەکان
ئەمەیش
بانک
دەستدا
##ەهۆی
پەسەندکردنی
هونەرە
سامی
##ەسمی
ئینقل
لەوەز
دەوروو
دەڤەری
خوێناوی
حیزبەکانی
لەیلا
ئەوەوە
##هێڵن
بابەتەکە
ساڵەکانی
گفت
لەلی
پاشەکش
دەخەنە
خواردنەوە
##کرانی
کاریگەرییەکی
عاشق
ئێڤەنێسنس
زانین
عەلاوی
بەختەو
ڕێکخراوەکان
##بەتی
کەلەپ
زێباری
بەدواوە
ئیتلاعات
بچن
نییەکە
##ڤەرپ
وەکی
گێر
هیوادارین
تریشەوە
دانان
پیرە
سەرپێچی
ئابور
ناسینی
بەوەشکرد
ئوزب
لەدرێژ
مەسەلەکە
بردن
بەرێوەبەرایەتی
##اوەڕی
کوری
هێرشبەری
##ەکەوێتەوە
بەرل
سیاسەتێکی
##ەکردووە
ڕوودانی
##ژا
##شنی
چێڵسی
تاڵان
پیشەی
ئاراس
گوتەبێژی
##ووب
ماڵەکەی
قال
وڵام
##تاو
##جەر
بەردەمی
سدیق
##ۆڵە
هاریکاری
بگەنە
فەرماندەیی
##اهەم
ئێرانیش
مه
نائار
پیشە
ڕۆژنامەنووسانی
##دەخەن
دهوک
تائێستاش
##منداڵ
ڕۆژنامەگەری
##نەیی
##بینین
مەعس
چەسپاندنی
##تینی
##ێشەی
خواردنەوەی
کەچ
کوێست
##مەدا
##سیاسی
تورکیای
جور
یاسایەکی
##ێردرێت
باوەڕیان
شێوازێک
فرۆشی
##ەکانن
کوێت
##ئیم
بووەوە
ڕادیک
تەج
نەرێنی
بەرێوەچوو
عەزیزی
##اندو
لێبوردن
کەتەلۆنیا
سایت
بەلجی
ڕاڤ
دووب
##وڵڵا
گەڕاندنەوەی
وازی
ڕوناک
نازانێت
ڕۆشنبیران
بڕیارەکانی
پەست
##ڕێژی
##قای
پڕوپاگ
##ەویت
ناتوانی
دەنێت
قژ
کەلوپەل
دەرگا
نەدی
##تەرن
##ئام
چاوم
ئەتوانی
دەڵێین
بڕێکی
وێلزی
بەرهەمهێنان
فەرموو
ڕەوانەکەر
##ستانیی
درک
دەگۆڕێت
بەئاش
مووی
هاندانی
دەبرد
سیمای
وەفدێکی
پەیەدە
بارودۆخەکە
قسەو
قامیش
##ییا
ڕابردودا
ئۆکرانی
ڕکابەر
پارەیە
ڕادەر
نەدە
نامێنێت
هەتی
کای
گەلەک
تەختەکلی
ئاسمانییەکان
وبە
شوێنەکانی
ڕووبەڕووبوونەوەی
پیتی
##راوەو
ئەقڵ
##اکانەوە
بەخۆ
پرسیارێکی
قورسی
##ەرەکان
سەرلەبەیانی
ناشیرین
دنیادا
بەختەوەر
##ەزاری
##گەها
##رام
ئیف
##لاوە
بووک
وتیان
چینە
##ێلە
کەسایەتییە
یۆلی
نەخۆشییە
کۆنسێرت
پارچەکانی
قر
کالی
ڕۆژنامەکە
دەستەوە
##بارەوە
پێکهێن
پیرانشار
لایان
##ەیدا
کامیل
مرۆڤێک
ڕێکەوتنی
سلی
لیستە
پوخت
ڕێوشوێنی
قوم
بۆنم
هەڵسەنگاندن
ژنەکەی
پاڕ
دەشێ
نەجی
لاپەڕە
##راوەکە
توور
سەروەت
##ریدی
ئیمارات
شاش
باجی
##ووردا
مۆڵەتنامە
هەردی
دیکەیان
##رافی
فۆرمی
گەردوونی
##قیان
لەعیراقدا
زانکۆکانی
پەڕانەی
نیگەران
دێنن
پێویستیی
لەدەستی
سەرکۆماری
##امەز
##سەریی
لوتکەی
تەنیشت
##حیز
بەرلین
دوک
تەڤ
##ەڵەی
ستایشی
سەت
دێموکڕ
##دەتوانی
نایان
سەربازانی
##زن
ئاڵبانی
غەر
##ۆیان
پڕە
دیاریکرد
کاغەز
بوێر
پەنای
لەدایکبوون
شێرکردن
لاپەڕەی
ئەلیکترۆنی
گشتییەکان
تەکنۆلۆژی
ناوز
مانایە
قاو
##وینی
یەن
بەرتەس
یەپەگە
هەمبەر
##هێنن
ڕاسپارد
پەشیمان
ئەوەم
سڕینەوەی
لەقەڵەم
بڕوانە
سابیر
پێشخستنی
##ێکخ
سەرخستنی
بزانی
ڕەوشت
چاکسازیی
هیندستان
ناکا
چەشن
ناوبژیوانی
ڕۆژهەلاتی
##خەڵ
بەوەشدا
##ەکردنەوەی
بگەی
تاڕادەیەک
یۆڤ
نەکردوە
ئاکامدا
##پەس
نووسیویەتی
##ونجێت
موست
دەدرێن
##َا
بول
پێیەی
##ێردی
ئەنفالکراو
هاوت
دەستکارییە
##حەمەد
پەیوەندییان
پۆستەکانی
##ەخانە
بدو
بوت
بنچین
##ۆدی
الف
ئەوەیش
سەباح
سوێند
قو
ئاوارەکانی
ئیعدام
نێودەوڵەتییەکان
##بوونیان
لەیاریی
##ڤید
پێگە
کۆمەڵگایەکی
عەبدولڵا
دادە
خەلک
براوەی
##نەب
دەیویست
##وپێک
##هێنێت
ئەرتەشی
##بەخش
##تریش
سەرماو
ئەمریکاوە
ئەمنیی
##تس
##ەوەکان
دەنوس
نەگۆڕ
هەنگاوەکانی
ئەندازیاری
دیدی
##زەکانی
هەقیق
پیلان
لم
ڕاپرس
نەزانی
فڕۆکەی
خای
بەمانای
یاریدەدەری
سوورە
مەف
نوق
لەگۆڕ
مستەف
قەڵای
##وویە
أن
##پرسانی
پێشەکی
لیژنە
منە
عەبدولکەریم
ئیرلەندی
خوێندنەوەیەک
فرمێسک
قێز
پرێس
##اوێکی
##اکەیان
دۆر
کارل
لێبوردنی
مانایەکی
وێستگەی
خۆکو
##ابردوو
بڕێک
لەهەمانکاتدا
بع
زۆرەوە
##ەوم
##هەڵات
داستان
ئەدا
ڕێککەوتننامەی
ونی
سەرووی
پاسەوانی
خەلیفە
شکاندنی
کەشت
تفەنگ
جەی
دەرهێن
بپ
زانینی
تەنیایی
ئەزمون
نەینەوا
لەوەر
خۆڵەم
##رەز
##سار
کەسێتی
##دارانی
گوڕ
ئینگلتەرا
کاتیشدا
کەناڵە
خۆکوژی
پەروەردەک
##راف
دەڵێی
##چەش
دەناڵ
##بوە
##ونەری
دیاریی
جۆرەی
ڕۆشنایی
بەکوردی
جز
##کردو
ڕێگەیان
کێشەیەک
بەدەستهێناوە
مادام
فڕێد
ویژدانی
##ویستی
##ُوا
بگیرێت
دواکەوتنی
هێدی
دەنووسێت
مەترسیی
جەعفەری
مەرجەع
##اراتی
موبارەک
نووسەرە
هەڵوێستە
بەوردی
تەشکی
مۆدێل
هەڵاو
تۆڕ
لەئەست
بەردەوامن
قەڵاد
##ەمەر
بەرکەوت
ئەرس
لەگەڕ
بەکرێ
##ووەو
##ادار
##کۆم
تائی
ئاماژەشی
فرانس
هەڕ
بوونەوەر
گەنجێکی
خوێندەوە
لەدەستدانی
شانشینی
مەکە
ڕاک
کردەی
گەلێکی
ئەنت
ڕۆست
بادین
نەپ
##ەزیز
دەوەست
بەپێوی
دەمار
شل
##ۆتی
پرۆت
##کردبوو
هەناردەی
درەخت
لەئەنجومەنی
سیاسییەوە
حساب
هێزانە
الر
توش
##گەیەنێ
دەسەلآت
میانمار
بەڕێوەبەرایەتیی
زەل
ڕەتکردنەوەی
لەتیف
شانۆگەری
کاتێکدایە
ئیتلاعاتی
لەدرێژەی
لەسەرەتاوە
لەدیدار
وردەکاری
کردار
بدرێ
پێشهات
فەراهەم
هێزێک
کردوەو
ژەن
ناوبانگی
شەکر
پشتگیریی
کرۆ
حەرام
##ویا
##دەشتی
کوژراوە
##لەندا
##ایەق
##وارە
##نیی
باسمان
ەکان
تەماشا
زۆرد
##اوم
تاریق
ناسک
گرنگتر
ئێش
کرانەوەی
بیخ
دەستبەجێ
دەستمان
خەرمان
##مێک
ئەوەند
ڕۆیتەر
شەب
##پێی
دامەزراند
دەبیت
##نوس
ئۆسی
هاوڕێکانی
بۆیەش
پابەندی
شارەزای
ڕوم
##هۆی
سیستمە
نالی
کوتلە
سەلماندنی
دەگمەن
##فیسۆر
وەزار
بچووکی
##خستووە
کەژ
ڕووبەری
ئافرەتی
دیاریکراوی
بونەتەوە
سکاڵای
##ریانی
##ەشەی
دیجلە
سیستمێکی
##زانین
حەزرەتی
ڕوخساری
بێنێ
گووت
ترسن
مەسعوود
##اداری
##شوێن
ڤیدیۆی
##وقی
هەڵگرتنی
وەدی
داعشەوە
شوناسی
لەسەرت
سووکایەتی
هن
وەزی
وڵاتانەی
بێسەر
پیشاند
دیف
وتەکانی
خۆشبەخت
ڕەوتە
##اونەتەوە
کەز
##هەمین
پنج
موچە
منداڵێکی
عیسا
داهێنەر
مرۆڤدا
وڵاتەکە
فیزی
پێشێلکردنی
دەمیر
ئیسلامیەکان
##هەت
##حر
مج
بەخێو
کارگێڕ
ستۆک
ئوردن
یەکس
حەزم
لەکوردیو
ڕاگەیەنرا
یانەیە
زۆرم
پاشکۆ
تاکەکەسی
لەناوچە
ناوەوە
##بال
هەڵوێستێکی
سۆزی
##ەیەکیان
تاقمە
هند
ئیداریی
یەکڕیزی
مرو
عێراقیش
مۆت
##بردن
لەپەرلەمان
دابمەزرێن
تیرۆرکردنی
سەرنجڕاکێش
بیرەوەر
خۆکوژ
ڕەب
##ارێتی
پشی
پاڵەوانەکانی
##خوێند
کاپ
بەهێزە
بسەلم
##ووف
##عەی
هیر
ئاسۆی
توڕە
سەنگاوی
موڵک
ئۆکتۆبەر
بژێوی
ئوزبەکی
##ەکاتەوە
##وبی
هاوسەرۆکی
بۆچوونە
بوود
بنیاد
ئەفریکای
تەندروستیی
پووش
##پیت
هەستیار
ئەورووپ
ئۆڵۆمپی
ناڕازی
ویند
منەوە
باسێکی
دەنگۆی
کۆئەند
شارۆچک
باقی
بوویەوە
##قەکانی
##ەزای
##یلەر
بڕینی
وەلام
##اویی
##اسا
لەشار
دەپ
چیا
خدر
##سلامی
ئۆگۆست
دەنووسن
کەلتوری
##ەتییەکانی
##زیز
فەخ
هەوە
بەختەوەری
##ەمەند
بباتەوە
له
##ەوڵ
تەسلیم
##خوا
ئافرەتانی
##ۆگی
کاردەکات
##لیگ
زەوت
ووتی
ئامادەبوون
پەرو
دەکرێتە
پێدراوە
بەرهەڵست
هەژاند
پانتایی
##بکر
لۆژیکی
پێشانگای
##اوەیە
پێدان
پارلەمانی
گەشەپێدان
کوردن
ئەفریقی
ئەشکەنجە
دادەنێن
ئاخاوت
لەسنووری
##دەنگ
ئاوەدانی
کتێبخانەی
یەکێتیدا
دەکەوێتەوە
بەزەیی
گەردوون
نەرویج
دەبینێ
مالای
حەقیقەت
واقع
##ەهات
گروپێکی
چارەنوسی
تاقە
خراوەتە
وەلات
ئاڵمان
پەیمانگای
بسەپ
بردە
ئیسلەندی
بەرزترین
لایە
کرێ
مامە
کوب
نەخوازراو
یک
مێژوی
ڕۆڵە
گەلێ
##زب
ئیئتیلافی
گرفتەکانی
کاسب
تەواوبوونی
دابەشکردن
کەرەست
نه
شوناس
##رابوون
نەهاتووە
بەرژەوەندییە
##مەکە
نەغ
جەناب
بەنیاز
زێدان
فێرکاری
زووتر
یەکینەکانی
فەرەج
بپارێزن
لەهیچ
هاوڕێک
باوەشی
تەوەری
زاگرۆس
دەرد
##ۆخ
##ەگەز
##ێنمەوە
ویژدان
پاڵەوانێت
لەمێژوودا
ڕێکبخ
حیساب
پەیوەندیەکانی
سوار
بەرپرسان
ئەستێرە
پلاندان
##ەکارییەکانی
کێشانە
شرۆڤ
بەڵگ
ڕێگەچ
هەمەلایەن
خۆماڵی
ڕوونیشیکردەوە
بەرەنگاری
##ۆسایدی
پرۆژەکە
مەند
پیادە
فۆلکل
ناوین
دیواند
واین
##دوتی
بەدڵنیاییەوە
فراو
دەیتوانی
خێزانەکەی
جێر
سەیران
گیروگر
مەول
##دامی
##ڵاوی
مالایلام
##اکەر
یەکەکانی
یۆلیۆ
##ینەوەو
##ردووە
##نییە
بیرمەند
ئیمتیاز
لەئەڵ
##دەکەم
گرو
دەع
گرنگیی
##دێر
##هێنین
##گواست
تۆڕە
پەردەی
ژێرەوە
ناوەندەکانی
دوبارە
مۆندیالی
ڕادەکێش
بەرگریکردن
پری
عەرەبستانی
شوفێری
کردستان
##ەرەب
##هەنگ
خومەی
گرژی
هەوڵە
کێیە
تاقیکردنەو
مەجلیسی
ئێزی
##تیڤ
پیا
ڕوانگە
##ەتییە
گوار
##اهیلی
نەکرا
وێنەگری
##ەدەب
لەکو
نەڕ
هێور
ئەنجامدراوە
بِ
##گەرمی
کودەت
پێرست
بڕگەی
ڕۆژنامەنوسان
نێگ
لەبازاڕ
لەباش
لەحاڵ
هاتەوە
##کردە
بنەمایەکی
خۆرئاوا
جووت
بەهرۆز
ولاتی
بەرق
لەسایەی
پشووی
##اتێکی
ئۆردو
پەردە
نەدەبوو
ئەمنییەکانی
ئۆم
بەرهەمێکی
ئەیاد
##ڵاوا
بەخۆوە
نیوەڕۆ
شکۆ
فات
ڕاگەیەندرا
زانای
فاز
نوخ
بگواز
گوناه
سوودمەند
بێگ
حەڤ
##لەکانی
ئامادەکاریی
ناوبانگ
پسپۆڕی
هەمی
نیس
##کەیەکە
تاقمی
نەشی
کلتوری
سونن
زەمینەی
مزگەوتێکی
گریان
پەیکەری
##اسازی
پرۆژەیە
یاریەکانی
##هۆڵ
##دەبنەوە
فەزای
کوردییە
کەلتوور
##ووەتەوە
ڕووخس
سزادانی
##عای
سست
بەخشینی
شێوەیەی
##گەیشتنی
هاوڕێیانی
پاشماوەی
##عم
##ێنرا
##دەوری
فاتیح
سودی
قسەیان
سەهۆڵ
ئەوقاف
##ویە
گوێز
بنێت
بەکورتی
پیک
پیرەم
موسەنا
زەردەشت
##گین
تیرۆریستانی
نیشاندا
کێو
شوێنەی
لێپرسینەوە
##زیۆنی
وڵاتەکەیان
بەشداربوون
##دید
زانیاریدانی
شۆرشی
گەیاندن
##ارییەوە
بیەوێت
تێپەر
تیژ
بڕۆن
بەڕێزان
ڕەئوف
##دەوامی
سەرجەمی
لەئەم
کەرەستەی
##ەما
سەدە
داعشی
دابنرێت
باڵەک
جێبەجێکردن
کەرەوە
پارێزراو
نابێتە
لەناوچەکەدا
پێداویستییەکانی
دەدۆز
ڕابو
##زیاد
ژنانە
مێژوویەکی
##ْت
بابەتێک
ئۆسیتانی
بەغدادی
##سناڵ
ڕۆژگار
کۆیلە
##لامی
##خورم
گەنجە
کارانە
ڕۆژئاوایی
##اردانی
##خانەکان
بەڕووی
##دەکرد
دەکردو
##جارە
پردی
##بووانی
تەقە
تەور
نەرمەک
کایەوە
##لینگ
بگۆڕێت
خۆیانی
ناوەڕاستدا
دادەمەز
لەناک
ئیستی
پەروەردەو
##لەر
##وتن
الص
دەفرۆش
گفتوگۆکان
درامای
نابێتەوە
بەڕۆژ
ناوچانەی
گەلاوێژ
##اکەدا
ماڵێکی
عیراقەوە
نەوزاد
سۆڤ
باوەر
خەڵکەوە
ناودەب
سێپت
سەرەتاوە
لەتورکیا
پێشوی
ئاوێت
##کوتی
پێوەری
##ازادی
هەرکەسێک
دەستکەوتی
خەڵکێکی
حەلەب
##پوور
دڕن
گوێم
شایستەی
ڕیکخ
ئەڵق
وەرگێڕان
سیلڤا
گرتۆتەوە
کاتژمێری
سەعدی
ساتە
ئاستە
کەوتەوە
ئیمامی
ڕۆحانی
شیل
بەیاننامەیەکدا
کۆنفڕ
##پری
بۆلای
خۆشم
بەنداوی
##خوازان
لێکۆڵینەوەیەکی
خیانەت
بچووکە
##گوترێ
##ورک
هەستە
چەتەکانی
شیعرەکانی
هەڵەبجەی
نج
کرابوون
کوڕان
##انتۆس
وتوێژ
تێپەڕبوونی
هەرێمەوە
لەیەکەم
ڕادەیەکی
##زۆ
##ێنیتەوە
بەغداو
##داین
چاوەد
پلەو
لەباری
##جێک
هەنگاوێک
ئەرسەلان
ئاسمانیی
فەیلەسوف
ەک
حاڵەتێکی
مەنسوور
بانی
لەهۆڵی
شیری
##اوەن
لەوی
شارستانیی
هەرەس
عەبدوڵلا
دەرئەنجامی
بەدەنگ
##ودە
کەرەس
##خوازیی
##کراوەی
پەش
ڕۆما
جددی
خوش
نوور
خومەینی
دێتەوە
فاکتەری
لەهەڵبژاردن
##میە
پڕۆژەیەکی
عەبدولع
کامێرا
تص
پێهات
پرۆسەیەکی
##بەرەکانی
لەڕۆژی
کەرت
قەبووڵ
##بەه
تۆمارکرا
دووک
ئەکەم
بورهان
شڵ
پەژ
ڕدە
ئامرازی
##کردووەتەوە
پرۆسەکە
سەرەرای
لەسیاس
ڕێگایەکی
یەکدی
نەیارانی
نەخشە
برێتونی
دادەب
کارگێری
##رەم
##لآ
سەرژمێری
واقعی
لاس
بوژ
ترین
کۆلکەیەکە
ئەندازە
پێداچوونەوە
تەئکید
هاوخ
داڕشت
هەمە
بەکارهێنەرانی
شوێنەواری
##کیش
##دەزانی
##مینی
فراوانتر
ڕەوانە
##رۆژ
بەرزە
ڕوخانی
سەرێ
خن
گرینگە
##اکۆ
نەدات
لەپارێزگای
ناخۆشی
وەد
دەردەکەوێ
##لیان
کەسایەتییەکی
زەحمەتکێشانی
##غانی
یارمەتیدانی
ئاغای
##ییەکانە
جیابوونەوە
لەری
بەحر
ئامێرە
دەگێڕێتەوە
لەبەرانبەر
براو
کارگەی
باشیان
ئیماراتی
ئەلقاعیدە
محم
کێبڕکێی
باڵادەست
هۆم
دەسەلم
##ورەکان
فید
##سەنگ
موختار
بۆیانەی
ئەلفوب
##اهیرە
شۆڕشگێڕی
مەکسیک
ڕێکخراوەیی
بەربڵاو
نەورۆ
بابەتەکانی
فیلمێکی
نێونەتەوەی
دواخستنی
پایە
##ۆڤیچ
##بور
##لینی
##ەواو
لەبەری
قۆناخی
ڕامان
پڕۆژەیە
بازرگانیی
##انداو
گوشاری
نەیانتوانیوە
##ئین
هاونی
گوزەرانی
دێنێت
هەرس
پەرلەماندا
دۆستایەتی
هاولاتی
نەگەڕ
ئیمر
##پارێزی
بنە
##چیل
گرژ
بکرێنەوە
تەری
ئەدەن
چەمکە
باد
شۆفێر
سەرەخۆشی
شکاو
گرێگری
بەئاشکرا
ڕوونکردنەوە
واتایەکی
بالای
ڕەها
کاد
ئەوەن
ڕاستیە
بڵاویان
بانگەشە
ڤیتامین
هەڵۆ
سەوڵاوا
خانەنشینی
قڕ
گوندە
بیس
سۆسیالیست
کڕ
##زام
پاڵپشت
پلانێکی
وەبەرهێنانی
سوریاو
تێکهەڵ
مەودای
##الاک
سوریە
باخچ
سەلامەتی
دەگۆڕدرێت
برەو
ژەنی
لەمەر
منداڵەکانی
پرسێکی
حەکیم
میکانیزمی
بەمە
##گێر
کۆمۆنیست
ڕەفیق
زیندانیی
دەستێوەردانی
ڕۆیتەرز
دەریایی
هاک
##ناڵ
پێشێلکاری
##ُون
دەگواز
حەت
ببی
مارسی
ئەزمونی
پرۆژەیەکی
ئاشکراکرد
نەهامەتی
هاتوونەتە
جاڤانی
دەربڕیوە
مێردەکەی
هاشم
##گەیەنین
هاندەر
##وانەی
پەند
دامەزرا
دەوام
خەلات
بۆشاییی
بێم
دووهەمی
ئێوەی
کۆمێنتی
نزیکەوە
چۆتە
##افە
جەوهەری
حسین
ناع
میک
دەلێت
چیدی
کلاسیکی
لەدە
ماراتی
کریست
بڵاویکردۆتەوە
##ەکیی
سوریای
بمانەوێت
شەمەند
##دیی
تایبەتیش
جلوبەرگی
کرایە
کەمپین
مافێکی
ئۆن
نادەین
شۆڤێنی
یەع
گوگڵ
##تەرناتی
تم
سەربازییەکانی
دانمارک
##ەکت
##ارکردنی
##وابوو
کتێبێکی
دەرک
وتوە
فەتح
فایەق
دراوەکانی
سەرانسەریی
هەناسە
دەنو
گەشەکردن
##تْ
تاکێکی
لەداهاتوو
ئەستەمە
پشتڕاست
نیوەڕۆی
پێکدێت
یاساکان
نەگرت
سواهیلی
شاناز
مەدریدی
##یرەی
تەبایی
إلی
شوێنەو
گۆشتی
ساڵێکی
دائ
لەهەوڵی
پژاک
ئازادیخوازی
##ەرێ
ساڵەدا
نەبوە
دووەمیش
##ڤن
لەیاد
##وپا
بابە
باسم
لەخوێند
سۆل
بڕیارەی
ڕوونە
سوسی
ئێزیدی
قورئانی
##ەلەر
کۆتا
دینارە
سودان
کۆمپانیایەکی
تەممووزی
ئایسل
ڕێڤ
چیرۆکە
##ازاد
لەوڵاتانی
##ەممەدی
لەدایکبوونی
جۆراوجۆرەکانی
کەلوپەلی
نەوەکانی
پێشنیازی
کڕین
کۆنتڕۆڵی
دیواندەرە
نۆژەن
هاوڵاتیاندا
بەبڕوای
بەرچ
دەستت
خاڵەکانی
عەسکەری
##نگە
هەڵبژاردندا
نازی
یۆنیۆ
سازی
بنێن
بایکۆت
کۆک
##انەیەکی
بەرهەمهێنەر
دەریاچ
##ەکەکان
هەڵەیەکی
سروود
دەردەخات
لەتوان
خۆزگە
کەتی
جێگە
بخات
شیرینی
پەپ
پێکدەهێن
دلێر
چەور
قەومی
##خات
سوریادا
##ۆمێنتی
گوندەکان
شانۆن
پەنجەی
زور
دوێنی
یۆ
گرووپێکی
میرات
ئیمپراتۆر
هەڵمەتێکی
خی
لەپێک
مەراسیمی
ڕوونکردەوە
##عەتی
خولە
نەمسا
##لمان
##وانینە
ناوەکانی
دیاربەکر
تۆپباران
یونس
##پۆرت
نموونەیەکی
کەمتەرخەم
##ازێکی
##اردان
ئوست
بەراستی
پێشنوێژی
باق
##وورو
فیدا
دەولەتی
ڕوخ
##ترینیان
##هدی
ئەفلات
بۆمبی
نیگار
بنوس
ئەمریکادا
لەوەکرد
##بەران
ببەخش
مەسر
پیرۆزە
دەزگایەکی
حاڵێکدا
ئەوروپای
ڕیفۆرم
جاب
وتەیەکی
##ڕوو
ئەواندا
بڵاودەکرێنەوە
کیمیاباران
##ەبێژ
##ێندراو
کرانەوە
##بدرێت
ویندۆز
ئەوانەوە
داوامان
##ایەتییەکان
پارەیەکی
لەدوا
نایە
کەخ
بیرەوەری
مەعسوم
تن
ئیسلامدا
دەستبەکار
##ەباتی
##داران
بەغدای
##ەکەشدا
نەتەوەکەمان
قەوارەی
خوداو
داوەتەوە
##ائیر
خواروو
##وێستی
##ترس
ساڵێکە
ئایدی
بڵند
ایران
##تەق
کراوەتە
هەبوە
بادینان
بەتۆم
کەمتەرخەمی
یەکدا
حسابی
دیمان
##پێدان
مەسەلەیەکی
بۆچون
لەخزم
دەکردن
دەدرێ
دەکەوێ
##راوو
ئێوەش
##کێک
مەعنەوی
وڵاتەکانی
دەستنیشانکردنی
هەڵدەگرم
یاسادان
ئەنجامێکی
سولەی
بێگانە
ئینتر
ئەمەریکای
بەستەرە
دەفەرموێت
##زمە
جیهانیدا
زنجیرەی
هەرکام
مەکتەب
دووەمدا
دەسەڵاتداری
نیەو
یەکەوە
تیک
چوارگۆش
پایی
سەرشانی
یەه
ئازیز
ڕۆڵەکانی
دم
##نەد
مامەڵەمان
های
لێدە
##ۆریا
مانگەدا
##شیدا
##ەوێڵ
دڵنیاییەوە
دابنێ
بنچینەی
ڤین
کارم
نشین
##جگار
##ووژ
##لیپ
گرتوە
عبداللە
##سیان
دیپلۆماسی
وەستا
شاعیرە
نیویۆرک
کارزان
پۆلێن
سەدەکانی
پاڵەوانێتیی
گریمان
نەکراو
لەکاری
ترەمپ
هەستکردن
تابلۆ
هاوئ
مەین
زۆرمان
هەڵنە
ڕۆژێ
ساتەوە
ژێرخانی
کوردوستانی
نێوەڕ
پرۆگرامی
بگەر
تەواوکردنی
هۆت
برایانی
داس
##وئ
لێدەکرێت
قۆڵۆن
پۆش
کەمین
بخەینە
ئۆپەراسیۆنی
##رابێت
هەڵپەس
چاودێرانی
بڕیاردان
بەخێرایی
چاوە
##پۆلی
##ەزا
هاوینی
ڕۆژگ
کۆرپ
مِن
خۆشگوزەرانی
چەندی
هەڵبژاردەکان
هەوڵێک
##مۆ
##هوری
ئیسلامیدا
دێنێ
##ییەو
##ارەسەر
ئاگا
جۆش
ووڵات
##ەکانیانە
##وورەوە
هاوپەیمانان
پاشکۆی
بدۆزێتەوە
ئوسامە
دەستپێشخەر
##گایە
سازدانی
میدیایی
پەنجابی
خێزانە
ئەمیش
##ێف
یاریگەی
جب
##اوەدا
وایکرد
ماتم
ماه
##لیام
##زێکی
پاسەوانەکانی
قوربان
فلم
مەست
فیدراڵیدا
##ارانەی
پێشڕەو
##لایەنە
ماونەتەوە
لێدەکەوێتەوە
کاراک
فیستیڤاڵە
خەند
دیوی
چاپەمەنی
فریسیی
لەزین
یارییەکان
دوورگەی
خۆڕاگری
##امدا
لەبەیان
ڕەسەنی
دەسەلآتی
کۆشک
##اگۆ
خوی
سەرکردەیەکی
جوانتر
وگ
##اڵد
##ْم
نەخشەکان
##وع
دابێت
بۆچ
تەمەنیان
لەمەودوا
گشتگیر
##تدا
لیڤەرپ
تات
دۆکی
##ەکانیەوە
##اڵای
ئێزدی
بەشدارن
لەهەردوو
کۆبۆوە
پتەوکردنی
خشت
##ەکەوت
هەنار
جیاوازییەکی
دهۆکێ
گیرۆ
##فاتی
ساتێک
سەرف
ببەن
##بنەوە
بەرازیلی
تووڕە
##لق
##حەس
بەستەریان
جیاوازن
لەدانی
مێرمنداڵ
سڤیل
بۆری
بەوپەڕی
##ئم
خەڵکەکە
منداڵەکانیان
لەحکومەتی
ڕاستییەکان
سروودی
گۆن
##هُ
دانیمارک
##ِین
لێدوانێکیدا
هەریەکەیان
##مس
##هو
##انرێت
##ووسەر
باسکردنی
##درەو
قەش
حەڵ
مێژووە
حق
هەڵواس
جیابوونەوەی
زست
بۆخ
هاوولاتیان
لەوڵاتی
وهەر
##ڤیا
دوود
مەنگۆلی
##شانی
کرانی
##تون
میح
دابنێت
دەیکات
بریارێکی
لەکۆتاییدا
خۆس
کایەی
##انەکە
بەئامان
شارەزوور
بزانێ
هەواڵەکانی
خەڵکەکەی
گیرا
مورسی
کارمەندی
##زار
بێگەر
عەبدولق
ئێراقی
##شتان
بپارێزێت
لک
هۆکارەکەی
ئۆسکار
هەناردەکردنی
##دز
بەجێب
کوتلەی
تاجیکی
##ویان
کۆمەڵێ
ڕەواند
لەئاسمان
##دێری
قوبادی
فور
براکەی
دانوست
ێک
##حید
کوردنشین
کۆمپانیاکان
قەزافی
وەڵامێک
ئێل
##گرەوەی
قەرەباڵ
کلاسیک
کێشا
چەکدارە
##دەوڵەتی
##ەواوی
چەشنی
پێستی
بانگەوازێک
پیرەمێرد
##کەرەوەی
فەرەید
وڵاتەی
##بوونێکی
ئەندازەی
##ێندراوە
شارل
شەڕڤان
کەموکوڕ
دیکەشەوە
چاوەکانی
عیز
##ەڕەنگ
##ەخواز
پنجابی
دەرنە
##ووسین
دێی
##ەسەری
شایەت
##روف
بزاڤی
کامیر
##ِل
##نیای
خۆشبەختانە
بەرێ
قەرزی
لەیەکتر
قەدەغەکردنی
بەرەوڕووی
##ومانە
##کارییەکانی
پارێزگار
گۆڵچی
نەکەی
##گۆری
ئاوازی
پیری
ئیلی
لەجیه
بەهە
##اگا
##بوک
بەلەم
دەبا
گوش
##چووی
##اپەڕ
شەعبی
لەهەندێک
بۆردومانی
جێژ
لەشوێنی
وەربگرین
##اوانە
##ویل
لەوەڵ
ئیمە
گفتوگۆکردن
لێمان
پێکردنی
کود
قسانە
ئادەم
جیددی
##جاڕ
عێراقییەکان
سعود
کیمیا
لەکۆبوونەوەی
ڕامیاری
بەکارهێنەرە
گوللە
##وێتی
عەرەبستان
##تیان
کەمەوە
##چەڵ
##کرابوو
##گوزار
##بولی
دراوسێی
گێژ
بەردە
دێمۆکرات
حەشدی
ڕاشکاوانە
حزبەکانی
بەرخۆدانی
هەڵدێر
##دەکەین
چڵ
هاووڵاتییەکی
##باو
##ارییان
کیس
فێرکردن
ماتەمینی
ڕۆژاوای
شاعیرانی
تەکنیک
شتەی
ڕێگرتن
##کۆڵی
سەرمایەی
##دابوو
وەڵامدانەوەی
##باب
##اکەوتن
##ەوێتە
کۆنفیدڕاڵی
نس
کچێک
ڕادەربڕین
##ەکەکانی
کەج
جلوبەرگ
هەڵبژاردەکانی
دەنگدەران
نەبونی
منداڵەکان
حزبێکی
##نامەیەک
دۆستان
حیزبێکی
کۆئەندامی
جێبەجێب
دەردەچێت
لەئەڵمانیا
##باڵ
بنیاتنانی
##اندنە
##ەسازی
##اندە
یارمەتیدەر
شێرپەنجەی
قۆڵی
##پکی
##وڵێت
مامەڵەکردن
ڕێگاو
شاهانە
بەرگەی
زەردێن
وادی
##ەبێ
بەرپەر
میرزا
ببینیت
ڕەچاوی
نادر
##ڕم
لەبەشی
هاین
کپ
دەیزانی
بەگی
نازانین
ئەمجار
خەتی
بیرە
دۆخەکە
##سیری
تیڤی
ڕایگەیاندبوو
هۆلی
دوکتۆر
نەیدەتوانی
شەیتان
وتارەکانی
برادەر
کاول
##ۆکیی
##نامەیە
کەمپینی
ڕابەری
ئەشکەوت
حەقی
تح
یەکپار
لیوای
ڕەگ
##ەدەری
پێشمەرگەکانی
##ارکی
دوپ
لەباک
دەگێڕن
هو
ستراتیجی
پەرتووک
کەوتنی
سەرەوەی
یانەکان
منداڵەکە
##پەرشتی
داواشی
موسلیم
عەتا
لەدەس
ڕۆمانە
هەڵیان
##وباری
مێزی
قانوونی
ڕیکلام
خوارەوەی
وەبەرهێن
لەزۆربەی
گوزەر
ئازادە
بیروڕا
قاهیرە
##ەسپی
پرنسی
کۆبوونەوەکانی
##هاب
تمەن
لەگر
سالا
##الین
بەئەنجام
##بهێنن
زەردێنەی
##ازم
بەزۆری
##ەلەرز
تاقیکردنەوە
جارێکیتر
شمشێر
##چو
##لەبەر
هەڵگەڕ
نوێب
##قان
کیمیاوی
هەرزان
##اردۆ
ئیشپێکردنی
بەکاردێت
شوانی
دەیخ
سازمان
عەبدولح
هاوشێو
بەلجیکا
##شێوە
##ُرد
##گادا
خێرای
ئێسک
پین
وتووە
##ۆکس
##ێزان
لویس
##مل
دری
##ەتری
کۆنترۆڵکردنی
یادەوەری
##هن
بنکەکانی
کێشەیان
ناوچەکەو
ئەزموونە
سەلەف
نەبی
موحسین
بەسەرۆکایەتی
وح
هەواڵدەری
کەسێ
##ەیەکەوە
فەرانسە
سێم
وار
شێخان
کۆبوونەوەکەدا
حیسابی
بەرەکانی
دەسبەسەر
جیاجیا
##ەدەس
کرێی
سوننەکان
دەرهەق
بۆیلەر
میری
##زخورم
ئۆکرانیا
کوا
##اتیان
حدکا
ئیسلامییە
بیاب
بێئەوەی
پرۆسەیە
بازی
##رێکی
##ئۆ
دەڵی
دڵڕ
یاوەری
سەرچاوەیە
بگەن
برۆ
یەم
##یدی
فەرمانڕەوایی
لەشوێن
بایز
هەشتەم
شێرزاد
دەبەخشێت
کچەکەی
نیگەرانیی
##ەکاو
پرسیارێک
نایەوێت
پیلانی
سەرکوتی
##ئاوای
دەسەڵاتداران
بداتە
بەفی
ڕەح
دەمیرتاش
##ەبا
نەبوایە
تاپ
##ْن
ئیدانەی
ڕوک
دەرناک
لەرێگای
لەکەس
پس
##اوەندی
گفتوگۆکانیان
##مەکانی
لیوا
##گیراوە
وتویەتی
##پەروەری
بکەیتەوە
##فران
دادی
##ەکەشیان
پاوان
ڕێچ
ڕۆیشتنی
##ەنتینی
##پشتی
دب
##بکەینەوە
دەهاتە
کەهەر
گفتوگۆکە
پێشینەی
تەلەفیزی
##ەمەی
##ورو
دیاریکراوە
چاوەڕێ
فیزیک
وەستان
سەرۆکوەزیرانی
ڕێژەیە
فرۆشتن
هاورێی
ڕوژ
بڕوایان
##شتاین
هاتبێت
حەمەی
مەرکەزی
سەرئەنجام
کیبۆ
منداڵێک
ئەڵێ
قوباد
لەسێدارەدانی
دابنێن
لێکراوە
پارێزگایە
ڕێنوێنی
##روو
تێکچوونی
##نامەکانی
هەڵبەست
کوشتووە
زەینی
##تنی
خۆڵەمێش
لێپرسراوانی
عەمید
سودانی
ئێمەوە
##گەیاندن
بریتانی
ئازەربایجان
دەستەواژەی
هەستا
##برد
##تیە
کەمان
بتوانم
دگەل
چەکە
کتو
هەستێکی
داواکارییەکانی
چەل
دەستوورنێت
جگەرە
ڕەوشتی
فێربوونی
پادش
عزیز
##رب
داوەو
زەحمەتە
اع
هەرچۆن
بڕین
پێشووتر
##میر
زانیوە
##سادق
##کاتەدا
دەگری
خوایە
کراوی
لەتەمەنی
بارهەڵ
حوسێنی
مەشقی
ڕائ
##وەڕۆی
##ەتەوەیی
تەحری
دامەزراوەکانی
گۆرانیبێژی
بۆرژوازی
ڕەواکانی
یەکگرتوویی
هۆشبەر
لایەکەوە
جوگرافیای
##گانی
##داخ
ڕوانین
##وەوە
کابین
شەممەی
ڕاگەیەندراو
فرانک
##غە
دەمو
چوارەمین
بروسک
دانەپاڵ
بایی
نژاد
وەت
##ەداری
ئەگە
کەسەکان
کراس
بدەنەوە
دێرینی
خستنی
گۆرانکاری
مووسڵ
سەرژمێر
گۆڕاوە
ناکاتەوە
##بارانی
گەڕیدە
لایەنانە
ڕابکێش
پیلانگ
هەڕەشەیەکی
ناسنامە
قون
##خۆشبوو
لەوەشکرد
ستاندارد
هاتووچۆ
چێل
سکاڵا
کلتووری
دووگیان
دەڕۆی
بەهەند
مول
ئینقلابی
لەبەرامبەری
##ەڵێن
ڕێبەرایەتی
خانەوادەی
##اپای
هێنایەوە
##دەرانی
بانگخوازێک
فەرمووی
خایاند
##آن
پەیوەندیە
دەستەڵاتی
مەیلی
لایەنگر
شوێنگرەوەی
لێدوانێک
پەڕەیەکی
پاشگەز
خاکەل
العراق
چوارچێوەیەدا
اب
حال
تەقلی
##ێدە
##خەی
هاوپەیمانێتی
##نەکردنی
##ابل
داخست
ئازادییە
کیشوەر
نەقش
##خۆری
بەردەوامیی
خەف
##چوونە
مافەکانیان
ئاسوود
##بونەوە
##کەرەوە
کۆبونەوە
گەریلا
##چوونەوە
دەروێش
پشدەر
ئەمجارەیان
##ەکەری
وڵامی
موفتی
شکاند
ئێرانییەکان
نەتەوەو
نڤی
##اتۆر
مێزەڕۆ
قەوارە
##لمانی
حەوتەم
قوتابخانەکان
تارق
##ەنیشت
لێیە
عەمەلی
نەتەوەیەکی
حاشا
##ەوایی
لەوەزارەتی
قاچی
##لایەک
سەرکەوتنێکی
هاتیە
هێمنی
ببینین
ڕێکخراوەی
##هیچ
بدۆزنەوە
ێش
بەرتەسک
بزووتنەو
گوتەی
اق
سێبەر
ئەوروپادا
خاچ
##نیکی
ئامانجێکی
ئەدیب
پێشوەخت
صل
ستراتیژیی
پێکدادانی
نەورۆزی
##َن
گەردی
هەلبژاردەی
شێعری
ئاوەدانکردنەوە
چەندەها
##ازین
ئەکرێت
وەرزە
##تەمبەر
قەڵادزێ
یەڵ
پێشنوێژیکردن
##ێندرا
نامەیەک
##ەکەماندا
کراوەیە
ڕاپەرین
##گوڕ
##درێ
##ترو
ئیجابی
دەگەرێتەوە
قول
گواز
جەماع
نەدراوە
بەهێزترین
کاکەیی
دەبیست
چیم
کونسوڵ
##اوەیی
جێبەجێکردنەوە
بارم
حزبەکەی
کۆمەڵگەدا
یاریەکە
کەناری
##بووین
هەواڵنێری
ڕاپۆرتەکە
ئەنداز
لوبنانی
##کردی
نیپ
دروستکردن
چەوری
عیشق
کۆبوونەوەیەدا
جەنگە
##بۆرگ
عەبدولعەزیز
گەیی
##دارەکان
##پک
##سیر
تێنە
##پێن
ناوێکی
بەرنامەو
##کسی
رد
##ریکی
ولآ
##توان
خۆیانە
قورسە
بارودۆخێکی
مێتا
بەکەم
پیکێ
ئاسیایی
##امێر
نەچێت
##ۆڤا
##ۆرین
موسا
دەهێنا
##اص
کۆمەڵگەیەکی
میش
یارمەت
کولتوری
چاوێکی
گەورەکەی
ناونیشان
##کردنێکی
کەرب
حکومەتدا
ئەمەریکایی
ناچێت
سەرەکییەکان
ڕێوشوێن
زل
کردین
ئاپۆ
##گەکەی
پێشکەشکرد
پێگەیشت
عەن
##ارتی
لەڕی
هەواد
##ۆلۆژ
تووڕەیی
##اورد
##ژمارەی
لەئەنجامدا
بەدژی
سەوزی
کەموکوڕی
سەرەتاکانی
دەورووبەری
دەرەنجامی
خۆشناو
ستافی
بەچاو
##کۆتی
بەرقەر
##دانێکی
سەلم
پەنجەر
شارەوانیی
لەکوردستانی
زاو
پارکی
لەئەند
دەرفەتێکی
یاریزانەکانی
مۆدێلی
پیشەسازیی
خەوی
بێس
بیرکاری
باشترکردنی
کۆمەلآ
دوژمنان
جنێو
فیدراسیۆنی
دەمێکە
شارۆچکەکانی
باخچەی
پێتان
دەسەڵاتدا
کیژ
کێن
کوردێک
خوالێ
سوودێکی
##اعید
بەڕێزیان
هەد
ڕێکخراوەکە
بیروباوەڕی
ڕوداوێکی
ڕاف
گوندنشین
##نەکەوت
تاوتوێکردنی
یەنایەر
##ێدان
##گەیەند
بزاڤ
لەپرۆ
ئارشی
نێوەند
ئارە
حیزبەکەی
تێکۆشەر
یەکگرتوەکان
##فۆنی
یاریکردن
سایکۆلۆژی
##زانم
##ییش
بڕیارەکەی
وتن
ێنجشەممە
##ەتەکان
ناف
بەرزتر
لەهەڵبژاردنی
مێژوونووسێکی
بریکاری
کەمبوونەوەی
الخ
پێنەد
شاهی
کرابێت
ئۆتۆمبێلێکی
پەرەپێدان
کوبانێ
##بم
خنک
شەون
##ڕەوە
الإ
وأ
##وێنەر
پاشەکشە
بەڵکە
چێ
بەسەرهات
دواییەی
مێژووییە
مەحاڵە
تۆزێک
چێژی
بچووکەکان
بریاریانداوە
دەخنک
دوەم
دەکرێنەوە
ڕووس
ئۆتۆن
##ارییەکی
کاندیدەکانی
شەماڵ
سەروەریی
ئەبول
##ەڕو
ئۆقیان
لەفەر
##دەهەم
لەوەتەی
زیات
ئامادەبووان
پێدەکەن
بنکەیەکی
اری
##شر
هاب
##ێکردن
##گرتنە
ئەوجا
پێشوودا
بلآو
ئازایەتی
جۆزەر
جاک
ڕۆژنامەو
باوەش
نیشانەکانی
##کەندی
میوە
ئایە
ئەلج
بێست
##ڕاند
کۆس
کۆڵان
##بەستن
کۆنسێر
ئەلعێراق
زەڕ
##نیک
بید
کانزای
دەبەستێت
کۆپتەرێک
ڕاگەهاند
دیدارەدا
##روستی
شاراوە
بەبیان
ڕەنگاو
بەرفراوانی
لەسەرتاسەری
##ەنووس
نەبەز
بڵاوکردۆتەوە
##ایەتییەکانی
دیموکراسیی
هیتل
##ووین
گرانی
ڕزگاریخوازی
ڕۆڵەی
دوورخرانەوە
گواردیۆ
##ەکردنە
##اداشتی
ملکەچی
زەمەنی
##روستکردنی
سانتی
دایان
هەندی
دەمێننەوە
پێچەوان
کەف
قەناعەت
تومار
##ناوە
##ەدەم
میژ
پیاوسال
سەربازە
دامودەزگاکانی
گار
تێبینییەک
لەپڕ
دیبلۆم
جانت
عیل
دەیکەن
بەلکو
دارو
سینەماک
شانۆگەر
شەفاف
دیوە
##چوونەوەی
خڕ
##وونەوە
هەرێمەکە
##لاح
گونجاوە
پێوەندییەدا
##صة
بەناچ
##بوانی
فواد
کامیاران
##رۆن
عەقید
##دیو
لەسنورەکان
ئەفسانە
چەقی
سآ
یود
داستانی
##ەکردندا
غەد
فیرع
ئەرشیڤ
دن
قسانەی
##وانگەی
لەهەمبەر
نەتەوەییەکان
ڕێژوان
ئەزموونێکی
نۆروێژ
##رایەر
##روش
بێزاری
کۆمەڵکوژ
تەرمەکەی
##عود
شارۆچکە
ڕێگەیەوە
بەرلەوەی
ماریا
##تەدا
لیژنەکە
ڕەوشەن
ئاشکراشی
هەوڵدەد
گێڕانەوە
دەگوز
بنەڕەتدا
##بێرگ
ئەکبەر
پەروەردگار
ناردنکاران
##ووق
بێنی
بمێننەوە
قەرەبووی
مەلیک
لیگ
عیراقییەکان
##ازەی
تووشبوون
هەوڵیان
لێدوانەکەیدا
بهێنین
##ادەب
کەنەد
##لێکراو
هید
یەکگرتنەوەی
نەجەف
هەرێمیش
بۆچوونەکانی
فەلاح
فەرمیی
دامەزرێنەری
بەیت
تارم
هۆرم
##هاد
##ەلام
ئۆفی
شوێنانە
دیکەیە
کاتەکان
توێژەر
لەبارەوە
قووڵی
بنەماڵەکەی
بست
ناتوانرێت
دەخوازێت
##شێ
هاودرەو
لەکۆبوونەو
ڕێککەوتنە
##فرۆشی
ئاڵوگاری
چام
##پەکانی
دەستپێشخەری
##ۆکەکان
نیوان
نادرێت
بگەیەنێت
##اتەکانی
بردنەوە
##ینێ
دەخۆن
دەرس
تەوەر
##وڵاتە
ئەندامە
ڕادەست
ئەفسەری
دووبەر
لەجیهاندا
##ێکن
سوم
ساکار
دروستە
والی
کوردپ
خەڵاتە
پێکان
##بز
بەرامبەردا
##تێر
##اوەکە
##دوەند
##ەلای
##ۆکاری
ڕیچ
سوئ
پەنجە
گەمەی
ئامادەکردن
هەوڵەکان
خۆماندا
شارەزایانی
دانیشتووان
##شەمە
##ەکم
##زیری
دادەخ
زانکۆکان
##ێنرێتەوە
مخ
کەین
ئەلح
میلیارد
سری
تاگەکان
بەکارهێناوە
ئاشکراکردنی
تێپەڕاندنی
ماندو
هاورێ
##ایەنێت
ئارارات
هێرشبەر
##وست
ئەڵێن
مریشک
وەلآ
##ۆو
کەمترە
ژور
##تراز
سوێن
نواندن
ئیله
##وڵا
سنوورە
کۆمەکی
بەرنامەیە
##ڕێتەوە
دابونەری
##اکەوتنی
وتە
پەڕگەی
بەرمی
##ایەتییەکی
پێدەکرێت
گێڕایەوە
##قام
هێڵە
##گیرا
دانەن
توێژە
##بکەم
##ونەوە
##اوازی
##ماڵی
دووکان
کۆنتر
شۆڕشە
دەسپێکی
لۆر
##ێستا
ساک
##ەرد
کراب
شوێنانەی
جون
سەما
هاوەڵ
ئامێدی
پەرچ
لەکوێ
##کاتۆی
پاشەکشەی
بەنیازە
جیاوازدا
ژمارەیە
سلیمانی
قسەیە
جەمسەر
بەچاوی
گاندی
ێکی
جەواد
خوێنەران
سرووشتی
وێبی
ئەمڕۆدا
چارەسەرێکی
لاری
کز
##درێژ
##کەوتوو
ڕێگەیەکی
نەتوانێت
بەردەستی
##ێدێڵ
بەڕێوەبەرانی
سەرئ
دەرچووی
عیر
تەلەڤ
خوشکی
پێکهێناوە
تورکیاش
سنورد
##گوای
لەئێران
مەرجێک
لاق
کوردییەکانی
وەزعی
لەکۆت
قودس
لێدەکەن
مەزنە
مسوڵمان
مشتومڕ
پاڵی
ئەکا
تورکەکان
ئۆپۆزیسیۆنی
لەدایکبووانی
بەڕێوەبردن
لێپێچ
دووپاتکردەوە
دووەمیان
حەسەنی
##شتمانی
جەختیان
زەمینە
نێزی
##اڵەکانی
دادو
بارانی
مصری
خولێکی
کیشوەری
خەبەر
##نیف
دەگەڕێنەوە
ئەمجۆرە
هەمەڕەنگ
دەسەپ
زانیار
کوردا
##بەن
لیژنەکەی
خانەواد
کۆمەلآیەتی
هێناوەتە
##وولە
کەوابوو
پێکهاتبوو
پاساوی
خامنەیی
نێوخۆی
##وتین
مناڵی
ابن
ڕەقیب
ئەمساڵی
کاریکات
ماکی
خوان
کابرا
خۆرئاوای
دڵەڕاوکێ
هەیانە
لەناکاو
زیندو
ئەفسانەی
دەگوترێت
هەڵدەبژێر
##لۆن
دەسەڵاتەکانی
هاوڕێیان
مامناو
هەوڵدەدات
ڕووبدات
پێشمەرگایەتی
قارەمانی
بەسەریدا
##دول
خۆپاراست
ڕم
موخ
خاوەنەکانیانە
سنووردار
یوددی
جۆربەج
لەسەد
پەری
خەزەڵ
##گاب
##ێدانی
قسەیەکی
بخەن
لەگەڵیان
بەرخو
##وتە
هاووڵاتییانی
نەغەدە
کین
دۆسێی
زەنگی
هەڵدەس
تەوافوق
بەحرەین
میانی
لێکدانەوە
شەقڵاوە
ئێمەو
موه
دۆستانی
مایۆ
##وەت
بۆچونی
ئورووپا
چەتەکان
گەرما
دواخرا
ئایسلەندا
زەمینی
فەب
ئیراد
ڤیز
زیندانەکانی
ئاڕ
بەپێش
ماڵو
سینەماکاری
ستران
کێوی
کۆدەبنەوە
ئەری
بەلی
دوورگەکانی
خراپدایە
سرووشت
##دری
ئۆتۆمبێلەکانی
تێز
نایەک
ئەڵێت
بەگەڕ
قائیم
مەفرەز
بهێنرێت
حاکمی
ەڵ
وەستاوە
لەخۆدەگرێت
شانە
کەبوو
بیریان
خۆمانی
دۆستانە
ئاوو
ناساندن
دیاریکراودا
تق
نازانێ
خۆپیشاندانەکانی
هێنابوو
هەناسەی
##هل
حکومەتەوە
لیژنەیەک
ئاواتی
سەردا
دەڕۆن
##خۆف
مەعریف
##َی
##ەوەکە
بزر
لەناوەڕ
زەرەر
بیک
کێشاوە
وف
نەکراون
کارئ
لەرز
##ئەست
ئاوەدانکردنەوەی
سیروانی
بنێ
مەلای
ئانا
پێکهاتنی
##انەشەوە
دەرکەوتن
ئارا
دەستپێب
سەیدسادق
بەڕێوبەری
##ئاماد
حور
پرۆفیسۆر
##الاکی
##بینن
بەشێکیان
کەڵەک
شوک
شووش
لەوکاتەدا
وەدەر
پەیوەندیان
فێربوون
##ادات
ڕووداوانە
##ۆکرات
چوارد
##گیزی
وێنەیە
##ەینی
##زیۆن
خۆکوشتن
باوی
لەدەرەوە
##ئار
لەراستیدا
بنو
جیهانییەکان
لەنێوانی
خودایە
بەلێ
باڵند
هاوکاریکردنی
جڵ
##تار
ئاڵمانیا
مەلە
ئاشتیانە
نوآ
لەکت
شارەدا
لەبارە
ئەمریکایی
##ێرێتەوە
یۆڤانتۆس
بایەخێکی
##زنەوە
وامان
##یلی
گۆڕێ
تاچەند
ئایتی
هێنری
زستانەدا
##ڤێردی
قاچاخ
##باسی
ناکاو
تۆکمە
جوانڕۆ
تەڵاق
داواکارین
شێل
جوانەکانی
ئاکۆ
سووتەمەنی
ئەندازیار
قەتی
##بیە
ئامێز
مشک
لەئەو
شەهر
ئاسیای
بەندەری
##جیت
فوت
##گز
گەیاندووە
##وڵاتی
کۆمەڵگایە
بنەر
##اژە
ڕایانگەیاندووە
یانەیەکی
تواناو
پاداشت
##اریش
پارتیی
##ئۆیی
خۆبەخش
موزای
بەسەرپەرشتی
چوونەتە
پرو
مردووەکان
داخوازییەکانی
خار
گۆڕانە
پراکتی
کوردستانن
پڕکردنەوەی
خۆمم
وەفد
ناڕاستەوخۆ
##ومان
##الۆنیا
پإ
##ویر
مۆدێرنی
ئاستێک
بنیاتن
کاسی
##ەویستی
تێوە
پێوەی
##ووخ
کۆنەکان
تێدەک
##ڤێ
##وویەکی
هاینکس
کەمینە
سەرکۆم
تێرۆر
##ابری
فەرئۆیی
شەمزین
لەسنوری
نەجیب
ڕقی
##اندبوو
##لەسەر
ئاسانکاری
چوومە
##کەدا
ئاماژەم
##بوی
هێزەکان
سەرکەوتنە
##ەهای
هەندرێن
ستۆکهۆڵ
پەڕگەیە
لەساڵانی
##اپەر
بڕیارەکە
کچەکە
هێندێ
ئارادا
لێکدان
گەلەکەی
قەزاو
هەواڵەکە
ئیدریس
بەڕێوەبچێت
##ەرمەند
لێژن
تاجیک
لەبەردەستدایە
##ەنگە
پێکراوە
ئەسع
مەجلیس
سەرەتادا
دەستکارییەکانی
دەکوژرێن
یانەکەیان
خۆشیەوە
گەریلاکانی
هەقی
##ۆتەوەو
##گیرێن
خەڵکیش
شارداوە
شۆفێری
قەدەر
##قوڕ
##یندا
##رابێ
زەمانی
لەیەکێک
هۆشبەرەکان
شایستە
موز
##ێژکراو
ڕۆژانەدا
داگیرکاری
ئاشتیخواز
کتێبەکە
##ۆلا
فەیسبوک
زێڕینی
##ەتییەکان
حیکمەت
عەبد
##جێی
ئەلبوو
لەیانەی
مەریخ
لەسەرەتادا
بڕیاردرا
ئیب
##راونەتە
زەع
گەرەکی
کڵێس
گووتیشی
##هەو
بق
یارییەدا
ناڕەح
کۆمەڵایەتیەکان
##اوێ
صویا
میدا
پاڵت
لەچەندین
##اشترین
##حاق
چاوپێکەوتنی
ڕێزلێنان
ماتماتیک
بیستەم
اح
قە
کەوتوون
هەندێکجار
سەلەفی
نوسراو
عیس
گوندێکی
بەردەر
ئاسەواری
ئێف
صلصة
##ۆگرافی
لەکەن
یت
پەرلەمانەوە
نیشتنگە
##دانێن
##گەڕێتەوە
##مەرگە
بەکەس
چۆل
گوێیان
سوننی
ئەیان
مەترسیدارە
بابل
##لایەنی
ڕونکردنەوەی
ڤالڤێردی
کوڵ
بەکرێگیر
بەندکراو
سروشتییەکان
مێرکاتۆی
ئەدەبیات
ئەسڵانی
نگ
سلێمانیدا
دەژم
چاودێران
##ەکانییەوە
ڕادەب
فیشەک
لەداهاتوودا
بوک
خاش
شیعرە
نوێنەرایەتیی
تایبەتیان
زووترین
##چەیی
##ەڵێت
گوتوویەتی
ئێجگار
##چین
بەدەس
کەسەکە
##یەدا
لاه
ڕۆژوو
کۆمەڵایەتییە
هەرکاتێک
##ەروو
##ەبووە
##فیر
##سیل
ئامارە
کوشتار
لێبورد
##میلان
##دەوام
گیرفانی
لەخۆیدا
براوە
##شتێک
ئازا
تەشهیر
ئەویان
بیرۆکە
دۆلارە
خالد
فەبرایەر
پۆزەتیڤ
ئەلفوبێی
بهێڵ
چیک
شتێکە
غەیرە
یاوەر
توانیمان
ناوەڕاستە
ڕوبەڕوی
##ڕۆی
هەشتی
پاڵەوانیەتی
دروستدەکات
لاوازە
بۆمبڕ
چاوەرواننەکراو
##دەکرێتەوە
ڕوح
ئەیلولی
مردنەکان
دەستکەوتەکانی
##بۆڵ
دەستەبەرکردنی
##ینن
لینکەی
میترۆ
##فتوگ
مەئم
بەرەبەیانی
لەنەخۆش
باه
غەززە
قەف
خەمۆکی
بەتوانا
خۆری
##سێن
لێق
کڵاو
لێدوانەکانی
فەقێ
##لینگوی
احمد
شانبەش
ناردووە
باڵوێز
سوڕ
وەلامی
داگیرکەران
##زخورماتوو
خوێنەرانی
الدین
مورادی
تەختەکلیلی
ڕۆژنامەکانی
ڕۆڵیان
سەختە
پێشڕەوی
کامڵ
زۆرو
یادەوەر
ئینترلینگوی
بەهمەن
دەرەوەو
هێرشکردنە
گێل
هەرکە
پێنجەمی
##رەحمان
سکای
بووژ
نەبو
زەبەلاح
زەیت
کارانەی
ئەرزی
بەبەراورد
##یەی
لێدوانەکەی
##دایەو
##لیل
ژنەکە
کتێبەکانی
دەقێکی
##مۆند
##شێوەی
##اوەتە
ڕەمەز
کابرای
بەیاننامەیەکی
نها
کەمن
سەرەکیەکانی
##کردندا
نەیاند
بزوتنەو
وانییە
تیپە
لۆگۆی
زۆرەی
ئامار
##ێندرێت
وێنا
شاهۆ
دەستدرێژ
هاید
هەڵدا
ڕەخنەگرتن
زمانەوانی
ڕواند
##قوڵ
شەوانە
نتن
ڕاستگۆ
کەوتوونەتە
لەخۆر
جەزائیر
##دەنگی
##ییەکانمان
تۆیە
وەرنا
لالی
هەڵن
گوێڕای
##اسیی
##وەها
سەربەرزی
دەرخستنی
زیاتریش
شڵەژ
چارەنوس
کوردانەی
##اهید
حسن
##رایی
بگرێتە
##ێژێت
گوتار
##ەییەکانی
##کوژی
فە
کەرەستە
##ێکس
لەئاک
زم
لەپی
کاریگەرییان
کلین
مامۆستایەکی
گوتیان
پارتێکی
دیمانە
پرۆسە
گەندەڵیی
دەکران
بچینە
یەکێتییە
شەی
کەیەک
پپ
بەڵگەیەکی
خێراتر
جەڵ
لەیاریگای
##اواز
چارەسەریی
تالی
##ەپانی
نامرۆڤ
شیرک
بەتۆمەتی
ڕیکۆ
قائ
ئەکرەم
ئۆتۆمبیلی
هەڵوێستەی
ساردی
کۆشش
خاتری
کۆتاییان
پەیامە
لەگەلا
##دۆست
فرۆکە
خانو
##بوڵی
##ئیسلام
خەلافەتی
شلۆنە
چالاکییەکی
شع
تۆڵە
ئایندەیەکی
زریان
ڕاگەیاندنەکان
بەخۆیان
گۆشەی
##گرتنەوەی
سەنگەری
مەغریب
نکۆڵی
لەسەدا
ناون
درۆی
بەچی
پێکەوەژیان
لەناوچەکانی
تووند
بێشک
##رەف
##ستەکانی
داواد
حم
فەه
عیراقیش
خاوەنەکەی
نمایشکرا
گواردیۆلا
##ەنەی
بەنداو
دەگەنە
گوڵە
خوێندرایەوە
ئابڵ
دوژمنایەتی
##ەکمان
بەپلەی
##ڤر
##ووترین
نەیویست
بۆمبێکی
وشەیەکی
سەرنجە
##ستاند
قەیر
ڕکەت
شاک
باوەڕە
بوارەکاندا
سووڕ
لەنزیکەوە
لەسەرەوە
ناوخۆو
##بڕی
##کەفت
ئیمپری
نەمێنێت
تایبەتمەندییەکانی
وەبیرهێن
وەزارەتە
چووم
##ۆخی
تاوانباران
لۆژیک
شانبەشانی
کۆمە
تع
##ژو
ڕاگواست
مێژو
ئاڕاستە
نۆک
بەشەر
زوب
ئیرادە
##اریس
بەپارێز
درەوش
گروپێک
مۆزەخانەی
چالاکوانانی
ڕکەتالۆنیا
واژوو
دیوان
بتوانی
بەکاردێنن
پێڵاو
کۆمەڵێکی
ستار
فەیلی
##اوین
##گەڕی
بازن
##اشەوە
عەرەبیدا
ئۆفیسی
##عەلی
گەران
گرنگییەکی
جینۆسایدی
چیت
دیارترین
##ەسەر
ناوەکەی
نەبێتە
گرنگەکان
سازکرد
ئەسڵی
##بەختی
کابر
تەقی
پێوەندییە
##انەشی
تایبەتیی
##ەماندا
ئێستاوە
نێوخۆیی
##اکەم
کۆبوونەوەیە
جود
##لەب
جۆرێکە
##اکەش
##گەدا
بڕیاردەدات
مەقام
##تێ
لیبی
بونەوەی
کۆنەپەرست
خش
ڕوس
چیخۆف
داعشدا
##وچوون
لاوەکی
لێپرسینەوەی
نەقشبەندی
درێژەدان
بەدیار
سۆسیالیستی
ناساند
باڵیۆزخانەی
ئاف
نیمار
نەمابوو
کلیلی
دونیادا
ماب
بینەری
بپرسین
پیاوەکە
جوانکاری
هێلی
فەوجی
نائومێد
##نار
دیالۆگی
سەپتەمبەر
سمکۆ
فەرەیدون
سەربەستی
نییەلە
بەئەزم
چارەنووسساز
حوکمڕ
جێم
پرۆژەکانی
ئاکرێ
تەسک
تەشکیلاتی
##لوم
ڕۆژنامەنوسی
پاسی
بەرێت
بەشدارییەکانی
هەماهەنگ
دواییە
نەهاتە
قۆرخ
##ۆستی
##ختی
##ێتر
لەبڕی
پەیوەندیەکی
دوورن
فیدرالی
زنجیرەیەک
بەبەشداری
کۆدەبێتەوە
پەرۆش
دەگرین
لەزانکۆی
##مال
##یشم
بنووسیت
ئێمەیان
ڕوحی
پێبدرێت
پەتی
##سیس
ڕیشەیی
ئازادانە
چاوەروانی
فێم
پایەی
سەنگی
بناری
هەژاران
گرینگترین
لەبەیاننام
هەرێما
بگەین
درۆز
پێکهاتەیەکی
لەسیست
بەرنامەکە
وڵاتەوە
دوورخستنەوەی
پێوەندییەکانی
بەخوێند
لەڕۆ
خواوەند
مرۆڤەوە
درێژکردنەوەی
سالم
چالاکیەکانی
جڤاک
کادری
##سیە
بایکۆتی
ئۆرگانی
بۆماوەی
##ڕو
کەمیی
بوش
توێژەکانی
ڕۆنال
ئەکادیمیای
##ستۆ
هاوردە
نەبووم
شەشەمی
بەرێک
بازاری
کێشانەی
ئافرەتە
بزوتنەوە
بەقەد
قەیرانێکی
دەریاچەی
کەبەر
کارنامەی
توانایەکی
بف
پیان
مابوو
##ۆچوون
کارتێک
دول
لێپرسراو
هەڵوەشانەوەی
لەگەڵیاندا
پارێزەرانی
شاعیران
گیاند
مڵ
ئەنجومەنە
زیاتریان
ئوتوم
ئەجێند
سکۆتلەندی
ڕانی
##رۆژی
دروستکرا
تەختی
##کراوەو
سێیەمین
خولەکەکانی
گیروگرفت
ڕۆشنبیرانی
ڕادەگەیەنێت
نەفرەت
دیتنی
زادەی
##ەنجی
بەغداوە
##ڕۆک
دڵە
عەبدولم
کەنار
ڕیشەی
##اً
##تانیا
##چان
ئەرسناڵ
سەددام
عومەری
ژیاوە
کردووەتە
##ڕۆکە
زانستیی
خۆڕاگر
##اسەی
ناوچەکەی
تامەز
بەواتای
گشتیدا
جەماوەریی
خوالێخۆشبوو
دەستل
پەتاتە
میوزیک
ڕەبی
یونی
ەکانی
##وکە
بەخاک
وێنەگرتنی
کوبانی
خوڕ
دەریان
##ەتێ
زانیاریانەی
جێدێڵ
دۆڵی
##اندەر
زانیارییە
خۆمدا
دیزای
جەنگییەکانی
جەهان
ڕزگاریی
بەشەخۆر
کتێبەکەی
##اکانمان
بەرپا
نووسەرو
دورست
##ەترسی
ساڵڕۆژی
مۆرینهۆ
ڕۆژگاری
ئەگەرنا
##کارەکانی
گشتییەکانی
لیستەکەی
پەڵک
##حق
##بوویەوە
زەبری
##دەکانی
ئەمیری
نەسر
پراکتیکی
شر
##نیەکان
##پیۆن
گرێی
بارزان
ئەکەین
حەسی
تراژیدی
یۆتۆ
##سیۆم
بەپەر
عەبدولمە
دژایەتیکردنی
قات
##کۆماری
دەردەکەون
ئاوای
خستنەڕووی
جەند
فرس
##ەوەم
هاتبوون
دەیوت
سوورەت
پێوەندیدار
فیز
کایە
##ەجی
ئەوەیکە
خۆمانە
هەزارە
##ۆگوی
هر
ڕەحمەتی
بالی
نادا
ڕێڕەوی
بارێکی
پلات
شەقامەکانی
ناجێ
تەلۆگوی
فێدورا
بفرۆش
##زیاتر
جوگرافیا
بەڕێژەی
تەلار
دێموکراسی
ژەهراوی
ۆرت
دووەمە
منیان
دووجار
لەماوەیەکی
لەرۆژی
##صر
ڕەشە
ئادەمی
قامیشلۆ
کەزۆر
شاردا
میرنشینی
ساڵەکان
زاهیر
عم
ئۆغ
لەجیهان
ئاشتیی
ووشەی
فۆن
ئاسانە
دیمەنە
فرمان
ڕێنماییەکانی
نائارامی
دادەبەز
سوون
##زەکردنی
ئاماژەمان
##ذا
دەمێ
بکەینە
لەتر
دەسەڵاتیان
چرا
##ِّ
کەشی
لەمەش
قانوون
لەداد
##دانان
شەکرە
##شتیوانی
کۆمەڵناسی
بەکاریان
قوربانیان
ئاگایی
بگونج
تایە
شاژ
##ایەتییان
##اوەکەی
زاناو
کانز
تاراو
سا
بۆتان
ماوەیە
جێبەجێی
سەعیدی
لەبەرچاوگرتنی
فت
ڕۆژێکدا
وەرن
ئاسەو
تەماوی
دامودەزگا
تاجیکستان
دست
ڕۆژنامەکان
خۆشەویستیی
محەممەدی
جوتیاران
##وتاب
خولق
تێنسی
ساڵانێکی
قەبوڵ
ئەمریکییەکان
کارناس
بەپی
ڕزگاریان
##ەکێشان
ڕووخاندنی
##گۆی
محمود
##دێ
##انسا
دەنێن
دەوڵەمەندی
##امۆست
##یشن
ستادی
##ئەگەر
دایکان
درێ
سنورەکانی
##ژنی
ئەستوور
نەهێن
بەهاوڵاتی
##یمی
##بەز
بەکۆم
پۆلەکە
##دیوی
ئاسا
لەشەڕ
ئەوروپاو
لەحکومەت
بێسەرو
مێرگ
ئەمڕۆکە
##ساس
نەکردن
بەگرنگی
ئەندی
##ەکەمدا
کراونەتەوە
پۆرت
##ئێران
شوێنەوار
جوانیی
##پێکراو
بەنێو
دڵخۆشی
بەشەخۆراکی
زول
بەبیر
ڕەزامەندیی
##الح
لێکردن
سیناریۆ
سپێرد
موچەوە
دەخنکێت
لایەنانەی
ژنانەی
خۆشمان
دراما
فاروق
##کێشانەوەی
##ەرگرتن
ژیانم
قانون
عاشقی
کۆلێژ
هێژ
بەنم
وتوویەتی
ڕیفراندۆمەکەی
خواستەکانی
##خوازە
زیندەو
##کارانە
هەستیاری
مەسیحییەکان
##تونی
پیشانی
جێژنی
ڕێژە
شەراک
هەستیان
لێکۆڵەر
هاوکێشە
هیجری
کۆتاییەکانی
بەردەوامبوونی
ناوەندێکی
کتوپڕ
دەرکردووە
چرک
نوێکان
##ۆرا
شارێک
بابەتانە
پشکنی
نەقیب
##خوێن
نەتوانن
لیگا
سترات
ئۆبام
ئەقڵی
بەشداربووانی
بەهی
هاوڕێیەتی
خراپترین
ڕەتدەکاتەوە
پەراوێزی
باژێڕ
کەلێن
بینا
بەرۆکی
سەرەکییە
لەسەریان
هوشیار
##ەها
##بت
کارێ
فیفا
دەرەکییەکان
وێت
##ەخشن
شیکاری
گەڵاڵ
بەیەکێک
ئۆکس
نوێکردنەوەی
هەژموونی
یەکخستنی
##ەدام
ئیئتل
ڕۆش
فریشت
بەلاڤ
ئافرەتێک
بیانوو
فراکسیۆنە
ناونیش
جیهادی
##حد
نیزیک
##مێدیا
فتو
پارک
وەستانی
##ڵەی
لەزیاد
جمهوری
هیتلەر
شاج
ئۆپر
ئەوت
بەکردەوە
توورەج
ئیڤان
قەدەغەیە
غیر
فڵ
کەنگ
ئەڵماس
نیپالی
ڕیس
دەیڵ
##ۆب
بەدەپە
##ابردوودا
قایل
بۆندی
بەبەرپرسانی
حەشی
دواکەوتوو
خا
شوور
پارەو
بەشێوازی
بەهەشتی
##ەریی
کۆمپانیاکە
لەلێدوانێکدا
فۆک
دوڕ
دیمەنێکی
بەپێویستی
##ازدەی
یەخ
نەکا
هێنانەوەی
وەردەگرت
##ێتم
خنکان
##ایین
لەسێ
پێنجوێن
بەشێوازێکی
دەخوێند
دیجیت
چونە
شەڕەکە
شتێ
بڕیاریان
پێوانەی
سەریهەڵ
نوک
نەرمی
پێکهێنا
شێوازەکانی
هاوشانی
هەموارکردنی
موقتەدا
یانیش
داپۆش
ئەندامەی
کردبێ
دران
فریاکەوتنی
بژارد
تێکەڵاو
کۆنترۆڵکردن
وێژ
یەکیتی
پرۆژەو
کۆنگرەکە
وەڵامێکی
##پیشاند
کوردێکی
نیۆی
ڕێژەیی
##پارتی
سەردانە
##کیە
لەلێدوانێکی
اللّ
##بکرێن
چڕی
##امەن
ئیسحاق
ئێستاو
فۆتۆگراف
کوێی
##کارەکان
دەنووسێ
##ارک
دەربکەوێت
ملیارد
تومارکرن
سەربازەکانی
دەفتەر
بەسی
هێشتنەوەی
##دوتیژی
فازڵ
هۆزی
##قوب
کوردوستان
لەرێی
##بارەی
##ارەیە
دەوامی
تەبلی
هەڵدەک
هەڵبژاردنێکی
خەباتمێدیا
وەرچەرخان
ئورد
##ژمن
بەرگر
فەڵ
پەرۆشی
لەمانە
هەبن
نووسینەوەی
تۆڵەی
ئاوەد
لەشێو
بەیانیی
نەتەوەییە
هاوپەیمانەکانی
منداڵەکەی
هەتاهەت
ێت
##پن
مانایەی
##رێل
حیج
دڵیان
شەڕدا
ئیدۆ
تیرۆرستی
کافر
هەڵگرتووە
خەونە
کەبۆ
قەسی
چارەسەرکردن
ئەپڵ
کەنەدایی
دانوو
شایەتی
##گێڵ
فاشیزم
ڕوز
داگرت
هەڵکێش
ئایندەدا
کۆبوونەوەکەی
کەسان
##هاتوون
ڕاوبۆ
ڕۆمانەکە
ڕۆستەم
یەکجاری
ئیمزای
توڕەیی
##ەڕێوەبەر
سەرگەر
پرسیارانە
##جێفی
فریاد
بەڕاست
مەعریفە
تصنیف
ەن
حیکایەت
گەڵاڵە
پات
##حکومەتی
بۆنموونە
ئوستانی
لیۆنێل
داواش
هەردوول
بۆخۆیان
قەزایی
##َل
ئەچ
ڕاژە
بوین
لەناوچەکە
##ئەس
شاف
توندتر
یادە
##تێک
بووبێ
داسەپ
بڕێ
دێموکڕاتی
##صی
جڤاکی
جیاوازیان
خوێندنەوەیەکی
##ەکاران
خانمانی
حەشار
دوانی
گورج
عارەب
دەموچاو
هەوێنی
لەگوندی
خانمی
مێتاڵ
کەئێستا
##اردەوە
کەوایە
دانوستانی
##ۆشن
فەرماندە
لەبازاڕەکانی
باڵاکانی
غی
##بینم
تێدەپەڕێت
##لیک
##گیانی
شێواندنی
ئینتەرن
##ەتوانی
لەدایکبووی
کەسەو
هەڵدێن
نیکۆ
ئیمکان
خزمەتێکی
بەراوردی
ڕۆژانێن
##ەوەکەی
بەستووە
ڕویدانێن
بگۆڕن
لەکۆم
تیای
لەدەسەڵات
وەرزشک
شۆرای
نەگونج
##ەندانی
مەلەکردندا
شۆڕشگێر
پێشکێش
##ێندەر
هەڵکەند
ژێرەوەی
ودا
##کەیت
تۆتن
ببوون
کۆمکاری
ئەمانەی
##زینی
سازش
نوانەی
هیوایەک
##وفی
##غەفور
##خوازەکان
نیشتەجێی
شورای
تورکیایە
ئینج
دەگەن
##ئەوەش
پێکەنی
##تریان
وهاو
##دراو
##فای
هەموولایەک
بەلاوە
لەوەرزی
خوو
##ەمێرگ
نیون
نەکردوو
قەرەی
سەرسووڕ
بەناچاری
##ەدەکات
دەمام
فەڕەنس
مۆم
##دانەکانی
وێنەگرتن
پالەوان
برینی
##ەرک
حزبێک
پارەیەی
ببینێ
##اسن
وەهای
خولەکێک
ناودارەکان
لۆم
ئەژن
داگیرکەری
ئایەتی
لەڤین
هاووڵاتییان
خوێ
هونەرەکان
زەردەشتی
ئەنجوومەن
بەئەنجامی
گەڕاندەوە
شێوەکار
بەشیر
چیل
کیم
پسپۆری
إِن
##هنی
لەکۆنگرەیەکی
مێرمنداڵێک
ئەرز
هەڵدەبژ
تەوە
##نش
##ەوری
پێدەب
گەشەسەندنی
دوچاری
دانەوێڵ
ئاستەی
جیهانەوە
مامەڵەیان
هەڵبژێردراوانی
کێڵگەی
شەفافی
##اینەوە
نەیاری
دەگەڕێن
داهاتوویەکی
تایبەتمەندیی
##ایەنە
ئەکتەرە
ڕستە
بەردا
ڕێکوپێک
ئەلکترۆنی
کیبۆردی
گوێبی
ئەلبومی
گەشتوگوزار
##کۆمەڵ
زۆرەم
بەدەنگی
شیمی
وتارانەی
دەستکارییەکی
خەوت
هەناردە
تۆماس
تازەترین
چاندنی
گرفتەکان
تەرخانکراوە
سۆنگەی
##الم
مسعود
زەوییە
بەهرەمەند
وین
##لاق
سندوو
تەلاری
سپاس
تۆرک
##ڕەنگ
کاردانەوە
پلانە
گفتوگۆکانی
حەیدەری
##وبەندی
بەدەیان
ستۆکهۆڵم
ڕووسیە
هەوال
ئەمەو
##ەجێکردنی
##وچاوی
دەستێکی
##کیا
کیمیابارانی
زیندانیان
دەشنی
بیڵ
جێبەجێد
دهوکێ
یْ
التی
بەناونیشانی
##اکردنەوە
ئەفریقای
عەبدولقادر
درێسی
قیر
قوڵی
بەڕەسمی
پاڵن
نۆبێل
تۆتالی
بەفیڕۆ
شاخی
وابێت
هەڵپەڕ
تانک
##ەڕۆژ
##ەوەیان
ڕۆژنامەیەکی
بەرێوەبردنی
بنبڕ
دەگەڕێت
تاوتوێک
بەکاربهێنن
بچێ
زەویدا
ڕێورەسمی
ڕەوشە
لەسێدارە
لاتین
##تەکان
کەبە
کامە
وەربگیرێت
بارەگاکانی
سەندیک
ناپۆلی
سەوزە
دوورکەوتنەوە
ئیفلی
لەئیبراهیم
##الەتی
پەرتەو
کەماڵ
نائومێدی
##ُل
##ەوێتەوە
ئەوکەس
کامپ
پێشمەرگەکان
سەرزەوی
ئوسترالی
ئاوێنەی
کینی
##ەورە
##ێشتر
فرو
قز
خاوەندارێتی
جیدی
ڕح
##کراونەتەوە
نقوم
پێبکات
پێگەیاندنی
زیادەڕ
مەدا
لێوی
##لیە
کوشتاری
دەرهێنان
لەولات
هاتنوچوون
دەیە
لەلا
##گەلە
چاودێریکردنی
سەندیکا
هێڕ
##فەه
پەیامەکەی
نەوتە
کودەتا
##ڵڵا
بریندارەکان
خۆیانیان
پاشنی
قسەم
ڕوفاتی
گەنجێک
لەپڕۆ
لێکۆڵینەوەکان
##ەمای
تۆمارکردووە
دیاربوو
ڕستەی
##ەنەکردنی
ناسراون
دایکە
سیخوڕی
جیان
برسێتی
پەیامێک
پێشووت
دەخەینە
پڕی
ئەوم
دەرزی
کەمپەی
عەباسی
هُ
گاو
##فۆرد
##صل
##ییانی
لەبوار
##ابیلی
سازکردنی
کۆمۆنیزم
نەدزنەوە
تازەیە
مەترسییەکانی
پاڵتۆکەی
لال
داق
ئادار
دەرەبە
ئاشتەوایی
##ینجی
بەندەر
تۆدا
گرفتێکی
پاسدارانی
لەبنەڕ
نەدەکرا
هاتنوچوونێ
##بەستی
بۆئ
جێگ
کۆنگرەیە
هەیئەتی
##ووشی
هەرێمەکانی
هاتووەتە
ڕەخنەیی
شێم
ولی
##قول
سەرما
منداڵانە
##شنگ
فینلاند
وادیارە
بەران
##خواردن
پاککردنەوەی
لەئارادایە
بەرۆژ
کرگیزی
ئیزنی
ورە
نمایشەکەی
بەمەرجێک
##نێکی
بنەمایە
بەندیخانەی
پروپ
هاندەران
دەگیرێت
بیانییەکان
هەناوی
قل
بنێین
ئەلمانیا
خەست
##رەوی
مانگدا
کانتۆنی
بگری
##لمین
ئەمساڵیش
داون
لەژیان
نزیکبوونەوەی
گا
نووسینە
بیناسازی
ڕۆژنامەگەریی
گەڕاوەتەوە
کونسوڵی
پێشینارەکانی
دەچی
ستەمی
##موکراسی
باند
##دیر
تاوو
بێخ
##مەکەدا
دەردی
جەولەی
گۆڕەپان
لەبەرامبەریشدا
##دێم
##خانەکە
لێوەرب
##اکس
کردارە
هەموانی
جوڵەی
##کیز
##کەرەکان
زەنگەنە
جاڕنامە
دانوستاندن
لەناوی
الد
برزۆ
جەمسەری
دابەزاندنی
ساردە
##ایبەت
بەڕوونی
بەوپێی
ڕوحانی
نووسیندا
لێهاتوویی
##ابووە
بەرپرسیاریەتی
زانیارییانەی
شەشی
##گێڕی
ئامارەکان
باڵاو
دارە
##اکەوە
مینی
شارەکەی
##اتۆری
سەیرو
خۆپیشاندەر
لەدایکبووە
لەمەوپێش
##نۆ
شیعەو
پشتیان
ڕوانی
کوال
هەمین
شارداوەکان
##لاین
لەوکات
ویلیام
ئاوەکە
بەرچاویان
ڕاستگۆیی
نواندنی
بکەونە
ئیبراه
##دەگرن
سوارە
خەڵکیان
##ەکرن
بەکاتی
ئەنجامبدرێت
خۆرهەڵات
##ەوەمان
پێدەدرێت
ئیتی
لینین
ڕێکخستنەکانی
پارێزگەها
ڕۆژژمێر
ڕایگەیاندوە
بیستنی
هەشتەمی
لەهەوڵ
نێوانیاندا
زیرەکی
لیبراڵ
ڕۆمی
دۆش
##ەکانیشیان
بەپشت
هۆیەشەوە
سێن
لار
دۆرت
ئێستایش
دەوڵەتێک
بارهەڵگر
بنێر
بخش
فریو
عەقڵانی
چاوپۆشی
ئەنجامەکەی
سوریاوە
دەگەیەن
بەرژەوەندیەکانی
شایەد
بەخۆش
حزبایەتی
کۆمیسیۆن
##ڕاو
##ەوتر
ڕێگایە
##هاش
##خوازانەی
ڕێگایەک
هەڤال
##نای
ناستاند
بەفران
سوڵتانی
##جم
وێنەیەک
بچوکی
هەڵبژاردنەکاندا
توندڕەوی
دابڕان
ئەفریقیا
حەب
خۆشت
بابا
ڕیاز
##ڤیدیۆ
جای
ئارت
##ستەر
عەبدولرەحمان
بەشێکن
ڕێگاچ
تۆرکجە
خوارەوەش
##سانەوەی
تۆمارکراوە
کێل
نێردراوە
زاز
سف
ڤێت
نازم
ئاسوودەیی
لەیەکێتی
دیمۆکراتی
هەمانکاتدا
ناسیۆنالیزمی
بارو
بەفەر
مێینە
عوب
##ەکورد
گرنگیان
ژەمە
##گاس
##چڵ
پلەکانی
ئەسعەد
اد
شایی
هەڵێن
کارگە
##ەسەل
##خۆیان
ئاماژەیدا
کریم
دنا
##ەخوار
لەسەرۆک
جیاک
کراوەی
ڵام
گۆم
ستالین
داخە
زێرە
سەروک
##دیت
کۆنترین
##اپوور
جەلیل
ڕوونیشی
ناوزەد
ۆر
ئاماژەیەکی
هاووڵاتییە
هەربۆی
سەرماوەز
سکی
##ەناس
##سکە
##بیست
پارتەکانی
کەشێکی
وشیار
##باش
##انەم
قسەیەک
پۆڵەندا
پلاندانان
##پل
دەباغ
دروستبووە
دۆزرانەوە
لەسێدارەدان
##اڵێکی
بڕگە
##هەی
کارای
دوورخست
سنوورەکان
وەرگر
##ۆتا
##شناسی
##دد
##اڵح
مهاباد
##یەت
##ایەتییەوە
خۆپیشاندانەکان
شەوێک
نیگای
ساختە
##عب
##ۆیەک
هەرێمێکی
نوێوە
##ۆنگ
یارسان
گەلیکی
ڕەوشەنبیری
##اریەتی
گرتو
لەیادی
ئیدارە
تێکۆشەرانی
پێوەندییەکی
انت
ئایینە
ئەگەریش
##دەیەکی
بوویت
پشێوی
نۆڤەمبەر
پرسەکانی
ڕژێمەکەی
دەستلەکار
دواهەمین
فیزیکی
گرووپێک
لسەر
کاناڵی
موشەکی
فیرعەون
##اوەنی
ڕاگەیاندوە
کرمانجی
بەرباس
توێژینەوەیەکی
بیکات
بدرێن
مارتین
گەیشتووەتە
کیان
ئیمای
##دیش
##اژانسی
دەیبینین
پووچەڵ
##ضی
دەرون
دێرینەکانی
کلتور
خێو
هەڵخەڵ
تێکستی
گرنگیدان
ڕووبەروو
کامێرای
فیلۆف
مەتری
نوسیویەتی
##ەقە
بازار
دیموکراتیک
عەڕ
ئەمهەر
پێکردن
پاشانیش
نەزاه
یەزدان
##ێتییە
سیس
ڕاکێشا
ڤایرۆ
##ستیی
##کەوتنەوە
هەڵبژاردووە
شیعەیە
تەگەر
موکریانی
حاف
##گۆل
##نزی
##ندەی
کوردانە
ناکوڵێت
نیشتیمانیی
ئوسکاری
لەشەڕی
ڕوانگەیەوە
##زمان
ڕێزو
##پارت
بچێتەوە
بەدرخان
سووکە
##راپ
گونجاوی
سەپاند
گەشتیاران
مردووە
کوردیت
ناڤۆکی
وتارەکەی
##بەرت
ئۆپۆزیسیۆنەی
سانسکریت
قژی
پەڕلەمان
وێنای
مێهر
فیلۆفێست
ناداد
سعوودی
ڕابوردوو
جۆربەجۆر
ئارای
خۆشدەو
ئەشرەف
چاوەدێری
ئەمهەرینجی
##ەڕێز
بووایە
هەردووک
شەرەفی
ئەنفالکراوان
کەربەلا
پانی
##ایەخ
ناهێڵ
##ودەی
باسکردن
ڕاگەیاندنەکانی
ولآتە
باژێڕوانی
خۆیانن
پیادەکردنی
ئێد
گوی
##فەق
تاکێک
یەدە
##شیاندا
ڕەچاوکردنی
شەخس
لەبیری
##ەبونی
##کردەوەو
بەسەرهاتی
وردبینی
##امەکانی
هۆرگێڵ
##اکانە
##گەم
بۆڵ
کاراکتەر
ساڵحی
##ەجەم
تێکەڵی
بەسوود
##ەونە
داهاتوی
هەڵبژێردرا
لەگەڕەکی
##زاب
##ئیسلامی
ئەسەدی
کەرکوکدا
سەرکەوتنیان
ئەلبوم
بام
کاکی
دانابوو
کۆمپانیایە
موکریان
ڕەچەڵ
ئەدەبیی
باغ
بانەم
ڕەوەندی
ملکەچ
##اتەکان
دامەزران
ئۆتۆمۆ
لێقەوم
ئەکەی
##رونی
بێبەر
بوەتە
باڵندە
کۆنگرێس
گەمە
##حەت
دەرماڵ
نوجێفی
لەپرۆسەی
زێدی
تویتەر
بەرم
وڵاتەکەمان
گیرانی
دۆزییەوە
نەچوو
دانوم
دەخاتەوە
داواکراو
پۆر
ئامارەکانی
مەترسییەوە
مانگا
تیایە
سەرەتاییەکان
موسوڵمانان
تاووتو
چێلسی
هاوبەشیان
##وومە
##گیرکردنی
سێد
تەقەیان
کەژاڵ
مافەکاو
نمایشکردنی
فێدر
##ەگ
##ًا
##ەتەکەی
چیرۆکێکی
دەگوزەر
دەستوەر
بدەنە
بیرمان
##نووسەری
بهێتە
خۆپاراستن
کاست
##خال
##لیتاری
دادەڕ
دەیس
نازانی
چاکساز
ئاسانتر
نێگەتیڤ
شێمحەمەد
هەمەج
لەسەدەی
ڕاگەیەندراوە
چۆنییەتی
زیانەکانی
گێمی
##وۆری
##سلام
##ەتای
شیعەی
فۆلکلۆری
لەسەرکار
##ەپێش
کانەبی
بەرەوڕوو
##اکەمان
کێشەکەی
پرسیارەکانی
دوێتم
##ەپەڕ
فەرمانداری
ئەمنیەکان
بەڤیدیۆ
##اشین
آم
عمر
ماوی
وەختی
داواکردنی
هاندەری
دەرەکییە
ماج
##لەک
جیاد
بدەینەوە
ڕیت
خەڵکانێک
فرۆشت
لاشەی
نەئ
پرسیارەکە
کەپێوی
جولەکە
ڕیفۆر
نەخۆشیە
ڕۆنالدۆ
فق
##درێن
گیانلەبەر
ئێکس
ڕادیکاڵ
بەئامانجی
هۆرگێڵنەر
مز
ئاشکرایان
بکەوێتەوە
پروپاگ
باوەری
دەچێتەوە
ئەبێتە
ئەڤین
ساح
بابی
##زیە
تاکۆتایی
گەرانەوەی
سینا
##رخی
زۆربوونی
فەرمانبەری
##وێل
##نامەکە
فەیلەسووف
وۆرک
ئۆتۆنۆمی
لەمبارەوە
زیندانییە
ئافرەتێکی
ڕێکخستنەوەی
ڕووناکبیری
یوتوبوۆری
##ەتیڤی
شیعردا
ڕاپۆرتێک
ببینم
حەمەغەفور
دەخاتەڕوو
بەگژ
کولتور
ورەی
بنچینەیی
ئەمر
بەشوێن
مەحاڵ
##ابوونەوە
ئیماراتیەکانی
##وتنە
خەسڵەتی
یُ
شکۆم
نراوە
دەبینەوە
حکومەتیش
گەمژ
داکۆکیکردن
فەن
##لیای
بەرزن
چووەتە
بولگاری
تۆری
ئەولەوی
هانا
خون
کۆکردنەوە
بەرزکردەوە
بەجێی
بێکار
گرتنەبەری
ڕێساکانی
فِی
دەروونناسی
بەرایی
لەکەم
بیرکردنەو
ئەسپی
لوڕ
پابەندبوون
دواڕۆژ
ئۆغڵ
شەل
##ۆکردنی
##ەکەنەوە
بێل
جێبەجێن
دانیشتنەکانی
دەکاو
دەرببڕ
پێناد
تیروپ
لەشێوەی
بەبەردەوامی
هەوادارانی
هەرسین
خەلاتی
هۆتێل
ڕوونتر
لاوێکی
##ابینی
لەپلەی
نیشتمانپەروەر
نیونەتەوەیی
وشەیە
ناعەدا
##دانانی
چەکداریی
هەڕەشەکانی
دیکۆمێنت
گرووپەکانی
ڕۆماننووس
##پێدانی
لەوێشەوە
عەلا
بەوەوە
کاریگەریان
هێنانەدی
زاڵە
بینیم
حەمەس
قەوم
بەسەریاندا
چامپیۆن
حەوتی
##ژەنتین
کرابێ
نالەباری
بڕیوە
ناوچەیەدا
سەرەتاییەکانی
خۆجێی
کارەساتێکی
جەرگ
بێگەرد
الو
شتەکانی
ئەیوب
چوونەژ
بیش
ئازارەکانی
توێژی
نزیکانە
توێژەری
سکرتێر
کەتەلۆنی
چەرم
##ۆلە
کارەکەت
تەواویان
فستی
سەیف
دێمۆکراسی
بکش
کۆنفرانسە
وەزارەتەکانی
یەکڕیزیی
بەڕازیل
دێهات
ئەهل
سولەیمان
ڕوداوەکانی
جێناک
ڕیچارد
##گەش
نامەکەی
گەرمای
شەمس
کۆنفرانسەکە
لەکۆبوونەوەکەدا
##ۆردا
ئەنجامەکان
ڕێبەندان
قابیلی
##وشت
کوڕانی
بەگرنگ
نیۆیۆرک
##ێتەوەو
چنگ
تێچووی
ماڵپەر
هەبووەو
توێژەران
دەستگیرکراون
نوێتر
##راندنی
##چێتی
دیارەکانی
لەسەدی
پارتەکەی
بونیادی
باخی
سەرنووسەری
##رۆڤە
جگەلەوەی
##سەند
##ەتەپە
کۆبکاتەوە
بکەون
تاوانێکی
دۆک
سوب
##انیشدا
هاوشێوە
دیمۆکراسی
ناستاندارد
زاتی
خۆپێشاندان
ئەمریکاش
گفتوگۆیان
کێڵگە
حازر
دەگوترێ
نەع
دەخەن
باتی
کەرنە
بەڵگەنامەی
لەئەوروپ
ئێواران
فورات
##افەکانی
باوکە
تیرۆریزم
سوودیان
سوێندی
ئیلهام
##امبری
کەرامەتی
ئەنارکی
بڵاوکردنەوە
کۆمەڵایەتییەکانی
مەخموور
##ایەنی
ڕۆژنامەوانیی
نامان
مایکرۆ
تاگ
ئەمنیەکانی
پۆستەکەی
ڕیخ
گنو
##یدا
##قەت
خوازراو
ڕەخساندنی
هەرچۆنێک
##سات
پەڕەکان
نووسەرێکی
ناچێتە
بەشداربووان
بیرت
کامل
قووت
خۆجێ
دەوڵەتدا
##ێگ
کەسێکە
گەیشتوونەتە
لەئێستاشدا
بدرێتە
دانرا
ڕاستیەکان
فریای
مایکل
بخۆ
##سمی
##نیت
بەرەیەکی
##ترەوە
بچمە
کاتژمێرێک
مەترسییەکی
زیندووی
نەفەر
بردنە
پەروەردەکردنی
ناوچەکان
گوتن
هیچکام
دانیان
خاڵێک
خواردووە
لەخول
ڕۆژهەلات
دەستەکانی
نەدرێت
دەکوژێت
تووت
کاربکەن
ئەلم
ڕاوێژکار
هور
ڕەد
وتنی
دەویست
شانازیی
ماسول
ڤایرۆس
هەندەران
ناسەقام
فرەیی
خەباتە
ناوخۆییەکانی
دۆخەی
گفتوگۆیەکی
##پان
##وارد
کردەو
بهێنێ
نەیار
حیزبێک
ڕاپۆرتەکەی
پرتوگ
بیانوی
پەیمانگەی
خۆڕایی
##ۆرینەی
اک
دەبرێت
عێراقییە
نوێیان
هەڵەبجەو
مف
##هێنە
ندی
ویستووە
##شۆپ
##دوایی
ڕەخنەو
دەورەی
ەوەیە
زراندن
بۆمبڕێژکراو
خرۆش
دووڕ
##سون
کەهەموو
##اریا
لەجێی
عراق
ڕەگی
##راد
کۆمەڵناس
##خۆشە
جوولەکە
لەدیدارێکدا
داپۆشی
نیوەر
بیمەی
هەڵگیرس
دابنیش
پەسەندی
##کردووەو
تەقینەوەکانی
فیدڕاڵ
بەرپەرچ
ڤێر
پێویستیمان
هاتووچۆی
مانش
فۆڕمی
اڵاو
تێبگەین
تکریت
فێن
##سانس
##ەکردنەوە
بونە
کەمئەندام
##ەییە
##دەچێت
ئەوانەن
بینووسیت
ئارەزووم
پێشکەوتووی
خیز
پەرستی
نەبێتەوە
ناوچەیەک
نەهێناوە
ژوورە
ڕیفڕاند
سید
دەتەوێت
فیدرال
مردووانی
مەعریفی
ئیمایڵ
ڕۆلی
دەولەت
هەنگاوەی
ملیارو
تۆقاندن
سپارد
کێشەکانیان
گرنگن
##انەیەک
هەڵەکانی
گەورەدا
کاریگەرییەکانی
پاکتاو
سالانە
ڕامۆس
بێرن
میراتی
پاشەکەوت
ڕۆژێکە
لەوەوە
بێڕ
نەدەب
شایست
##هد
##ْل
ناگرێت
ئێرانیان
پێداوە
خاوێنکردن
##ێینەوە
ئاباد
گوندەکە
فەرید
میهرەبان
قەرە
ئەڤە
ئامادەین
خستووەتە
لێواری
مەخمور
##ەرکی
نابینی
تێکۆشەری
فرمێسکی
##هۆک
بووبوو
##هەلاتی
ونە
##رێژی
لەشارەکانی
فرۆکەوانی
خیت
لەمپەر
مەدینە
هۆشیاریی
قەرەداغ
ئەمانەن
پێیدا
بەزووترین
مازەند
گوێد
کاتژم
ئەنجامدەدرێت
فەلەست
گیری
##ناند
باڵەخانەی
تێبینییەکت
##دەبێ
لێبووردن
##جر
دەستەیەک
##اکو
ئیڤ
سینگ
تیپەکەی
##ژادی
کۆیی
ناوێت
##اییان
ئەستەن
ناسنام
درووستکردنی
دۆنم
دەستەب
بێنین
دادەنا
دەرناکەویت
##جیا
##گەیاندووە
کەسوکار
وەفا
گردی
##ەڵێ
تۆماربکات
جەنگێکی
ئەدرەسەکەت
ئاوەز
##کوردستانی
##جەکانی
بارودۆخەی
بێی
هێزەی
کەناڵێکی
ئەردەن
بگەڕێینەوە
دەهێنرێت
ناڕەزایەتیی
بنەڕەتیی
بۆنەیەوە
##رف
##دەبن
##ایەوەو
##وبار
تازەپ
کۆمەڵگاو
کێم
دەسووت
نەدەدا
سێدارەدانی
پەشت
دەسکەوتی
فۆڕم
ئیحسان
ئەنفالی
تێبینیەکەت
بگەیەنن
وتەبێژ
دابەشبوونی
تەنگەت
دیزاینی
ڕایەڵە
لووتکەی
قاس
مەنت
یەکەمە
##دەکرێن
ئەفسەرێکی
حام
ڕابگرێت
ئەلمانی
چیرۆکنووس
دەهاتن
هول
هاوتا
دەگێرێتەوە
فڕێ
##ۆیت
هاوکاتی
وەزارەتەکان
حامی
##ەسە
جیهانیش
فەس
ڕابردووەوە
نووسەی
##ینم
##ابو
کارەش
بەئەند
نەکردبێت
پشتگیر
دوورەوە
یاریزانەکان
نایەتە
##هەیە
##گرتوەکان
نرخەکەی
هوم
##ەسەلەی
قوتابخانەکانی
خێرخوازی
پێناسەکەی
کەوتبوو
##ودۆخی
ئەرجەنتینی
موستەفا
لەئەندامانی
چونکی
دەپارێزێت
ناگۆڕ
دژایەتیی
شاعیرێکی
کالیفۆر
سازان
دیارن
ئامرازەکانی
##وێنەری
فلاش
سووپ
هوت
گۆرانییە
پەلامار
تیمێکی
دیموکراتەکان
##ەبۆ
شافعی
##دەین
ڕێگەچارەی
مەودا
##ژێت
تاوانباری
ئیدانە
تەقینەوەکەی
خاوی
وێک
شوتی
##اپۆرت
##گاە
ماڵێک
##هری
تارمایی
سەرن
کوردییەوە
کاریزم
جووڵە
گرام
ڕەقەک
##بێر
باشم
فرۆکەخانەی
تۆتنهام
بەردەڕەش
پەه
وشەکان
دەرفەتە
میلیشیا
باڵوێزی
نەتەوەکەی
ترسناکە
شاگ
ئەع
بکاتەوەو
خاڵانەی
توانرا
ڕوونکردنەوەیەک
دەرخست
وەرگرن
ساڵرۆژی
مود
لەئام
##بێسی
ئاخاوتن
تەکی
پاتری
##حاد
یەکلا
ئاوازدان
لۆجی
##کردایەتی
سیح
بەبۆچوونی
نزیکترین
لێبکات
بەکاردەهێنن
##جێکی
##ادۆڵ
جارانی
ئازادو
نوێیەکان
کورتدا
مەنسور
حمە
##ومێنت
زووە
چاککردنی
لەخەڵکی
دابنێین
عبد
نەست
کاڵا
بەربەرەکانی
##ژیک
سەربازەکان
ئێستاشدا
بەخوا
پێداویستییە
جموجۆڵ
پچڕ
##لێت
فەرز
پێکهاتوون
ئەفریق
لیستێکی
##ْر
بردبوو
ستایش
لەسەرووی
گەشتە
بەخشیوە
بەجیهانی
##ێرش
لەبەی
بڵاوە
هەفتەیەدا
جوڵانەوەی
میتۆدی
بیخو
کەوتووەتە
##عەب
##دەکاتە
##کاتیشدا
پتەوتر
وەلا
هەوڵدەدەن
پەراوێزەکان
جووڵەی
وکاری
##ڤێت
ناوەک
جۆراوجۆرەکان
وێنەو
##ستین
##ودجەی
جێدە
نوێیەی
مەدەنیی
ساختەکاری
یەد
دەرسیم
شەڕەکانی
پێکبهێن
هەڤاڵانی
عەبدولمەهدی
##گرنەوە
دەیانگوت
##حەی
##ەنس
نامێنێ
شەهاب
تاوانەکان
تەحەم
سلێمانیش
ئارمان
پاڵاو
ناوەراستی
تێناگ
کەبوودوەند
شاس
بدەی
هەیئەتێکی
قائیمقامی
نادروست
پاداشتی
##لاد
ویەک
یەکپارچەیی
وئەو
گۆڕا
شیعەکانی
ئەڵقەی
دادگایەکی
نێوەڕاست
##روت
مەسئ
##دەوڵەت
باوەڕم
پەیماننامەی
دەڤەرە
لەمافی
ڕزگاربوون
چەسپی
خوین
ڕاهێنەرە
ڕێکەوتنە
نەریتە
عەرەبییەکان
لەباب
لیتر
گشتییە
ئاکاری
کشانەوە
ناسیۆنالیزم
ڕەهەندە
شاشەی
نیل
شاهیدی
##دەنی
##ەشێو
بەردەوامیش
لادانی
ئامێرەکانی
##انەمان
##مید
دووبارەی
ئیبراهیمی
لەدەوری
##ێزەکانی
کورستان
شارەزایان
کوشندە
گیرۆدەی
##پاک
مرۆییەکان
پێید
دانیشتوانەکەی
لۆس
مۆنت
ڕووحانی
ڕووداوێک
ژێردەست
لەنێوانیاندا
یەکتریان
بەلایەنی
##ەزاران
بەدەستبهێنێت
پارێزگاکە
هۆنراو
هاوچەرخی
سێز
پەیڤ
بەرێوەدە
بتوانرێت
گفتوگۆو
عەلەوی
قەدی
##ەکەوێت
خودان
##وسڵ
خراب
سنگ
بوارێکی
مانگانەی
##بلی
کردەوەکانی
گەشبینی
جەنگاوەر
ئوروپا
هەواڵێک
نووسراوی
پێکهاتەکان
ئاکار
##ساڵدا
خیانەتە
پێزانی
ئاگربەست
باهۆز
##ەلات
##گیرس
کەلتور
##ەشک
ئەندێش
##ەزیدی
بەژیانی
کۆمنزی
لەوپەڕی
ڕێسا
ئاکەپە
هەژدە
مریەم
خوداوەند
##ەوەز
داوود
بەکتری
بەدەستهێن
دانووستان
فال
سەردەمەی
گوێگر
##ێخ
نیع
خانەخو
چاومان
##رینە
##گەهێ
هوشیاری
ناخۆ
دەژیان
کارمان
ڕابردووش
ئاژەڵی
فریا
ماشێن
بیابان
جیاوازییە
کۆلۆنی
ڕاگوێز
##ۆڵد
یاخ
تاڕادەیەکی
##حیزب
پەڵ
عێراقیەکان
تاوتوێی
هەدەپە
لایەنەی
##کتۆریا
پێشوازییکرد
##انیۆم
##سیتی
##اویە
بەسەرچوو
جیهانێکی
تەلەع
بڕەخس
مۆدێڕ
##گرنگ
کوتی
ئیشک
خوشکان
پسپۆڕانی
قۆناغەی
حوسنی
##کەرانی
دەخایەنێت
##ێنێتەوەو
ڕێگەگرتن
بۆئەو
بکەوێ
بەتەمەن
##کۆپ
نەکردۆتەوە
ئورووپ
##کردنەوەکە
لەمەی
میتر
تەراز
خواردنانەی
بەریەک
فلی
##ێکا
بکەت
بەڕێوبەرایەتی
خر
کۆتاییهێنان
##ازانجی
مومارە
##ِک
##اکەرەوە
بوونەو
ئیمکانی
ئۆرییا
سەحەر
بەرووی
نەتەوەیە
فۆت
##جێر
تۆخ
خۆشح
نوێیەکانی
نادیارە
پاپا
بەکۆی
مەولەوی
گۆشەگیری
فڕێدەد
##کۆف
بڕیاریشە
ئیقلیمی
قەتیس
ئیئتلافی
دانەوەی
بونەتە
کازم
حەبیب
تەلەفیزیۆنی
##ُّ
ئەڵمان
ڕاوەستان
##ویستە
توێک
ئەسوات
یەکێتیش
چەتری
##دەیە
ڕۆژەوە
ڕێسای
دۆناڵد
بەکاردەهێنرێت
نییەبۆ
خل
مەڵبەندەکان
داپ
##شتیمانی
عەسکەر
شەڕیان
أَ
قبوڵی
سواڵ
خۆپیشاندانە
داڕشتن
چالاکە
لێبێت
چاڤی
لەزاری
بەڕێکەوت
هەتیوەکان
سانت
دابمەزرێنێت
زەکی
دەتەق
##اغا
بەڕیو
مایە
ڕۆژئاوادا
شیعرێکی
تاقم
خستەسەر
مەشه
بادی
کردووم
##ەشار
شۆڕشێکی
پێداویستیەکانی
کەسێکیش
گەردەل
ڵی
پێنجی
لەڕوی
##انەتر
##دس
تایبەتەوە
##ەپەر
دەتگوت
شتوم
مەترسییە
ناگرێتەوە
پەنایان
دەدرێتە
ئەندێشەی
لێرەو
یادکردنەوەی
ڕواڵەت
مێرگەس
ڕێکدەخ
میرانی
نووسینەکانی
سەحنە
فان
بێلایەنی
پارتیدا
ڕێزیان
بەناوەکانی
گەریلاکان
گوێبیستی
##ەدەستی
وەزع
مەمک
ئەبووبەکر
##پێکردن
نموونەیەک
##ژەنی
ژیانیدا
پیاوەکانی
بەرگریکاری
تازەوە
بەڵگەنامە
ڕۆک
پرۆف
بایدن
ڕەسول
ڕێککەوتنێکی
ڕەوانەکەرەکان
واڵا
دیلی
ڕێگاکانی
پێناوەدا
##لملان
مِنْ
جیر
شارەی
##خەن
داوایەکی
حەزیان
هاوبەشە
نهێنیی
لەخۆیان
##اسین
هاتنەوەی
گەورەیەی
عیراقە
بونەوە
سەردەمێکی
هەڵوێستەکانی
شاکر
کەشناسی
بەوپێیەی
##پێست
##اشان
سیڤی
گۆڕستان
پێنچ
پێناک
##خوازانی
دووبەرەکی
یەو
##ەکارهێنانی
##نەکراوە
سندوق
میتافی
بۆنەکان
سەرهەنگ
دیدارەکەدا
شوکر
##ەنامەی
##انەشدا
##ێشێو
بەپەی
جۆرەها
نزار
دەیانویست
ئازارو
دۆزراوەتەوە
هاوکێشەی
##ەرینی
دەسەڵاتەوە
چەکدارێکی
##شتێکی
بێڵ
گۆڕستانی
دەمەی
شاندەکە
ئێزید
ڕش
کیت
هەوکردنی
لەڕا
دهۆکی
تەعبیر
پێکد
شارب
ئەڵقەکان
##حادی
ساڵا
##ەلیم
کلیک
ولآتانی
بەهایەکی
قەرەبووکردنەوەی
ئیراق
##ێە
کۆنەکانی
##زانن
ئاماژەیەک
کەموکورتی
پەرلەمانە
شدە
##ەوین
ناهەم
خەڵکانێکی
حاج
##امبر
ئاژانسا
مەبەستمان
گەیشتوو
بەوەیە
##راوەیی
مانگەی
نیک
زاناکان
##کارانەی
گرێبەستە
دێنێتە
توێژینەوەکە
##ەیەکیش
نزیکن
توانییان
ویستیان
هەندآ
ڕێنمای
هۆنراوەی
مارکسیزم
تازەپێگەی
##ەوس
هۆیەک
سەرکوتکردنی
دۆزیوەتەوە
پارلمانی
لەدڵ
لافاو
شاجوانی
چۆم
ەت
بوونێکی
گۆڕانێکی
ڕۆشنگەری
گەورەترە
ئابوورییەکان
چەقۆ
لەلایەکەوە
جاس
وورد
پول
##ولە
بەرینی
پێدرا
دانیشتوی
ناوخۆییەکان
بەکاربردن
بەڵی
چیاکانی
جەلاد
هێشتاش
##سترالیا
غەیری
##گاکە
دەباتە
بڕوام
زاراوە
ئێعدامی
خۆمەوە
چەوساندنەوەی
بەشداربووی
بنەرەتی
چاپخانەی
برینداربوونی
دۆزینەوە
بەرشل
گوێگرتن
دەخوات
بەندەکانی
دەوڵەمەندە
شیوع
##بەندیی
##دیم
منت
هەقیقەت
بەڕۆ
##ادۆر
قەرەق
خوارووی
ڕوداوە
بەهۆکاری
مەعروف
دێرینەکان
دەدەنەوە
بوونەوەرێکی
##ەکانیشدا
پێکەن
پێبەخش
زەریف
سیخوڕ
دادەمەزرێن
ڕێچکەی
چۆک
##ژمی
بەکرد
##ووڵاتی
ئاڵۆزتر
زامن
شەت
سەمای
سەرمان
تێکدەر
سەرتاپای
جیهانبینی
گوتووە
بدۆزینەوە
ناحەز
##هەلی
هێزانەی
بوێت
هونەرییەکانی
مەبەستیان
ناڤۆکیی
ڕەوایە
زیادە
خێزانێکی
ئاسوودە
تێدابوو
بگەینە
خێری
شرۆڤە
##کردوەتەوە
درابوو
ماڵێ
جێگرەوەی
ئۆل
گەڵاڵەی
کەمئەندامان
##چاوە
چاوپێکەوت
ئەتۆ
##وانن
پیادەی
یەکگرتو
فەرمانگە
نموونەیی
شەرمەزاری
بەخێرهاتنی
تیمەکانی
دابەزیوە
نایانەوێت
زبڵ
گەرەکە
بگەیەنێتە
کەمدا
خامنە
سەردانەی
حەقیقەتی
بنەبڕ
##کەرەکانی
تەقیەوە
تەڤگەری
بەرزو
وتووێژەکانی
دەستوورە
هەمویان
دێل
دوبەی
##وکاری
بەهاکانی
گۆڵەکانی
ناکۆکییەکانی
بەپێک
لەرا
##هایی
بێسن
خولیای
ئامێرێکی
نش
لێدا
وشەیەک
وەردەگرێ
بیبینە
جورئ
سیان
که
دیموکراسیەت
حەدی
کۆتر
دروستبکات
نایەکسانی
تێبگەن
زێدە
لەترسی
پێیەتی
##ێڵە
##بورگ
ته
دەیلی
زرێ
زێڕی
چیی
##دەکەنە
تەوەرێکی
سەقامگیریی
پاڵێوراوی
##زامی
قاڵب
فڵان
##ڤال
##ونەوەی
لەڕوانگەی
دابەزین
بەواتایەکی
جارێکیش
خوێندنگە
##ایێ
پشتە
پیاوانە
لەریزی
##ەبجە
##اردین
دال
کردوویەتی
گیراو
خەریکن
قاش
چونی
##فین
هێرشەکەی
بەرێوەب
دەروونناس
بەرەوپێشچوونی
فیدڕاڵی
بەرلە
کۆبوونەوەیەک
سەمەر
نەجات
##ئەی
ژمێری
ترمان
سەیی
##وجە
##ەلەف
##بەشی
لەوبارەوە
##گرتنەوە
شارەو
فیت
بەئاگ
پیشاندانی
##چیلە
بەسەدان
پایەبەر
سێشەم
فەیلەسوو
لۆگۆ
بوودجەی
خەوتن
##ێجی
ڕووم
برۆن
ماکۆ
تاڵیبان
دیفاع
خۆئاماد
لیژنەکانی
سەرێکانی
پیتەر
باسکەی
تاریخ
شەرعیەتی
لەلیستی
گوێچ
یاددا
بەربڵاوی
ترسناکی
##لب
##ارێت
ترۆری
بسپ
دوم
بریق
دەڕوا
شەریعەتی
قەشە
ڕاکردن
##لەیەکی
بەوهۆی
یەکگرتوەکانی
بەجێم
دەناڵێنن
ڕێکخرا
سەردانێکی
ئاوێتەی
وکو
نەکراوەتەوە
ملیۆنی
ڕاگەیاندنە
زیادبوون
هۆگری
بەرێوەچوونی
هەموارکردنەوەی
هەوڵەکانیان
تەنگژ
##ەوآ
##ێنەنی
نەتەوەییەکانی
کاپیت
نکو
ڕکێ
کوێخا
إِ
##ەخۆی
##ەبەرە
پیشەساز
##ەکوو
بەراز
بەهەڵە
شارەوە
ژنێڤ
ئەشکەوتی
ڕۆژژمێرەکانی
چوونەژوورەوە
##غرافی
نیگ
##ۆمبیا
خۆرا
زانیارییەک
چەشنێک
کەرکوو
لەزمانی
سەراسەری
##ێدایە
لەکێش
ڕەوایی
وەڵات
##ستم
نووسراون
چاخی
پڕۆژەیاسای
لادان
تەعریب
دزینی
چوارچێوە
کوەیت
هەلێکی
وەگەڕ
ماوەیەی
قوڵایی
ڕز
سەربازییەکان
گەیشتینە
کاردا
ڕێکی
ئەوکاتی
هەڵنا
کۆریا
جیاجیاکان
لێکەوتۆتەوە
زڕ
##ێنراوەکان
دەمانەوێ
شەمەندەفەر
دکتور
##لەوە
دەموچاوی
دەفرۆ
وەسفکرد
تێکهەڵچوون
##دەوە
کارام
بڵێیت
##ولات
##ەکانماندا
کەسایەتیە
ئابوورییەکانی
ئەویتر
سەڵماس
کۆیلەی
چنار
##ونا
حاڵەتەدا
لەمن
جارێکیان
حەفتەی
##خش
هێنانەن
پێشمەرگەیەکی
##ئاڤ
هاوتەری
دەنگدەرانی
هەبو
سیاسەتدا
بەدوا
گردبوونەوەی
کلاسیکۆ
تەحسین
##فەهان
لوول
پەلی
لێخو
بەڕێزتان
کردەوەیەکی
ئەپرێل
عال
ڤیل
ڕاشکاوی
دەستێوەردان
باڵادەستی
ڕووەک
مرۆڤەکانی
لێهاتووە
هاوڕێیەکی
هەلبژاردن
کوردسات
پەستانی
زێرەڤانی
نوسەری
ئاسود
خوێندکارە
کازاخ
ڕوکن
دەربکات
پڕۆژەکان
گواستەوە
ڕەهای
فلۆر
دەکوژن
##عت
ڕابورد
پێویستییەکی
چوارگۆشە
بەبیانووی
##ەراڵ
سیاسیەوە
کێشانی
خەمڵ
پەرچەکرد
شێری
##ابادی
##ەدەکەن
بیروبۆچوون
ئەجێندای
##بۆری
نەدەهات
##اخەی
بەدیل
دەبینیت
وەردەگیرێت
ورووژ
دەگرێتە
کەمپەینی
بەتوانای
سیاسیش
بەرزدەکەنەوە
شاڵاوی
الکُرد
مەولود
تأ
##بژاردن
نارەزایی
بەرخۆدان
حەپ
ڕاوی
##اندۆتەوە
چاوت
دەربچێت
##کارا
مێدی
سورەتی
جوامێر
چەتە
##حیم
ڕادەوە
کارەبایی
هاونیشتمانی
بغ
عور
مۆڕ
##زیان
##ەشمان
##حمن
بچین
سەرهەڵدان
هاوولاتیانی
##ییەن
هێلک
زانیاریەکان
بلآ
دەستگیرکران
##کییە
لیۆنی
مناڵان
دەنگدانەوە
##ێوەردانی
یەکتردا
##ێنج
##وڵاتانی
##رێک
##یرۆ
##اقە
##وتەی
##ۆلین
بێری
ئۆقیانووسی
شەهرستانی
ناحکوم
دیکۆمێنتی
##اندار
مید
کلینتۆن
جێگا
مەرجەی
نیین
پەخشان
##رائ
##خستنە
فۆتۆگرافی
ڕۆژنامەنوسانی
##وبونەوەی
ڕۆژا
توندڕەوەکان
بەستنەوەی
هەڵەبجەیی
ناراست
ڕوناکبیر
##وپی
بڕۆم
بڕیارو
سەربازێکی
ئەوتۆیان
إن
داوام
ڕیگای
دەدوێت
بعد
سەرا
پێکەوەژیانی
##شق
##تردا
لەسەرخۆ
نامەوێت
کاردان
سینهەلی
وازهێنان
یور
بدرێتەوە
خولەکانی
فێرکردنی
##ارمەتی
ڕۆشت
لێدوانەی
نەمتوانی
هاندان
نیسبەت
داند
##ەنیە
ئەفسان
خزمەتکردن
کوێستان
یەکسانیی
ڕۆبن
لەئاین
ڕاوەستا
میحوەری
تەمی
ژیری
ئەوەکرد
##اندانی
##ویت
##رینا
ئیسلامیش
زایین
قاپ
کارەیان
دەستاو
هەڵواسی
فەڕانسە
##ەشم
هەڵداوە
فیدراسیۆن
شەڕڤانانی
لەماڵی
شکۆی
ئەنفالکراوەکان
کۆنسەی
جووڵانەوەی
زمانێک
زانیارییەکی
شاخەوان
ئاداری
مەندەلی
ئانت
ڕێژیمە
عەرەبیی
##داوەو
مد
##هێنێ
شوێنێکدا
قاق
لەکی
بەهێزەکانی
پێشێلکاریی
کۆست
ئەبن
خانووبەرە
ڕۆبێرت
نەشیاو
هەورە
بەخشن
تاڵە
بەئاژانسی
پریمەر
##زبی
ئەدای
هەستان
مەحموودی
##ەڕێ
کۆمونی
دادەنێ
بالا
خواستە
##عان
لەفر
هەڵبوەش
تاکلایەنە
بەرشلۆنەی
##ریف
یەکەیەکی
چیان
ژناندا
بڕوایە
گۆڤارە
میللەتە
بەعسییەکان
##ختاری
بخوێنێتەوە
زەعف
##ژینی
کوردستانییەکانی
فەرموود
تەقینەوەکە
کۆمیتە
زاینی
پاڵێوراو
ئاماژەشیدا
خوێندەواری
قسەمان
یەکگرتوی
مێسی
غەف
ژیاننامەی
هۆکارانەی
وەرگرتوە
عز
ئەرمەنستان
##حەسەن
واه
لەداهات
وەختێک
ئابوریی
جەنابت
بکەوە
خاکەلێوە
فێرد
کردبووە
ڕووەو
داهاتو
کۆمەڵگایەک
ڕەمەزانی
هەلومەرجە
وەزیرەکانی
لەمیسر
دەرهاوی
نْ
##ەرن
##ۆیانە
##ەندەکانی
جوگراف
خزمەتگوزارییەکان
ماچی
##بەشکردنی
عەدالەت
بەئاوێنەنی
لەگەرم
کەسن
دروو
بەوێنە
قسەکردنی
نرخێکی
پێوەرە
تۆنی
فَ
کیری
##ووگ
##پانیا
بەرزایی
دووربوون
هەتایە
ناکۆکیی
هێواش
تەزویر
قێزەون
ڕووە
##گووت
##نیۆ
##وکمی
بارگر
الث
ئەکتیڤ
دیوەخان
پراکتیک
گەڕەکە
##ێنەرەوە
ڕازیت
##عل
یەکەمجارە
پێیەش
سەردەمێک
ئەوەندەش
مەرامی
ژیانمان
شەوان
مەنتی
##اراستەی
دروستبونی
پڕچەک
##درێژی
نزمی
دەرکی
##کارو
سەربەرز
##سوور
##ژێ
بەشەکەی
ئەندێشە
ئەتات
سارا
کۆنفرانسێکی
یاسادانان
نەبۆتەوە
##ەکانیشەوە
ئامۆژگ
پازدە
کۆمەلێک
چیرۆکەکانی
ڕۆمانیا
##تەرناتیڤ
گرتنە
تێبگات
دەرفەتێک
عەیب
ودی
هەولی
لەئاو
سەرکەوتووی
تەسلیمی
سەخ
دووزخورماتوو
ڕەوانەکراوە
تۆو
ژوورەکەی
ڕاپەڕی
لەئارادا
کۆنفڕانس
پێشێ
مانگەکانی
اج
واری
##لکە
کۆڵبەر
پارچەیەک
ژینگەیی
تەورێز
##کەل
##پێکی
##شتمان
##ەتیش
دڵەوە
کەڵکیان
کۆنفیدرالی
بەبڕیاری
خامنەئی
بەمی
##گراد
ئەنتی
هەڵبژاردنەکە
عێراقیان
ئازەری
نوێیەکەی
ئێسکی
ڕەوشەکە
##سەکانی
بینەران
کۆبونەوەکە
سونە
یاریز
##ژمارە
گەرەنتی
کۆببنەوە
سروشتیەکان
##دەهێنێت
بیسەلم
##ۆق
##وێنە
##یشمان
ڕاپۆڕ
نەمری
تەواوکەری
ئابوورییە
کارئاسانی
کوردمان
ترم
برنج
گیراون
چوارچێوەیەکی
پرەنسیپی
بۆنمونە
ڕاستکردنەوەی
ژێرئاو
هەڵبژێردراوی
بهێنیت
پاژ
##درێتەوە
##ڤد
دەدەنە
کلتوور
جووتیاران
گۆڕین
ڕێبازە
نیشاندەری
ئاڵت
##خانەیە
دەچوون
قبوو
هاوڕەگەز
دەورێکی
قوڵتر
پەشتوو
تەلەعفەر
##دەورو
کاتیش
بەنیازی
ئەردەڵان
تانی
ڤاڵ
باوکان
شەهیدە
لەبنەڕەتدا
##بەک
##ەرا
بێتاوان
دەمە
تایفی
لەول
بیکەن
خانەکانی
دکەت
##مێکدا
مارف
عەبدوڵڵای
##دەکەینەوە
ناسین
##جارێک
وەڵامیان
بنووسم
بپارێزین
پاڵێوکەکان
سەرفر
لەناوخۆی
دەنێ
بڕیاریداوە
مامی
##تانە
##ێیدا
بنێرن
کوردستانیەکان
کاسیاس
##ەکەدایە
##اهۆ
بەرهەمهێنەری
سەمیر
دکتۆرا
##اوەوەکان
ڕابەرایەتی
لەوەڵامی
##کاوە
##ستۆن
بەندیخانە
پێمانوایە
ئەلکس
تەکنەلۆژیا
دەگێڕنەوە
لەمڕۆ
بەرنامەدا
ساین
بخوات
بوترێت
ناکەوێت
##امانە
ڕۆژنامەیە
##ێردرێن
کتاب
مانگەکان
نەکردبوو
لەئێستا
کرواتیا
ڤیدیۆیەدا
دەڕۆیشت
##انمان
وێنەکە
بەدیاری
هەنووکەیی
کۆڵن
دەنوسێت
هەمزە
##خواست
لێدەکەم
تەفسیر
##لەکە
ئەرخ
هێنانەناوەوەکان
ئەژ
چەندێ
سێهەمی
بەڕێوەی
مردم
تاش
##ەتەوەی
##پیری
نانەوەی
تێگە
بەئام
نەبووەو
سەعدیە
فەتحی
هەشتا
خەندان
دەتان
بڕۆین
یۆرۆی
دەکوژرێت
وشیاری
##إن
بەهان
تریشیان
شەودا
وتمان
سنوورەکە
ئەوانەشی
بەهەمانشێوە
شاهید
##ەهەو
فریاکەوتن
دەجەنگ
##ڤۆ
ئیسلامە
مەرجێکی
سەرشەقام
بەرزنج
سەرجەمیان
بگرنە
ڕوش
##سپیر
ئابوورییەوە
گۆڕانکارییەکی
##ۆکراتی
دەستکەوتێکی
ئەوەشیان
ئاوێتە
کارلۆس
##اوییە
دەورە
شیخ
تێوەگل
##ڕشتن
سەرای
ئەوەیشی
دیسەمبەر
شەرەفکەندی
فەیسەڵ
یەکەیان
بکوژی
##وردا
دیموکراسیدا
قەیرانەکان
تەموم
##ابیۆ
یەی
لێدوانە
مادەیە
لەلێدوانێکیدا
حات
گەڵای
مەعنەو
تووشبوو
کوردین
نەدۆز
گۆرانییەکانی
ڕوناکی
ویلایەتەکان
حسێنی
##بینێت
سێمێل
##شۆ
دروستکەر
کۆنگ
دورستکردنی
منداڵانەی
حیزبایەتی
سۆف
شپر
##ییەش
نەتوانراوە
##ەبکات
داعشیان
قەڵەو
دەستکەوتە
شیلان
##گەیەنرێت
نێودەوڵەتیەکان
بزووتنەوەیەکی
دەقیقە
قەڵاچ
واقیعە
قووڵتر
بەرقەرار
اخ
##خوازانە
میللەتەکەمان
وەهم
عەشیرەت
سۆشیال
کینیا
##سێل
##لۆپی
هەوراز
ڕەخنەیان
ئەودەم
دابەشی
ئامادەکارییەکانی
دژواری
هەنگوین
پەرلەمانتارێک
هەڵکەوتووە
بەجیا
زیاترو
هۆزە
ئامۆز
ڕوودەدەن
یاساییەوە
ئەمساڵەوە
ئاگرەکە
کۆمەڵگەیە
تایبەتمەندییەکی
هاوکارمان
ڕێڤەبەری
دیبلۆماسی
باشترو
بوومەلەر
پێشوازییان
کورسییەکانی
شازادە
##امن
##ینێت
دەگەینە
ڕایی
ەمین
##ردەب
سەرۆ
دەستەم
پارەکە
لیژنەیە
عەت
##گونج
##خرێت
هەریمی
جموجۆڵی
تەنگەتاوی
##لکەی
خۆمانەوە
دووپاتیکردەوە
سەرپێڵ
ڕووخساری
ڤیکتۆریا
ئازادییەکانی
ئەڵمانیای
##اگۆن
بەکاربهێنرێت
##گوڵ
##پڕی
##ەڕاڵ
دەستەکانیان
نەیارەکانی
ڕەسووڵ
##ستنی
بۆدا
پرسیارەی
داهاتودا
##لێد
تاڤ
کاتیی
ئەرکانی
پیسی
داوایکرد
سەعاتی
ئەوەشکرد
کەنارەکانی
خەمخۆر
ڕێککەوتنێک
نەشتەرگەر
سانسۆر
جبوری
##ووەکان
##راوێکدا
گوێمان
نەکرێ
هونەرو
جەهانگیری
##بدە
##ردان
بخەمە
نێودەوڵەتیدا
ئەنقەست
فاکتەرێکی
##بێتی
شێخی
فەرهەنگیی
##حیزبی
جێدێڵێ
بزانرێت
لێدێت
خۆپیشاندەرانی
کورتەکانی
نەخۆشخانەکەی
لەبەیاننامەیەکدا
پلی
ڕەی
##اکسی
بەهێزو
تێپەڕینی
میکرۆ
ژێ
##نانە
نەبیت
چواردە
##ێگەیشتن
ئیستاش
##خالق
##ەکراوی
هاتووم
گەورەش
لێدەر
ولآتی
ئامادەباشی
##وید
هەولێرەوە
پلاستی
نامەوێ
چیرۆکەکە
##ووپی
قسەکەی
ماتی
کۆکردەوە
##ێزانی
##رینیان
هەڵبژاردنەوە
بەردەوامەو
ژیانەوە
هۆگر
ڕاسپێرد
ئەکاتەوە
کۆمەڵایەتیدا
جەنگدا
ڕۆژنامەنووسێکی
سەرکەوتنەکانی
ڕوویەکەوە
##خاتە
ئاشوور
دۆستانەی
##ایەتەوە
ناوێ
ناوچەکەیان
##کەران
پرسیارەوە
جێگرەکەی
کێبڕکێ
نەیدەزانی
مینا
دانیشتبوو
##بێلی
یەکلاکەرەوە
هاوپۆل
##ێشک
ددانی
لامان
قورستر
ئاشتیانەی
تاوانبارانی
جوڵە
##ڕێی
بەرگە
زەخت
هەنج
ئەوەت
ڕاگیرا
##سەت
سەردەک
دیدارە
خەبەری
شێروان
##چوار
بەسیاس
پێوان
ڕەحیمی
هەڵپەسێرد
وەبیرهێنانەوەیە
خۆوە
##وانییە
دەورانی
شیعریی
وەسی
ڕووداوەکەی
ململانێیەکی
زگم
##چار
بەسیست
دەسەڵاتەکان
ڕەمز
ڤرۆن
گێ
ئەمینی
ئەندامێتی
هۆکارانە
مەحوی
مازەندەرانی
دەسوت
سەرکردەو
وترابێ
##ەقامی
کۆندا
چالاکیە
لاپەڕەکانی
بەرفراو
تیایاندا
بێتو
ویکیانەی
باشمان
ڕووبەڕوی
لەناوەڕاستی
##گرەی
ئیسلامیە
پلەیەکی
کاریگەرییە
بێکاریی
ژیل
ڕویدا
کۆدی
تێهەڵ
قەیرانەکانی
قووڵایی
دەربازبوون
##ارەسەری
ڤیدیۆیی
تووشبوانی
دێرک
##ماو
دەڕۆ
کۆڵی
هەرێمەکان
پەیتا
چینێکی
ڕەگەزپەرست
دەستیپێکردووە
##بدەین
خەنج
گیل
گەیشتوون
حکوومەتە
سندوقەکانی
دەربڕ
هیچکات
تێڕامان
بدۆزرێتەوە
دیوێکی
سادەی
فرید
تاراوگە
دۆم
##چڕ
وەزیرە
دەیانتوانی
قەبارە
ئامانجیان
هەڵمەتە
گەشتوگوزاری
توم
##گێری
دیمانەی
باشتری
مەککە
ڕێپێوان
زەعفەران
##باخ
##ڵەتی
چرای
هەندێکیشیان
##شکە
خەسرەو
نەزانراوە
جاسم
##آم
##ەکرێ
بەشەدا
ڕووکەش
##ەمیدی
عبدالر
هابرم
سایە
شمەک
ماتری
##وانێت
فەلەک
پاییز
تەبلیغ
بەدەوری
##ردنە
##ریزی
بەساڵ
فڕین
جوتیار
سۆمالی
زۆرتری
##اندنا
پێکهاتبوون
پەنجەرەی
سەرسامی
دەخوازن
ڕاوبۆچوونی
پرا
##یەکەی
##بیان
مۆس
شەهیدبوونی
فریشتە
کیلۆمەتری
لەقۆناغ
فەوت
ڕاسی
ەکەی
جیاکاری
بزن
دیارو
چەمکێکی
دابڕاوەکان
خۆبەڕێو
عەشقی
ئەمجارەش
##ڕیارە
##فاق
گۆڕە
لێکت
گەشتیار
گرێبەستەکەی
##ەڕوانی
پێبکەن
بوێری
یارییەکەش
پەرلەمانیش
بگرم
دانیشتنەکە
بەرانبەری
بەبی
ئێرانیی
ناوچەدا
پیربال
بەقسەی
نەمانتوانی
##هەزار
ئابڕ
چاکتر
لادن
بەخشرا
متمانەیان
بارمتە
بەرزنرخ
تانە
شەڵ
کف
پارس
چاوێک
کەرەج
شیعرو
ئەکرێ
سودمەند
سیفەتی
جادەی
بۆد
##رۆجین
##ناسیۆن
##مون
##ریل
دەستەیەکی
پۆستێکی
موقەدەم
فەرمین
موڕ
##الەی
خویند
##وسین
ئەوانیتر
فێستیڤاڵە
عَ
یەکن
##زیا
دەچم
نیشاندان
بێنێتە
##وه
لەبەه
گیران
گۆرانییەکی
دایب
##گور
##پاگ
داواکەی
مەرجانەی
شانۆکارێکی
بزانیت
فڕێدەدەنە
##دییەکان
دواد
دەکردە
##چەکانی
سول
حەوتووی
خەونەکانی
مێو
ڕەع
بیەوێ
سالح
هەوڵدەدەین
##قەڵا
##ەییەوە
ئەمەشدا
چالاکانە
فڕۆکەکانی
کۆمەلآی
##هەڵوێستی
بەرژەوەندیە
یەکسانبوون
ناڵێم
بەرژ
ئەردو
لەناوچوونی
##ۆلۆ
بهێنێتە
لەقوتاب
دووهەمین
لەباشووری
ڕاستییەکەی
بەکارهێنەران
وەلید
ئاندرۆید
شەمە
نیان
##ِهِ
ئەویت
ئەندەل
پێیوابوو
گۆڵێکی
ویستم
##رۆڵ
کرێکاریی
هەوڵیدا
سالانی
زووانە
سۆڤیەتی
تێپەڕیوە
چامپیۆنس
بإ
گۆڕد
جەلالی
ئاژانسەکان
خێڵەکی
ناگاتە
هەخ
بەیاری
هاوخەمی
داخۆ
تۆوی
تازاوای
دەرچووانی
کاتەکانی
لیبڕ
فیلیپ
قەرار
لەخزمەتی
دوودڵی
##ێتییەکی
وتبووی
پارێزەران
گەڵا
مۆرکی
کەنگاوەر
أو
بەگەرمی
##جیدی
حەوتەمی
پایز
دیمەنەکانی
##ەندانە
سلێمانییەوە
پێنجەمین
هەرچوار
گوڵدانی
وەلان
سڵاوی
کەنیسە
قاعید
کردون
واقیعدا
دۆرتمۆند
##الب
هەمەدان
مۆل
ناتەب
دەخستە
ئیمپراتۆریەتی
حەری
داواکانی
حاڵێک
بایەخدان
ئەوڕۆ
##نامەکەی
##وویەوە
یانەکەمان
جۆرەکان
لێوان
تیرۆریستییەکان
دوات
دەدرا
أی
##اشکاوی
لەبەرنامەی
پڕۆگرامی
لەناویان
پێویستدا
پێوانەیی
بەربەستی
گاڵت
دڕندانە
چێنراو
##ژان
نەبرد
واج
سینەماکارانی
##ێژێ
نیوزی
ڕێگەو
ڕێگەن
قاوە
سنگی
حکومەتێک
میلانی
وەڕێ
##گۆن
ئایەتە
ناڕەوا
سمایل
تەقلیدی
##ڕایی
پێدەد
ڕێگایەوە
هەندێجار
ڕەفتارە
خۆپیشاندانەکە
بیرەوەرییەکانی
درووش
ئەنجامیان
نەدانی
ناچارە
هەڵاتن
نێزیک
ناخو
موسڵمانانی
لەدروستکردنی
کاربکات
پێنە
کانزا
پتەوی
بێوە
گرانە
##ەیاندا
فرەن
##ەبوونەوەی
زەویی
لادێ
براکوژی
ئەودیوی
##ەپەست
بخاتەوە
لەیەکتری
نیشتەجێن
هەڵدەگرێت
خاکە
زێتر
چەوت
##دۆن
زۆران
تێکەوت
بەڕێوەدەب
کتێبەدا
##بع
پارەکەی
نییەل
هۆشمەند
مەدەنییەکان
دوورد
شێوەکانی
الاس
##ۆڕش
##زمەت
شرن
##روشتی
ئامێزی
ئامادەکراوە
ڕاپەڕاندنی
سەرنجدان
بەیاننامەکە
مرۆی
##مام
##پیاو
بەکاربردنی
سەڕ
##ساری
##سۆنی
کۆماریی
سیستانی
کەیوان
هۆڵەند
مسۆگەرکردنی
هەلومەرجێکی
چەتر
##رسە
ببینەوە
گەورەوە
بەشداربن
پۆستەکان
وکۆمەڵ
ئۆمەران
##ەکانەی
##گەیان
تایبە
ئامادەکرد
پلین
وێنەگر
ناڤێ
مازِ
ڵە
بەدەسەڵات
ناوم
یاریە
ڕەوایەتی
بوومەلەرز
باخچە
لەئەستۆ
##سیش
ئەمریکایە
ڕفاندنی
ڕامیاریی
ئەفر
##ەدینی
جینایەت
##لانە
سەرخ
##گەرم
ماندووبوون
پووشپەڕ
هەربۆیەش
دەتوانرێ
جێگایەک
کاربۆن
جەختیشی
غەزە
ئەنیمەی
عیرفان
اف
بەین
شامی
شهر
مەردان
ئینتزام
سەیید
مازِرونی
حوج
##ێان
##ەدو
پێشدا
خستۆت
گیت
##بگرن
کێبەر
بالآ
تەقینەوەیەک
تێکشکاندنی
قەساب
ڕەسمیی
لەخزمەت
##ایر
یاریکردنی
هۆیەکی
ڕیفڕاندۆمی
انە
فرۆید
پز
##حمەت
بەمن
دەوترێ
خامۆش
##مانێکی
##ولا
لەهەندێ
سەرژمێریی
کالیفۆرنیا
##ێژەیەکی
##ۆکڕ
نیا
هیم
ئیسلامییەکانی
حوکمە
گەدە
موسنا
ئیعت
هەڵبژاردنەدا
مالیزیا
بەژن
وەرزەدا
بەیاننامە
پێشوازیان
زستانی
گاب
##سکەی
##بەتە
##حەق
تاکتیک
هاریکاریی
##ەکەیش
مرۆڤانە
گوزەران
عەشیرەتی
هاوردەی
فەخر
بتر
قۆست
ژوری
دەرهێنا
تایبەتن
بوبێت
لەبەرچاوی
دەسەڵاتێک
داخراوی
بلاوی
دڕندە
ەش
##کرنی
توانیم
ڕاهێنەرایەتی
شارباژ
ئوی
غاف
##ڕۆم
دەبووە
ئەرا
بەکارهێنا
دوانزە
حەتمەن
لەسێدارەد
لەئاستێکی
##ەلاتی
ئیمراڵی
##وترێت
##بووەتەوە
بەنهێنی
یاسادا
خواردەمەنی
مەبەستێکی
لەماڵەوە
##بۆل
خوسر
هەڵچوون
نەوەست
گرتووخانەی
دوی
##ارەیی
مۆدێرنە
ڕواڵەتی
پێوتنە
خوێندکارێکی
هەفتانە
##ائین
بەڵێنەکانی
پڕوپاگەندەی
نەرمەکاڵای
##وونەی
التر
ئەساسی
لێرەشدا
پەیوەندیدارەکانی
سوتاندنی
##وویت
##ەقەی
گەورەم
کانادا
برێ
##ەنێو
زیانیان
ئیسڕا
دەنێرێت
دیکەیش
یەکلاکردنەوەی
لەکتێب
##زاری
دەهێڵ
##کوکی
کۆتاییهاتنی
ئەکاد
شەوکەت
دیکەشی
قوبرس
کۆلیژی
کارگێڕیی
مایکڵ
##قاڵ
کوبا
داگیرس
هاوبەشەکانی
اڵا
##جیر
گێڕاوە
لەفڕۆکە
مووشەکی
آباد
جۆل
##ووەکانی
کاروبارەکانی
خیانەتی
عەبباس
ئەزانی
بازاڕەکان
کەیفی
بێمان
##ێنآ
کۆنفر
کۆچکردوو
کۆبوونەوەکان
ئەفلاتون
نیازە
مرۆڤدۆست
بەڕێزی
ژینگەیەکی
لێکردم
سوودو
بەکاردەب
تەکنۆلۆژیای
جەنج
دوعا
پشتەوە
لەتەواوی
پشتیوانیان
تەمموزی
ئۆتۆمبیلێکی
هاوتای
ساف
نەوی
##اویان
نەکاتەوە
دەوڵەتەوە
ڕاژەکار
##اڕاست
ئاستەنگی
واشینگ
##الیستەکان
پشیلە
بتو
والم
ستەمکار
تەیم
هژە
##ازیا
بەبن
خەرجکردنی
دەبەستن
هەڵدەسەنگ
##لەیەک
وەڵامدا
کۆچەر
کەشف
وەهمی
##چۆ
بەوشێوەیە
ئیمپڕ
تەقاندنەوەی
واتایە
حەمرین
دەقیق
کەسایەتیەکی
کۆمیدی
ستەمکاری
نەبینیوە
خراو
##دەیەک
##ابین
##ێشان
ناگەیەنێت
##ژەوەندی
ولا
##اتەی
هاودەنگ
پێتەختی
چڕوپ
ئۆکتۆبەری
وەحشی
##هک
ستایلی
باست
##ەددینی
ڕاستییەکی
خەرمانان
##ستراتی
دیدارێکی
زیرەکیش
مەرجەعی
هەخامەن
عوز
##عش
بەرەوە
بەڕە
کارەکتەری
سەتەل
جڵەوی
##ِر
دوکانی
خوێندەو
میلادی
میللەتێک
لەپەیوەندی
جۆزەردان
نیوک
ئەمەریکاو
##اپا
لەئەزم
هەلوێست
خودمو
گورچیلە
هەڵگیرسانی
دوار
لەمێژە
بەکۆ
لیک
هەڵبژێرن
##هەڵوێست
ئەنکەرە
##گورد
ملیۆنان
شەمزینان
لێبوردەیی
ناشار
##گرامە
##گەرا
##یلمی
یاریدا
ئۆلی
خستووە
هاوبیر
سێرت
پەرتووکی
ڕیفۆرمی
دەسەڵاتدارێتی
سمی
##ڕەوانی
##مة
بەهەو
سادەو
دیموکراسییە
نائارام
##علی
##ونس
گڕی
##ماند
نەبون
بەخەڵکی
خێرو
قسەیەی
پارەیان
بونیات
مەود
خەڵاتەکانی
دەناسرێت
پۆدکاست
کۆمەڵەکانیش
دەیهەوێ
لەناوب
بچووکترین
گێڕا
##دادی
هەڵەو
شارەکەیان
جۆرەیە
کەوتوە
شیراز
مەغۆل
ببەستێت
زۆرداری
مەسرور
لەدامەز
دەخانە
##اچێت
دەروونیی
کینە
یاریزانێک
تیپەکە
قودسی
کوردنشینەکانی
نقومبونی
بەرگرتن
بەرەوپێشبردنی
##اڵەت
دەمێک
کەتا
##ەلوو
یەکشەممەی
دروستیان
##تێکی
##اردەکات
ماڵەکانیان
##ەخو
##خانەو
چارەسەرە
بەئا
سیاسییەکاندا
هەمانە
##شنەکانی
ئامرازێکی
خالیدی
بەرێوەدەچێت
##گرتبوو
بنرێت
سوپاکەی
گۆڵێک
لەباو
لەلایەنی
نیشتەجێبوونی
نەگرتووە
چەواشەکاری
قەرەباڵغ
خەزەڵوەر
دەنگوب
میران
هێڵێکی
##کۆس
کاکا
شۆڕشەکانی
دەخوازم
جوانەکان
##خدم
ترش
لەئە
بەهێزبوونی
##ێسە
نەوەیەکی
بەلەمێکەوە
نیر
کوبێسی
زانرا
##ەڕە
کراوەدا
تاج
هەڵسووڕ
ئیزن
هەرزەکار
زوم
ڕاڤە
نواند
وتارەی
بەهەدەر
کودەتای
##ایەکدا
خەمخۆری
وتنەوەی
ڕابگرن
ئەمەریکادا
لەوەڕ
هەبووبێت
ڕێکەوتننامەی
نۆکی
نوین
فەرمانڕەوای
حامد
##بەکانی
مامۆستاو
برادەرانی
نایابەکانی
بەخێوکردنی
فیزایان
بۆگ
ئادی
ستوونی
ئامرازێک
دوپات
##گابایت
##کەکەی
گولە
دوایدا
نوێنەرێکی
ئایینیی
سیاسەتمەدار
لەوانی
یەکگرتنی
زیندانە
کتێبخانە
دەهێنێ
لوتکە
مەینەتی
هەندێکیش
دەنگێک
گەرەک
ئینگلیسی
لەخەو
موحەمەدی
دەبەستێتەوە
فەلەستنیەکان
پیی
میق
گۆڕانیش
دڵۆ
ڕایەڵ
دەیب
تاقەت
دەپرسم
##ەدای
ئاسۆس
ناوچەکەش
جیهانییە
دەسەڵاتەکەی
هۆنراوە
##بەدەست
##فال
##ۆنەوە
لەکەل
کەسێکەوە
خۆپیشاندانێکی
سەیرکردنی
مەرکەز
حەف
##َر
کرۆکی
ڤرۆنسکی
وفی
##ەقڵ
هەزارەی
داتا
عەین
قۆز
##زەیی
##اندر
##وترین
بەکارهێنەری
نەخشی
نەترس
بەدەستب
لەیاسای
مله
کرماشانی
عەممار
ستادیۆم
ڕچە
قەڵەمی
سەرسەخت
فەریق
لەبوارەکانی
سیا
کەسەوە
کەرتە
بگونجێت
##پاراست
ئەنجومەنەکە
ئازادیخوازان
##تەز
کۆنەوە
##راست
پەیامبەر
لەبەردەمی
ڕەشبینی
زن
هەرێمایەتی
##توێی
بەعسەوە
لەندەنی
تەقییەوە
عەبدولوا
سەدیق
داڕشتنەوەی
##گێرانی
زانیم
ببە
لەتێک
تایبەتمەندییە
پەشیمانی
##ێکۆڵ
لەمەترسی
##ەهر
کۆتایدا
بیستەمدا
کادیر
هیدایەت
بوەو
ئێستاشی
کانتۆن
بەفری
بەرشەلۆنەی
سایک
##وویان
بکۆڵ
دەستڕێژی
چییان
##ەیتە
##زگان
نەمام
کۆدەنگی
تێری
کیر
لەبەرهەم
دراوەتە
گۆلەکانی
وکار
##نیوز
##اردووە
یەکگرتن
پشتبەستن
سیاسییەی
ڕۆژاو
پۆت
##خوار
لۆگی
مستەفای
کوژی
سیما
هێنراوە
##ەکەمانە
زەبروز
سەرسوڕمان
فەنت
پێشەو
سەرەکیترین
زەماوەند
ئێکێ
شاسوار
بەکەر
##پێکەوتن
ئۆلۆم
ستاف
سەربەخۆیە
بەیاننامەیەک
شوم
##ابێتەوە
نوێن
پۆتان
دیکەشیان
گورچیل
لێکردووە
جەماوەرێکی
شارستانیەتی
مانچستەری
ساینقەڵا
##سەم
ئیسرایی
##اوەیس
ڕاپۆرتەدا
ڕێگایان
دادوەریی
فن
##ەکەیانەوە
ئاوەڵ
ناوبرد
##لادی
##ەنووسی
ڕاگرتووە
بەرهەمهێندرا
گوێڕایەڵی
##ئا
دژوارە
بارین
تیرۆرو
حەفتا
سەرکردەکان
یادگاری
پێرس
تەسکی
ئاهەنگێکی
سیاسەتمەداری
هەمەلایەنە
بولگاریا
فول
بەشان
ڕابردوی
موعجی
بەپرسی
بیرکردنەوەو
خانووە
ڕێگەیەک
نەوتییەکانی
مالیک
جێگایەکی
##هت
##ەتەڕوو
##ۆتامی
زانیاریەکانی
نازانرێت
بەرپرسیارە
لەعێراقدا
ئیسلامەوە
یاساییە
شەریفی
پاڵەوانەکان
تەلەڤی
شد
هەریری
لێبکرێت
ئەشکەنجەی
ئادەمیزاد
جێگیری
ئاگاداریی
بەشداران
ئاگادارکردنەوەی
سەردەمیانە
##خر
##ادانی
ناوەست
چیلی
کەیف
کردبۆوە
گوزاری
وریایی
هەڵدەوەش
ڕونیشیکردەوە
ڕێگریی
گشتیەکان
سروشتییە
وانی
بچنەوە
سروە
تەوافوقی
کۆما
چووینە
شال
##تەک
ئەمانیش
بیجاڕ
##کرابوون
##ەکەشمان
توندوت
کەلەسەر
ژەهر
##کەوێتەوە
هـ
##ەمانە
کردیان
##ەنجانی
گومر
خۆسەپ
نەهێنا
مێژووییەکان
کەرکوکەوە
سەرەتایەکی
قەرەتەپە
ژیاون
پەیڕەوکردنی
پێشانگایەکی
خۆشحاڵم
خاتوون
قاد
یر
شەڕەدا
نابوو
دەرەوەدا
بڕوانام
پرۆتۆک
حوکمڕانیی
شەتر
هه
دەگرم
تائ
ستان
نووسراوەی
بەوەدەکات
کوڕەکانی
ئەمنیەت
ئەرشیڤی
ساوی
ڕەشنووسی
بلاک
وڵاتانەدا
##لەگەڵ
لێسەند
پێداگریی
وەلاتی
چەوساندنەوە
دەلی
##کیل
بەهەزاران
هێرشانە
وازیان
سۆسیالیزم
دەگێڕێت
ڕاگیراوە
##ەکرێن
شتێکیان
خەباتێکی
گرێدانی
لەدایکبوونەکان
لێدوانەکانیان
دادەنرێ
##اڕێدا
پیکسێل
تۆڵەسەند
ناکرێن
شەراب
مەترسیداری
بەزۆرینەی
هەڕەشەو
بنەماڵەیەکی
ڕوانگەیەکی
پزیشکانی
چوونەژوورەوەدا
دەرن
ئامادەکردووە
##اپور
هاوکاریان
زمر
ۆم
##ەکەیشی
بەهرە
ئاوڕی
##اعە
##حیح
ڕێکخراوێک
ئاخوند
دەژیا
دزە
دەبێتەوەو
پزیشکان
##نشینە
لیر
خۆشتر
##دارەکانی
تەنێ
ئۆسترالیا
پۆلیسەوە
دورگەی
##جەواز
تائیفی
گەڕاونەتەوە
دابوون
پیاوەی
دەوڵەتان
ئیرنا
هاوولات
ڕۆناڵد
ماهی
##مەکان
ناوچانەدا
سادەیی
##فرانس
هۆنی
گەز
مامەند
دەخوڵق
دزێو
##ەدێ
سیام
هەوڵدانی
ئیمڕۆ
لەوەیە
هۆکارەکەشی
میاندو
هەبوایە
خستەوە
پەیوەندیدارەکاندا
زەرەرمەند
سورە
هاوکارییان
ناخۆشە
گەلاوێژی
چانسی
##وگ
##ۆزێتەوە
بەوان
خوێندەوار
لاوازکردنی
شەریک
قەسر
##ڵەت
کوێوە
ناوەکان
هۆیە
تەکفیر
پێویستییەکانی
حەیران
پزیشکەکان
خاوێنکردنیان
شەپۆلێکی
ئەورووپای
##لال
##هەڵنە
مامەڵەکردنی
زێو
##زەکان
##اکسیۆنی
پۆشی
تەکنەلۆژیای
زیندووە
لەسیاسەتی
بدلیس
##ۆڵف
ڕیسو
دەزگایە
عوسمانییەکان
هەڵکش
شانۆکار
پەرداخ
سوننەت
##پارێزێت
کەرکوکیش
ڕومادی
بەبآ
##ۆچکەی
سەوزایی
##ەریش
##سینی
ملیون
سەرەتایەک
لەجێب
جنسی
جولەمێرگ
سەرکە
بەشدارانی
فەزا
دەستپێکردووە
دناڤ
ساڵێکدا
##ۆزنەوە
ڕاپۆرتێکدا
##هێنیت
ڕاوەد
کۆیلایەتی
وادا
لەناخی
مەبە
سوننەی
دەبووایە
بنووسین
پەلاماردانی
تەکنۆلۆژیا
ببەخشێت
ناتر
ودەر
ڕەقی
سەردەست
##ێیەکی
نەبەست
کەمدەر
فڕۆکەوان
ئەفسەرە
بەچەندین
وێنەکانت
نەژادی
بخەین
بەرکەوتووە
##بگرێت
ئاشکراو
هەڵوێستیان
سووتان
دانراون
بڕبڕ
##وریە
کریستی
##اباما
پاراد
پەیرەو
سیاسەتەی
مەیل
داخراوە
بنەڕەت
کەرەسەی
لڤین
ژوان
ییە
حکومڕانی
شێوەیەش
##گەورە
پێناسەیەکی
هاوئاهەنگی
کێری
##رار
##اکا
سەرۆککۆماری
دانپێدان
شێع
##ایانەی
##پەرەست
وشەکانی
پرتەق
نوسرە
گورزی
وابێ
ڕکێفی
##ێسا
دەرەت
لەباتی
دەسپێک
بنەمایەک
نامەیە
کردوەتەوە
لەژمارەی
کۆمپانیایەک
هەنگاونان
باوکیان
هەنوک
بخرێت
بخرێنە
##چم
هەڵقوڵ
##ێریت
پارتیش
ئاڵۆزە
غور
مرۆڤیش
ئاشووری
ئەلک
گۆڕیوە
الپ
سوپایەکی
ناڕاز
ئۆتۆمبێلێک
ناکۆکییەکان
کوێستانی
بح
دەگەیەنێ
##دەچێ
داوەت
دەمرێت
یادگار
گرێبەستێکی
بەرنامەیەک
شکستیان
ئاوەدانەکانی
##شتنە
##ۆزە
##ەوەرێکی
عەدالەتی
وەفدەکە
شۆپ
بەرابەر
بەسەرکەوت
موکری
گەڕەکەکانی
خوشکە
فیداکاری
هاوەن
##دارێتی
گرنگترە
سەماع
کەڵەش
المس
ئاینیی
پێکدەهێنن
لێپێچینەوە
لەبودجەی
لێکراو
ڕادەگەیەنین
خەتای
دۆڕاندن
دادگاییکردنی
خواو
پڕن
کوڕم
فەرمانڕەوا
تاه
بەساڵا
فەرمیەکان
سعودییە
تێدەکۆش
گۆڕینەوەی
دابێ
عەبباسی
ئیبراهیمۆڤیچ
نۆرەی
واو
##لز
##دەکا
کاریگەرە
سیمینار
هەڕەم
##پێوی
لەوانەشە
نەجم
فراکسیۆنەکانی
ڕۆبەرت
بەرنامەکان
پاڵەپەست
بڕیاردانی
ستانداردی
بەستراوە
کوردستانیی
بەدرۆ
پرسەکە
لێبکەن
کوردپرێس
بکرایە
دواجاریش
مانگێکە
موشەک
فاش
کاه
سەرلە
ڤیستی
لەشفرۆشی
بابەتەی
سونقوڕ
نەوەد
پەرەسەندن
ئۆلۆمپی
##ێنراون
ئەوڕ
ناکەنەوە
##حکومەت
جابیر
دروستبوو
مەحمودی
بورژ
شەریعەت
مۆرینیۆ
دەخوازین
ڕەواندز
کامیرۆن
ئاشکراشیکرد
لیۆنیل
##کة
ئەگەرێکی
##هاتەی
ئاواش
گوناە
##ۆلیک
کۆبونەوەیەکی
فۆلکلۆر
ساتەوەخت
مارە
وەج
##اوەوە
##ەشەو
ڕێکخراوانە
کەڵەکە
لەکاروباری
تەلی
درێژەدا
سزاکانی
حەمەڕەش
پەیداکردنی
دەرەنجامەکانی
شوێندا
ماوەت
تەمووز
ڕووداوانەی
ئەسکەندەری
بۆچوونێکی
واژۆی
مێردی
##احیەی
بێشکچی
درۆزن
ژانی
هەڵوەست
پێنوس
##کوژن
ناڕەو
براوەکانی
##دەق
بەباشترین
دارێژ
شێخانی
ناڤین
وەرنەگرتووە
خیر
عاق
ڕادەیە
بنووسن
پێتوایە
ئۆرگانەکانی
سەرکۆمار
##ەنێ
برۆک
##ەکەتدا
شەرعیەت
کۆششی
##ابا
چیمان
هەواڵەی
هەوڵم
سازاندنی
گەشتیاریی
##ۆفی
##ێچی
کەمایەتی
میللەتانی
تآ
نایەن
##ومێد
##ۆتای
باوکت
تیرۆرستان
ڕوداوەکە
پلەوپ
حتی
##اکەت
سوپاو
دەستپێکردنەوەی
داگیرکراو
سەعاتێک
میوزیکی
##خانەدا
خولەی
ڕەزای
هەڵسوڕاوی
##اژی
##کەنەوە
دەنگدانەوەی
ئازادییەکان
چەپکە
گیەڵان
توخمە
ڕونیکردەوە
کوالێتی
وەق
ئاگادارن
مۆرینۆ
ڤایرۆسی
حامید
الذ
تێکەڵاوی
هەمومان
پاڵەوانیتیە
ومن
توخمی
پڕۆسەکە
دەبو
گوێت
بێتاق
بەهەردوو
چەواشە
ئینسانەکان
پێکانی
سەبری
خراپەکانی
سالە
ڕەوتێکی
جزیرە
تەلەڤزیۆنی
لاقی
##عد
گۆری
بچم
ئەرتەش
تیروپشکی
##داڵ
کارەوە
بەکال
قانع
چالاکێکی
عەبدولخالق
وابزانم
کەپێشتر
ڕۆژهەلآتی
ناعەدالەتی
##ورێت
بەکارەکانی
سلبی
باوەڕمان
نۆژەنکردنەوەی
جەلی
بەرتیل
بکاو
باسێک
گەمارۆکانی
دانوستانکاری
ژوو
##مەتر
پیتاندنی
ڕسول
بەئاوێنەنیوزی
##بەڵ
کۆکن
براز
نیگەرانە
عەبدولحەمید
ڕۆژێکیان
هەموومانە
ڕابردووشدا
پڕۆژەیەک
توێژەرانی
ئەمجارەی
بەناوبانگترین
##ارەسەرکردنی
بەڕوو
دروستکراو
دڵدار
دەیخو
نامێنێتەوە
ڕاگەیەندراوێکی
پێشووتری
##چاک
بۆنەوە
دەناسی
داز
##گاکەی
کۆدەکاتەوە
بەوجۆرە
جیاجیای
دامەزراوەیەکی
شایەتحاڵ
کرو
داهاتووش
تۆمەتباری
سروشتییەکانی
ئیعدامی
##وەن
جیاوازییەک
وەفاداری
خانەقی
خۆڕاگریی
پردێ
لەئەمریکا
حەد
##ەخوازی
پەیوەندیکردن
نامەکە
گریمانەی
بوختان
بڕگەکانی
هال
هەرەشەی
پێوانە
سەیرێکی
##مۆس
دەسوڕ
ئاسنی
ڕاپۆرتەکان
پرۆژەکان
سەفەوی
ئارەزوی
سەلماندی
نمونەیەکی
##وەڕۆ
دیدە
کێشان
دەزانیت
هەقە
##وسیا
لەقەزای
حاڵەتدا
مەسیحییەت
دەفەرموو
##گەران
زەردە
##بوەوە
بشێو
مەزار
##مْ
برایان
ئۆکراین
##اریزم
نەخۆشییەکی
تەقەکردن
مارتن
قوتابخانەیەکی
دەفەرموێ
ندە
##شیر
##ووبی
پێدەدات
سازکرا
ملیۆنێک
وپێش
##اتێک
تەواوە
کەنیس
##تای
##ەرێک
زانستێکی
جێگیرکردنی
جێرمان
هێش
مێژویی
دانش
قوروە
خاس
##ۆڕە
ناشەر
ژیرانە
بۆکسە
بەوی
##تۆر
##ەشنە
بەهەنگ
ناوو
لەئای
دانیشتنێکی
پەیوەستن
بکوژن
ویر
ڤیان
##ارستان
دوەمی
ڕۆژو
پەروین
قۆناغێک
تاوانانە
سزادان
کۆمۆنیستەکان
لەپاڵەوان
##تز
##لیش
##گوزاریی
فیلمەکەی
ڕەگەزپەرستی
ماندێلا
##ئامێز
##ُر
##ێکەی
بەستەڵ
هێزەکانیان
##دەولەتی
زەردەخەن
نوسراوی
باڵوێزخانەی
هەمەجۆر
نیعمەت
قین
##بڵی
کوردیە
لەگشت
باسەکە
قوتابخانەو
وانەکانی
##کەون
بەرهەمەکانیان
ئاگام
کیتی
لەقەی
جلال
ئارشیفی
بەوەز
پاریز
پێبدەن
ڕێوڕەسمە
نەخۆشخانەکانی
##ەفەری
ناهێڵێت
پێبدات
لەزیندان
##گەرانی
تورکە
دارستانی
بەدەستەوەیە
هەڵدەستێت
پەشێو
ڕین
یوون
نەبیست
ئەزانن
وردتر
فیلمێک
دەڕەخس
پەهلەوی
تێیاندا
##اندنێ
قوربانیدان
پێشکەوتنە
زەهاو
بأ
پرۆژەیەک
ڕوبەڕ
ڤیا
کۆنگرێسی
ئۆتۆمبێلە
گەرمو
نالین
ڕێڤەبەر
شیمیایی
##اڵەکان
دەستخۆش
بڕگەکان
باریک
ئێلی
##نەکەوتنی
خەلافەت
##ەبەست
زۆرجاریش
ڕەزەلوو
بزووتنەوەیە
تەه
##َب
##الیە
لەمساڵدا
لەڕێ
##کریە
الط
چەقبەست
بخواز
کردبوون
هیتر
##ەکەمەوە
پێشمەرگەوە
زێرین
ەتی
لەناوچوون
داهاتێکی
دایکبوون
پارێزگاریکردن
تارا
##داب
##ابة
دواییانە
کراوەکان
##گراون
ناوێک
تاکتیکی
سەربازگەی
##ناکات
چەکدارانە
پێکردوە
مەولان
بخوێننەوە
دیکتاتۆرەکان
گەوهەر
کۆنسێرتی
دوری
پێکانەوە
ئاور
تۆوە
گەشبین
خستبێت
فیلمەکان
سێهەمین
هەولێریش
##تایی
هاوکارییە
بندەست
کەوتبووە
زێدەی
بێئاگ
بویە
کەئەمەش
ساری
چێرم
کەچەند
##اڵینی
دەمرن
پێویستن
موجاهید
دیزاینێکی
ڕەزەلووشنەکانی
مانگرتوو
سەدەیەک
کەڵە
لاپتۆ
ێن
##جو
##ئان
سەرگەرمی
##اشم
هەڵویستی
سێگۆش
شوێنەکە
ئەفغانی
ساڕ
چێندراو
##امێکی
##کردوون
بەرهەمەکان
بنەماڵەیی
فەرموویەتی
پابەندبوونی
باوەجانی
لەفەرمان
وست
ئەسی
##ەخشە
ژوورێ
شاهین
ڕفاندن
ڕەهەندێکی
دەردەبڕن
عەج
چێک
یشدا
هەریم
بیرۆکەیە
خرانە
شاو
ئەرەست
تەمەنم
لاوازیی
ڕیشە
بەهیوای
ڕێڤەبەریا
مۆنی
بەهادین
ئاسۆیی
چاوپێکەوتنێکی
وردەکارییەکانی
بەینی
نیگەرانن
ئێڵ
کەوە
کەمەر
بەکارنە
بۆیەکەم
##دیس
شیعی
ڕۆژنامەنووسە
وناو
##سف
##تیا
چوارشەممەی
##بکەوێت
کۆڕێکی
دەرسی
##گایەک
درەختی
ساڵیش
کاندیدەکان
ڕیزبەند
نەتەوەیەکگرتوەکان
ڕێنووسی
هۆزان
سەج
وانیە
ڕەزبەر
بارزانیی
جیاوازتر
هاوسەرگیریی
لەخۆپیشاند
لەهەمانکاتیشدا
بغداد
ابراهیم
زەکەری
کەع
نێوەندی
درێژەیان
بازاڕە
کۆمەڵایەتییەوە
##چیت
##وردی
ڕۆمانسی
ڕەوشێکی
پیسبوونی
دادپەروەریی
شەبەک
ڕوت
تاکڕەو
نەدەزانی
ژینگەو
لێکۆلینەوە
نایب
##دیۆم
هەوار
##جیۆ
تێکڕا
پرۆلیتاری
براکانی
شەونم
نێری
کۆرد
##ەشقی
بچەسپ
ساڵەو
جاروبار
پرسیارەکان
ەست
##ۆڤی
##ئاڵ
##ێڵێت
سینان
هیواو
ناکۆکییە
ماڵپەڕە
فاکتەرە
بەسەرۆکایەتیی
میاندواو
وتارەکە
ئەمنییەتی
زاخو
بەیاننامەکەی
بکوژانی
بەلیستی
کەپێویستە
پێبکرێت
سوپەری
ڕێزمانی
شیان
##تەن
ڕۆژئاواو
خەلکێ
جەزا
سانتیاگۆ
هەڵخەڵەت
بەرزنجەیی
بەبوونی
مافەکان
لەئیست
پرشنگ
کەشوهەوای
وابەست
فابری
وئەم
گوتبووی
دنیایە
بەبەرنامەیەک
لەتوانای
هۆلیوود
ئپ
تەت
##نەوەو
##گیراو
ناپاکی
دەکەوتە
##نگی
مۆلی
سپۆن
خزمەتگوزارییە
بگێڕێت
پیاوسالاری
وون
چەوسانەوە
کادیری
##گیردرێت
سەماعەیەکی
##مەو
دەستداوە
جیۆپ
پێشمەرگەیە
ناحیە
کەنیسەی
هابرماس
##ێریی
پەڕینەوە
ڕێزدار
بانکەکان
بەعسدا
##نداڵی
وابووە
یۆتۆبۆری
بایە
گای
##نێک
##قیە
کونت
##نەوەیە
سوتان
شەشەمین
کاریگەریەکی
بەدواداچون
زامنی
تێگەیشتنە
تڕ
ڕوەوە
سامەڕ
ڕەفس
یەکسانە
دەنی
##خوان
وتراوە
پیاس
##وبێت
تاوانبارە
##ەکەشم
ناتوانیت
دکت
کۆنکرێت
دەداتێ
داخوازیی
دەرەبەگ
بگریت
یغ
##هەوێت
گۆڕاندا
لەهۆک
نەدان
پەیدابوونی
##دەهێنن
نەتوانێ
خەسڵەت
نۆکیا
موسی
سیاسیان
ڕیگەی
##ەیتەوە
کارتۆنی
هونەرییە
بەڕێزە
قەرەباڵغی
لەبارەگای
چاند
ببم
تێکەل
بەڕێوەبەرێتی
سەرلێشێو
پۆی
گاردی
##گال
##مێر
هەڵویست
ڕاستییەی
شەپۆلە
دروشمە
فیلمەدا
لەبان
دەخوارد
گۆشەنی
لیڤەرپول
نەکەم
هەنە
ڕەگەزنامەی
نیشانداوە
ڕەحمەت
پەڕلەمانی
یەکجارەکی
##گناتی
ئاگایان
فشارێکی
##عون
کوالی
الغ
سیاسییان
مندالان
دۆستەکانی
ولاتەکەی
موجاهی
ئەلجەز
بڵاوکراوەی
ڕاوەستاوە
تەمومژ
لإ
بەئی
کوین
بەڵگەیەک
شارەکەدا
قەیسەر
هەڤاڵان
##اتیکان
نابی
وەزیرەکان
قیامەت
لەحاڵەتی
نەڵ
##گون
بەشەڕ
##کوردی
لەئەف
چەندینجار
##وپێکی
تێپەڕین
بەهاوکاریی
کەلەپووری
##هوە
دیدو
بڕوانین
ئەلئ
چەکێکی
نابینم
وبێ
##ەناسی
بەنرخی
نوسیوە
ببەسترێت
حەڕ
نگی
مانایەک
داڕمانی
لەناوەندی
##ولەی
ئەوەشمان
##فراندۆم
کریە
ڕیکۆرد
##کانە
##اتدا
##انەیش
بازیان
لەڕابردوودا
تێروت
##بەد
ڕۆژئاڤ
برژ
وەهاب
چیمەنت
عەبدولواحید
##ادەکات
کارکردنیان
##کول
هەولێرە
ناردنەوەی
بلیمەت
عائ
بەردەکەوێت
دەمزانی
شەقامە
قەتڵ
بۆکسەش
سکایپ
##ڤار
سویسری
دوودڵ
بەرەبەرە
ڕاگە
الشی
بەرپرسایەتی
دەقەکە
دادەنرێن
دەنووسم
کارمەندان
هەڤپەی
هیلاری
مروڤ
##گب
##چنی
بەرەسمی
تیمە
ئامادەم
دەستگیرکرا
ترسنۆک
##ەناوی
##ریتی
بەرا
ئابووریدا
کۆنەپەرستی
بەڕیز
بڵاودەکرێتەوە
ستە
چێوەی
ژەم
##دۆنی
##راوەکەی
بەکاربەر
پاسپۆرت
مەرگەس
بەروبوو
تس
ڕۆیی
##گەڕێ
عیراقییە
ئەمەریکاوە
لەبەیانی
نەوتدا
سەرپێچ
هەمووشی
هۆیەکانی
ئەلێکس
لەڕێک
تەمەنێکی
دیدێکی
کازاخستان
فڕی
##کرێ
##فۆرم
لەوآ
ناشت
جیاوازەکاندا
بلۆکی
میسردا
گات
ئەوس
##اسەر
گوجار
##افر
نوێخوازی
نەبووین
پارچەیەکی
سێدارەدان
کابرایەکی
چیلسی
بەدڵی
کوڕەکە
خراونەتە
##خواردنی
##خانەکەی
سنوورییەکانی
##ئەمین
شەفافیەت
اش
کێی
##وایی
لیس
تاکەی
زۆریشی
فرێد
کاسبک
قەدری
##ەزۆری
##جیریا
زەید
زبان
پەم
بنێرێت
ئۆف
لەشان
مێل
##ەبای
##ەبون
گرانەوە
زانکۆیە
بەزین
بەرێزان
##اکراد
نوخبەی
پیلانگێڕ
ژار
##پۆرتی
##وورەی
دژبەرانی
هزرو
سەردەمان
مەنج
سوارێز
دڵەڕاوکێی
مومکین
نەکەوێتە
هەرچەشنە
فڕۆکەوانی
کورسیی
نۆیەم
پادشا
هاوپ
بڵاوبۆتەوە
برایەکی
سیندی
نازان
پێگەیشتوو
خەتاب
نالەبار
هەڵاواردن
##کش
##نیادا
وڵاتێکدا
بیانەوێت
سیمایەکی
ڕەخنەیەکی
ڕائید
##تاب
##زۆر
##اتیا
هەرچییەک
##ووسینی
دایکانی
دەرماڵەی
##جل
##ۆڵەی
خزمەتگوزارییەکانی
پایسک
مۆڵەتنامەی
ئیمانی
##رائیل
ئاودا
بەخۆدا
##ەبینی
کۆمپیوتەری
##ێکخراوی
جادە
##پێت
ڕێبەریی
ئاسمانەوە
نۆزدە
پاڵەوانێتییە
مانیان
ویش
##پین
##زادی
زیانە
بابەک
ڕاگەیاندنەوە
نزیکتر
نەخۆشەکە
گوتارێکی
##اراستنی
دەڕوانن
##اکەرەوەی
ئیسڕائیل
لەجۆر
بەڵگەیە
شێوەزاری
دروستکردوە
لێکتراز
نزیکەکانی
نزیکبوونەوە
کومەڵ
ناهەق
میتۆد
ناوەکانیان
هەوڵانە
کەوتنەوە
دەچووە
پارتەکان
ستیڤان
ئەشق
ببرێت
##کەرکوکی
##ەلەسەر
بنووسێت
پەرتوک
جێهێشتووە
دزەی
##عة
تائەو
##ەیەکم
دەداو
عەرەبییە
سودێکی
دابڕاو
دەهاتنە
لەکۆمەڵگەی
زیو
ڕاگەیاندبوو
عەرەبدا
نەبووبێت
نازدار
خستبووە
ڕەخنەگرانی
ڕێنماییەکان
سەرنجڕاک
لێڵ
لەبارەیەوە
خاوێنی
هەسارەی
ئۆنلاین
نەزاهە
تێکی
##بوان
وردو
دانیشتنە
ئیعتی
چواردەوری
کارەکانمان
##ێنەرە
شەهرام
هاوئاهەنگ
فلمێ
زەنج
##ووێژ
هەڵبژاردەکەی
نەدەین
فەلوجە
کرێکارە
داواکارییە
پاکستانی
بلۆک
چاڤ
دەڕوانی
مزگەوتەکان
سمینار
##مانیە
##دەداتەوە
دەبینرێ
گرێدراوی
کۆنفڕانسی
ئیفلیج
الان
پێنجوێنی
گرتۆتە
مەکۆی
زەرور
فۆرمێکی
ڕەحمانی
##ابون
##ویەک
لەناخ
ڕوویانداوە
##ۆچونی
مێه
گوللەی
سەرزەن
ساڵانێکە
ڕێوە
##ئاخ
کەهەم
سەرخۆش
گەرووی
##گنی
##ێوڕەس
شەڕکردن
##کارت
یەس
##لیزی
##ۆزان
باشکردنی
ڕاپەڕینە
چاوەڕوانیی
خەلیفەی
ڕۆژهەلآت
ڕۆژگارە
گوجاراتی
ئێت
سکۆل
##ُن
ڕابگەیەنێت
##ڤیس
فەتوای
نابینن
ئامادەبووانی
حو
##بەرا
حکومییەکان
وەدەستهێنانی
##اسیۆنە
شوێنەکەی
هەرجۆرە
دەبەنە
هەواڵگریی
باسکرد
بەختیاری
کارتێکی
ئارامیی
هەرەسی
ڕەتیکردەوە
خوڵقاندنی
ژەنیاری
حەڵاڵ
##إت
خوێنە
میکانیزمێک
میدیاک
ئەتوانین
هەوڵیداوە
ململانێکانی
گرفتێک
ئەکادیم
الا
بینیووە
کلیس
بەداخێکی
##چیلۆتی
تازەپێگەیشتوو
##ارس
##وورین
یارییەکەدا
موسل
گەنجانە
مشتومڕی
##ڕەی
##هۆڤ
بووینە
دوع
##نامەنووس
موسەوی
بەئاراستەی
سەردانیان
قاچاغ
چنین
هەرەشە
هەواڵیی
دیاریکرا
نەیهێشت
خەباتیان
میوانداریی
زانکۆک
مژدەی
پوختەی
زانیارەکانی
شوێنکەوت
چەلەبی
بوومە
دواکەوتن
پێکهاتوو
دەڕژ
مەنز
جەرگەی
کإ
گرافی
##ەوییەکان
دەرگاکانی
سیسی
##کردنەکە
ڕۆژنامەنووسیدا
پۆتانەکان
خۆتی
لەپڕۆژ
بگەڕێن
تەقاندەوە
تیۆریی
هل
چاوانی
ڕادەیەی
سڕینەوە
عادی
##پرێس
دووانە
بدەمەوە
لێدەکرد
خۆماڵ
تێدایەو
دادەنیش
ملوان
ئەفسەرانی
کۆلیست
لاریجانی
فێمینی
##گێ
لەکاب
##تەدی
بازنە
زەروور
وەردەگرین
بەیاننامەکەدا
هەموی
##افیر
حیزبیدێم
مەزەندە
لێکۆڵینەوەکانی
لەژیاندا
ئەتوانن
ڕەمەزاندا
##اسێ
میوەی
ئاوها
##ەجوان
هەژاریی
گەمارۆکان
بیابانی
خەفەت
بەره
##ۆندی
لەودا
بەسێ
حەمام
##ۆپۆتامی
دانوستانەکان
یەخەی
##گایی
ڕۆز
##ۆند
ماناو
درز
ماڵیان
باڵە
بەجۆرێکی
جەزیرە
گام
##کەنە
شیوە
تێدابێت
ڕەخنەگری
کیمیای
وازهێنانی
دابڕێنراوەکان
مانەوەیان
پێکرا
ئێمەیش
لەجیهانی
بەپێویست
شیرکەتی
ئس
دکتات
گین
دیلان
ناتەند
چارەسەریان
دوورودرێژ
نکوڵی
کوێیە
بەرای
خوێندنگەی
پابەندە
باڵەکایەتی
دوولایەن
پێشەوای
خۆێند
بەستراوەتەوە
الاو
لەهون
بەدامەز
دەڕۆم
ناسیۆنالیستی
##ەونی
بەتی
##ەڵڵا
دووای
وێنەکێش
گوتارە
مرۆڤایەتیدا
##سەلام
بەشدارە
پێکب
ببووە
یارمەتیدەری
تێدەگات
کەسایەتییەکانی
شەراکەتی
ئیدان
میم
##انییەکی
لەپەیوەند
خۆجێیی
##وح
##خەم
##بژاردنی
سەردێڕی
جڤاتی
پرەنسیپ
پێکبهێنرێت
ئاریان
##اتو
##ینەکان
هەرەش
فەرمانگەکانی
دەخرێنە
خوێندندا
عاب
##تەرە
کەلەلایەن
بەیانەی
##ەخشێت
زلهێزەکان
شرۆڤەی
حەڤدەی
##بڕینی
##ایمی
کەخۆی
سەرەو
ڕژیمە
ڕوخاندنی
ئوبون
هاتنەوە
لەئاماد
لەناویاندا
سالارکەرکوکی
نەهێڵن
##کردنەوەیەکی
فایق
تێدەگەین
ڕاشیگەیاندووە
دبلۆم
خستبێتیە
##ەکەب
##ستیە
کاندیدە
پشکداری
لەبەرژەوەندیی
الشر
سۆلاڤ
دووسەد
شیکردنەوە
ژوورەکە
نیزامییەکانی
سەکۆی
دەگەیەنن
هاتو
تۆل
پێویستییەک
بەشداربوونی
هونەرییەکان
قەڵەوی
لەخەڵک
داریوش
باژێرێ
کاپتنی
گۆڕدراوەکە
##جن
##ەندەر
لەگە
دەربەدەر
##کرانەوە
سوئێد
موزایەدەی
##ووکەی
تایبەتەکانی
ئاستەکانی
زەردی
پاڵپشتیی
حکوومەتێکی
نرخاند
بچوکترین
واست
##پس
ڕواە
بەجێدە
اص
بۆگەن
دەکرآ
##ەدرێت
نزیکبوویەوە
بەڕێزانە
هاوڵاتییەکی
بردوو
ژاک
دەرکردن
دەبۆوە
##رۆشی
##ومێدی
بڕیارەکان
ئەزانم
بهێنم
ڕادەگەیەنن
تیرۆریستەکان
ڕەنجی
الکُردیە
تێش
##اوز
دیسپ
##کۆلە
بڕیارمان
کۆڵەکەی
وابەستەی
##رینگ
دەچین
سەرسەختی
نمی
##ۆیا
پێشەک
فرۆکەی
کۆمەلگای
ڕوانسەر
لوبن
هێماگر
ڕازین
پێوەرەکانی
دەسکەوتەکانی
##ْی
##ەیا
##دیک
دوگم
ناگرن
ناگەڕێتەوە
هەژارو
بەقۆن
پێغەمبەران
پاشەکەوتی
شۆڕشگێڕانە
جد
خس
##فەتی
دەگەین
تێبەر
نەچێ
تەکنۆلۆجی
الْم
##هور
نەکرێن
فەرمانەکانی
ئەلعیراق
خێزانەکان
پڕۆژەیاس
سەرەتاییەکەیەوە
قورئاندا
هەنگاریا
قاسمی
اند
هەڵکردنی
ڕەنگەکان
کامکار
کۆڵکە
بەکاربهێنێت
لانە
##ستۆی
کەرو
سەدو
ملوێن
ڕووبەڕووبوونەوە
بگێڕن
عەبدولموت
##ۆتۆم
قەزاکە
ئەستێرەکانی
ئەهری
##لەکەی
##ەنای
##ۆسکی
نەمس
تێڕوانینە
تیرۆریستیی
گورجستان
##حەد
سیخ
##قیق
ئێراقدا
حەوش
##هینانی
##کُمْ
نەبووایە
سنوورێک
دەشێو
بەناوبانگەکانی
بوژانەوەی
ڕێوی
ێر
##هێز
##اسێت
گۆتی
بڕیارنامەکانی
فێرخواز
هۆکارەکان
سنورە
لەڕۆژانی
بەرنامەداڕێژی
گەڕامەوە
ببەستن
دادپەروەرانە
حورمەتی
یاق
دەربری
کارەباو
لەئێستاوە
پرۆگرامێکی
لەکۆنگرەی
نەرمەکاڵا
##ارەو
دوادا
لەهەل
##یتەی
##بوونەتەوە
کۆتاییهات
ئەنادۆڵ
هەوڵانەی
چارەسەرێک
بەجوانی
ڕابردووە
نەفی
ڕێکاری
##ەلیب
سوریاش
دێمۆکڕ
خێزانێک
دنیابینی
هپ
کوردییەکاندا
دوایە
##ویژ
نێوەدا
تەوژمی
منداڵیان
جومعە
##زابی
بۆڕ
منداڵا
ڕاگەیەندراوی
تارادەیەک
بەرچاوە
ڕاپۆڕتی
پێگەو
دەکر
##گیرە
بەپاڵ
هەوڵمان
ئەلس
ڕەخنەگران
پێشبڕکێ
فاتمە
##کردەوەی
دووم
##ادیمی
بەمافی
دواڕۆژی
ناسرا
ئەزموونەکانی
##هێل
دیمی
##بایەخ
قەسری
مراد
پێزانینی
وهەڵ
##ۆئ
کارکردنە
گوێر
وتارەکەیدا
کەلەم
لێبوورد
##وپای
سوننەو
بێژەر
##برێت
##وبەری
دژبە
دیپۆرتی
##ەویی
هەڵدەو
##ۆنیەتی
ماریۆ
چنگی
خەرمانانی
##تاوی
##لید
نابەجێ
زیندە
##اقیع
دەکردم
مانگێکی
موسڵمانی
##فرۆشن
باشد
ناسکی
پلانەکانی
زاڵبوونی
هندەک
##گیران
بەئارەز
دابەشدەکرێت
وزەو
حەشیمەتی
فلیپ
ژنانیش
بەڕێوەیە
المع
ئەکتەرێکی
ئەتۆمیی
##ەوەوە
##ابات
کراوەو
پایەکانی
ناپاک
لەها
ڕووتی
کۆمەڵدا
دەتەوێ
بەکارهێنەرانەی
لەجۆری
پرنسیپی
پاوانی
لایەنەوە
کورمان
نەیاران
ژیار
هاوسۆزی
##نوسەری
##فەکانی
ئەوش
هەرد
لەسەرو
لەبەڕێوەبەر
پیلانە
تەقینەوەیەکی
ئینقلاب
ڕاگری
شێوەش
دەستگیرکرد
ئاگرکەوتنەوە
پەیمانگا
لیستەکانی
ڕەسەنایەتی
لەسی
پەرش
خۆشویست
دەیەم
حەزو
ڕاسپاردەی
بەنیازن
دەدۆزێتەوە
دڵڕەق
##ێنا
ئیستان
بەخەڵک
سلێمانییە
دانیشتووە
ئێچ
وەربگرێ
دابڕێژ
مخابن
ئول
تد
ڕێڕەو
الکردی
ئەرزگان
ڕاپەرینی
نارازی
سەرلەبەری
کاردانەوەیەکی
پیپ
دەستپێکردن
خاڵانە
ئۆرک
براکەم
میشێل
مێرگەسۆر
توت
##اداو
ئەمەشە
ڕوسیە
مەعریفەی
ئاوەها
دەسەلمێنێت
لەدەقی
حەسیچە
گۆرینی
ئازارە
کتێبەکان
کەوتی
ترسە
سەرمایەدار
ڕەنجدەر
بوێرانە
ونیکس
فێنک
ناق
##ێرۆ
##دەویست
نەخۆشییەکە
##ەکانیشمان
پەندی
##خێکی
دەکش
نەبوونە
هیچم
ئۆقر
لەپشتی
قورست
شکاوە
ئەبەد
بڕیاربوو
زەرەری
بەڕێوەبەریی
تایم
ڕیکخراوی
تیل
دەردەخەن
بەخۆم
پرسیارو
دەکێشێت
تەفسیری
مامناوەندی
لیم
نەخۆشە
پاراستووە
شەوێکی
حافز
بانەمەڕ
تشت
فەج
وادە
گژ
گەشی
##انسەری
##ارچ
کەپەی
##الانی
##ەخانەکانی
برەودان
حەمەڕەشید
عومان
##ەنز
##ێندرێتەوە
بەرپرسەی
مێگابایت
زۆرینەیان
قایمقام
دانوستانەکانی
گوزارشتی
یەزیدی
##ەکەتی
بەرزان
ڕۆسۆ
دەیانزانی
ئەتاتورک
شەوانی
ڕێکان
مەرد
هەڵبژێردراوەکان
کەموکورت
بومەلەرز
بنێرنەوە
##ردەبنەوە
بڵی
##زوو
##راج
شەروپێک
کۆبووەوە
بودجەو
ونبوو
ئۆکسی
##ریبی
##ابۆوە
زانراوە
بڕگەیەکی
بۆمباران
قەیرانەکە
ماڵوێرانی
##کێن
بووبن
دەزگاو
خێڵی
ووە
##ڵد
کۆچبەر
اڵام
##لیۆم
تیدا
حکومەتەکانی
بەئاس
سووتانی
تەختەی
دامەزراوەیی
ئارد
تاکڕەوی
دەمویست
حەوتەمین
هەتاکو
بخوێنەرەوە
ناحیەکانی
بودجەیەکی
گەورەکە
ئەنچیلۆتی
دەهێنێتەوە
دەردەچن
سیاسەتمەدارانی
بلا
##زایی
بەردو
سیاسیانەی
ئەلاباما
سامسۆن
نەریتێکی
دێنێتەوە
ڕاکردنی
##چییەکان
هەوایەکی
عەرەبیش
سعید
##ێج
##اوێک
خەڵکیدا
دەچمە
نائازاد
بەرجەستەی
##سوک
##ەرەبی
لەگوند
نەچووە
شتێکدا
خۆشییەوە
خزمەتکاری
سەربازییە
مەشرو
دووکەڵ
##پیان
##ویز
حکومەتا
بنەماو
وجود
بەئەزموون
خواه
مامۆستایە
ڕۆژئاواییەکان
داواکارم
ئاکامە
ڕەگەزە
یۆنانییەکان
زەبر
داواکارییەکانیان
بەجیاوازی
داهێنانە
جادوو
جەڵتەی
سەرکار
ئارسن
##نجا
##فیک
گروپەکانی
نەرمەو
ڕەجایی
دووبز
کرێت
##ۆرانی
پێشم
##وکرات
سەندنەوەی
بیکاتە
الکورد
جیهانیەکان
ژێرز
##گەیەنم
سۆزو
ئەفسانەیی
سوپەر
کاتانەدا
سووتاندنی
ڕەزامەند
زایۆنیی
دێولان
ساع
مُ
ماملێ
هێڵەکانی
هۆزەکانی
هەلبژارد
حیکایەتی
سێپتەمبەر
لاک
##ەچ
دابەشکراوە
هەلبەست
نفوزی
ئارەق
بەکالۆری
سڕی
نەفت
سەرنوسەری
##زیکەی
دڵنیابوون
جندی
گلۆ
لەدەورو
##گەرە
زیا
هاتونەتە
نرخە
بەکاردەهێنێت
نەخوێندەواری
هاوسن
بیانیی
بەکاردە
ببمە
دەچینە
##ۆڤۆ
ئەستێرەیەکی
دادگاو
سەربەستیی
وەبی
##ەکری
کەسەیە
ئەرژەنتین
پیشانگ
ئاژانسەکانی
فیکریی
چەرخی
پاڵەوانێتییەکە
##دادان
ڕێخ
برام
ئیسلامییەوە
دنیایەکی
زانستیانە
هاوبەشدا
دەخوێنێتەوە
گەشتێکی
چڕتر
زەحمەتکێشان
تاقیکردنەوەکانی
لەکۆتای
بێچ
تاکسی
توانراوە
سەرماوەزی
لۆری
##بس
لەتو
نیچە
بنزی
ستۆدی
بڕیاریاندا
گەنجەکان
ئوتریش
پڕوپاگەندە
لەدەسەڵاتی
ئیسراییل
زاخ
هەیان
کردەیی
دانەبڕ
##ارانەوە
پیرباڵ
تەقەمەن
ڕوسیاو
##سۆفت
ماندوبوونێکی
زری
یووس
##ێندرێ
کەوتۆتەوە
عەرەبەکانی
شکستخوارد
گەریلای
ڕەهەندەکانی
ڕێپێوانی
دەستکردی
عاتی
ژبەر
دامودەزگای
##ەنێت
بەردین
دانەمەز
هەواڵانەی
میوانانی
پەرتەواز
کێر
##َع
##ەدەبی
داهاتە
کارلێک
لەدڵی
بەیەکتر
نییەبەڵ
##ُونَ
دەنوێنێ
ۆرک
##تەکانی
کورە
تریلیۆن
سەرەڕۆیی
پانزە
##بووەو
عەبدی
کەوتوو
حیزبدا
ڕژانە
شێروانە
بەمجۆر
خزمەتکار
پەیامەکان
مەبەستێک
سەڵاحەددین
ئەلعێراقیە
پرین
خۆشترین
کەسانەش
##وتم
پێڕەوی
هیوایەی
ئاسانکاریی
تۆپبارانی
لێوەردە
تۆکم
ەکە
هەڵگر
درایە
ئۆخ
لەکاتژمێر
قاز
##بەل
بەردەوامبوون
خەیات
نرخێک
ئەندازیاریی
بوخاری
ساس
نارە
ەوەی
بیز
هونەرمەندێک
قەیسەری
چینەکانی
ڕێزلێنانی
دەیسەلم
کەسدا
عێراقیە
بەڕەگەز
مەرزی
تەیار
سەرسوڕهێنەر
نڤ
##کور
یەکدەنگی
یاریدەدەر
ڕێگاوبان
##اپەرستی
ئەلبوومی
لەوەدەکات
پێشمەرگەیەک
کەتێیدا
بەرمیلێک
##باوەڕ
##قەل
##ەراو
هاوینە
کێشایەوە
ناکام
نەخۆشیەکانی
فەرماندەیەکی
هیلاک
##اودا
##اڵان
هەرەزۆری
شکستە
چارەکی
سەلامی
دەگەڕێنێتەوە
کێشمەکێش
تالەبانی
لەزیندانی
وەلآمی
گۆڕدراوە
بەتێک
کامپی
ڕۆمانەکانی
ماکس
پێبەخشرا
هاوڵاتیەکی
خەمبار
ئۆسکاری
بەرجەستەکردنی
ڤاتیکان
کارایی
##اژەی
شانازییە
توانیی
قاڵبی
##ێزەی
گەورەن
کاربەدەستان
فەزایەکی
ئەنتەرمیلان
جۆزەردانی
دانەوێڵە
ئەنجامدەرانی
##وسان
حیزبانە
کەیسە
لەپڕۆسەی
شڤان
##بەیەکی
##خانەوە
یەکدەنگ
خۆمی
جەمشید
ئەفەندی
ئامرازە
ماندووبوونی
##وال
##ینۆ
##کرێن
پێویستم
بەیەکجاری
چەوسانەوەی
بونیان
أر
##ەداوە
داهێنەری
##گەهێن
##دود
هەردووکی
بەندکراوی
چاوەڕوانکراو
وێرانکردنی
##باتی
##خۆن
##ْد
بەربەرەکان
پاڵنەر
کەوتونەتە
بداتێ
خەونێکی
سەرمایەداریی
##ێنرێن
##اغە
لەدەز
ماوەکەی
پێشانگایە
فەڵەستین
غیابی
##گوو
یەکگرتنەوە
داراییەوە
جەهەن
ئەستەمبوڵ
سەرمایەگوزاری
بەڵا
نوح
کەسمان
ئەرستۆ
داعشە
بەئەندا
هاوڕێم
ئەوروپایی
بەگۆڕ
پەنجەکانی
لاپەرە
زۆرباش
کەمیان
بەئەم
پەلەوەر
دڕندەیی
##گمەن
##ەتوو
##ێرەکان
بوویە
دەرکرا
خەڵکەی
ئەلبانی
لەشدا
سەربازییەوە
دەستگیرکردن
گرووپەکە
لەدانیشتن
##ەتەو
##یرۆک
ئیمزاکردنی
شاب
ترسێکی
کردووین
خوڕەم
بەرێژەی
یارییەک
مۆمی
ئەمرۆش
دایکبوونی
پێداگر
خاکەکەی
هەرەوە
##ەریەک
لەکەدار
ئایینییەکان
جەژنە
دانیشتنەکەی
تاسەر
کۆنتڕۆڵکردنی
##میز
هەمووتان
ئەنجامەی
بەناوبانگە
ئەنتەرنێت
نهۆمی
لەئەوروپا
##شتوانی
مەنووچ
ئایدیۆلۆژ
##ئاراوە
##وانانی
بچکۆل
سنوردار
##لف
##اوێز
ئەوکە
کاترین
##ەبەرایەتی
گەرمەی
بەزوویی
پێدەچێ
وەرنەگرت
تەنگی
جیاوازییەکانی
دەگونج
سینەماکانی
وەستاندنی
گیا
خوێنیان
کاڵای
خەتەنەکردنی
لەچاوپێکەوتن
ڤیر
##اوەیەک
بەرهە
نوسر
بەهات
ئاسامی
لەڕاستی
گومانم
دەردەبڕێت
ودەست
□□
##طی
دەستەبەری
ڕوودا
چاوان
##دەکرێ
نەگوت
##انییەکەی
##انیشەوە
تێگەیشتنێکی
دەخول
ببیتە
ڤلادی
##ویەکی
دەلێن
عرو
پوش
##پژ
لەمنداڵ
ئوردنی
بانکە
نادیاری
بەحوکمی
تەختە
کەدەب
سەرۆکە
خستەروو
یاساییەکان
گاڵتەجاڕ
هۆرمۆنی
##ێهر
کەدەبێت
کاتانەی
پیشاندا
ئاساییشی
هاوبەشەکان
دادگاکانی
ناوکەیی
فەرموودەی
##ڵام
##ۆرەی
##ستاندا
تەمەنە
میرنشینە
لاوازبوونی
دەستنیشانیکرد
نیگارکێش
##مت
گەورەمان
نەخۆشەکان
زەردەخ
لۆکاڵی
ئەرزیڕۆم
لەسیستمی
هەتاهەتایی
بەساڵاچوو
##ڤەری
##ەتیە
لەگفتوگ
##دانا
پەناهی
نادەم
##ۆلۆژیا
مۆرکرد
براون
لەیان
کاش
##لەمی
##انەوەو
دەرخەری
##پیک
گرنگترینیان
دڵتەنگ
گەردون
ستیڤن
نامیلک
لەململان
لەئەر
ئەبێتەوە
مەریەم
دەخوێنن
##لینا
ماق
چما
ژلک
##ێیتەوە
##کردنەی
باشن
اڵی
##کەیەکی
دواوەی
##وانێ
سونی
ببڕێت
##نیشدا
دوورخستەوە
##سیون
گرنگیەکی
المست
ڕاڤەی
تاپۆ
##ەهەڵ
ماڵان
دنیاوە
ڕەزبەری
خەمس
هەشتەمین
لەبەردەستدا
دەجوڵ
ئاوارەیی
بة
غوڵ
پاوەند
##دیری
بێتوو
هەڵبژێرێت
ژنانەوە
کەوەک
یاسایانەی
ئاوڕێک
بەرهەڵستی
جیای
کەسیر
سوف
تووندی
بۆلی
##شترە
لایێ
بازاڕەوە
لەسیاسەت
ڕەقەکاڵا
##وویەک
ناتەواو
ئەوروپاوە
نەسیر
زەمینەیەکی
ئەوکەسانەی
داگیری
پێشگیری
لیو
فایلی
وایکردوە
تەنگژەی
گەڕانەوەیان
دیراس
مانچستەریۆن
##ویس
##وکار
دانەوە
بینەرانی
کەنەدی
ئاییندەی
مێردین
چەوسێنەر
سۆشیالیستی
نۆزدەهەم
هەڵگرتن
پڕۆسەیە
دۆخەدا
العرب
نابینێت
دەبەخشێ
تراژیدیای
##ڤانیا
##ێیان
##ئەنجامی
##ەنجە
عەبدولڕ
تابڵ
مەراسیمەکە
نەیاندەتوانی
خاسی
شێتی
بارام
دانیش
حیزبوڵ
ململانێکان
ئاینییەکان
دەنگدانیان
مانیف
لەئەستۆی
تارانی
قبل
دووق
مانگرت
بارسێل
ناکرێتەوە
ناوبردنی
دهێتە
پشتیوانیکردنی
کردەیەکی
وڵاتەکان
ژیاننامە
فیق
گەرمە
بەیروت
گریانی
سەنگەرەکانی
هەردوکیان
کاسبکار
قەیرانەی
##بآ
سەرنشین
ئاسۆیەکی
بباتە
لێبکەوێتەوە
یاساییان
ناردوویانە
دۆزیەوە
یەکتردەبنەوە
شەکەت
جەنگاو
بێبەری
##سیت
لەبەردەوامی
داڕشتووە
ئەنجامبدەن
دەید
خەراپ
##موکراتی
پادشای
هێژا
##غەر
##کیدا
ئەنجامێک
کوڕێک
تاوانانەی
ملیۆنەها
پانۆر
دیپلۆماس
زەکەریا
سەمی
قەم
لەکە
##بەکان
##ژنەی
لەسەردەم
زیندوویی
مەسیحیەکان
فەیلەسوفی
هاتووەو
وهەروەها
تامەزرۆی
کیانی
##مەنە
ئاشی
باغی
دابەشبوون
حکوومەتەکەی
نوسەران
هێڕش
زازاکی
ۆی
##ەبکەن
دروستبکەن
##گرنگی
##خووری
##ستار
شاراوەی
مرۆڤانەی
نەگری
##وزە
وەزیرو
دەخەمە
تۆمارکراو
##ەکانمدا
تێڕوانی
ڕۆژنامەوانان
هەزارەها
##ییەتە
##شتەکانی
##کەوتووە
بەسترا
یارییان
بەسەرۆکی
داهاتووشدا
خۆشەویستەکەی
هاوکاتە
هێزەکانمان
شتێکم
دادگاوە
جەباری
هاوردەکردنی
تێڕوانینێکی
کەرکووکی
علم
بۆردوو
کارەکەیان
وتوێژی
شێوەکان
بەمشێوەی
##اخە
هەڵکشانی
دێس
ماردین
##گاتە
##ەبەڕێز
بەسەرکردنەوەی
مەرگە
داوایەی
##ەلاحی
نەهاتوو
بگوترێ
پولی
بوابة
ئەڵێم
کەرکوکە
حقوق
لەباکووری
ئارشیف
##ەلیک
بەرزیان
وتووێژەکان
نەدیوە
##ەکایەوە
لەست
لایەنەکەی
لەپارتی
##پەیمانی
دێه
تیرۆرست
گرفتەکە
بەڕێگەی
دڵداری
ڕوست
بەئازادی
تێپەڕاند
چەپەکان
##ەدەرەوەی
بەهرەی
ڕاستەقینەیە
دوپاتی
##ەوردە
##دانیان
ئاودێری
شینی
ماڵەکە
سنج
تەرکیز
ڕیزبەندیی
بالەی
بەدوایدا
ئەتوانێت
##نن
##الیستە
الدو
منداڵەکەت
بینراو
تاوانکاری
ڕووبەروی
سەرکەوتوویی
ئینجیل
لووتی
کوردۆساید
یانەیەک
چاکەی
حەسەکە
گوتویەتی
هۆشداریی
هژا
کگم
##ەسوور
لەنووسین
بەولاوە
یاسان
ڕوویەکی
##بارین
توێژینەوەیە
بگە
زێی
ڵات
##ڵاتە
##ازار
##ۆڕشی
ئاشکراب
ناچارن
بزوتنەوەیە
گۆشەگیر
##ڕنەوە
##ێنس
ڕۆشتنی
پەڕت
##بوور
نەتەنیا
گیرف
دەرگاکە
ئویخووری
##کێت
##امۆ
سەراو
سوڕی
دروستدەبێت
مامۆستایەک
تاوانەکە
سەلامەت
کۆڵۆنی
ئیختی
لەمجۆرە
ترلیۆن
کراسی
ئەنجامبدات
##یتەوە
##ێنرێ
جەماوەرە
حەرامە
دەگوێز
داوێن
ئەندامەکەی
زەینەب
ژێرین
کاروچ
وەرگرانی
##ئاوت
##گوش
##خانەیەکی
سەیریان
تەرخانکردنی
بوژاندنەوەی
##وڕان
بلند
کۆڵەکە
زیادیکردووە
لقەکانی
پاشماوەکانی
ئاشنای
کوفر
##وندوتیژی
نیشتمانە
بابەتەدا
دواییەدا
بەگشتیی
ناچێ
ئاخاف
میلیون
ڕووناکبیران
هێورکردنەوەی
ئابڵوق
نۆت
##چۆن
##هُمْ
##ابووری
##گیل
ئەوەدان
##دەرە
بەیاسا
جێبەجێکاری
بازاڕو
گەلەکۆم
دەرهێنەرە
بگوازێتەوە
##کرێتەوە
##ڵێ
زارەکی
جگەلەوەش
##گسۆن
##قەتی
ڕۆژیش
ڕێگرە
شوێنەدا
عەقڵیەتی
کایەکانی
ناودەبرێت
جێناکۆکەکان
خەیی
##ڕاستی
##فرین
ئەوەدایە
بەڕێوەدەچێ
سەکری
بجوڵ
##دەکردەوە
چونکوو
دامرک
مۆبایلە
ڕاوچی
کۆنترۆل
هاوتەریب
ساڕێژ
##ێندا
##ەندێک
دەستکەوتنی
ڕاگرتن
تۆب
مندال
بەدبەختی
گۆڤارێکی
لەکەرتی
دەردەسەری
دوکاند
##ابر
هاتبووە
پیاوەکان
چاکترین
بەقازانجی
قامش
لیبرال
هاککرا
دانەی
ئەوجار
وەرگەڕ
دروستبوون
نمر
ئێوار
##سکلۆپی
نیشانەیەکی
دروشمەکانی
مووشەک
##تەرناتیڤی
کاریکاتێر
##ۆرێت
ناودێر
##یانەیە
ژنەکان
شەڕێک
بردوە
جیاجیاکاندا
وادەز
ئوتێل
فوتساڵی
کەرامەت
ئارێز
لەئێمە
ئازادن
هێچ
کافکا
قەوارەیەکی
بۆشاییە
بەڵگەوە
دەسووڕ
هێناوەو
بەسەختی
دەستگیرکراوە
مایکرۆسۆفت
توندوتۆڵ
داڤید
##هێنانە
##ەهەم
ئاڵتون
##ەوانان
بگوترێت
بزوتنەوەیەکی
پێداویستیی
إِل
##یەکە
کەهیچ
##ێنتە
کەسێکیان
وشەو
وەرگێر
دەپارێزن
دەرمانە
دەستنووس
دەستیکرد
تریشدا
گوناح
حوکمڕان
گوماناوی
ئاهەنگەکە
اڵاول
کۆرس
هەڵوە
ترێ
جیهانگیری
##ییەکیان
نەسرین
نێرگز
بێهۆش
مانچستەرسیتی
ئۆپەراسیۆنەکانی
باتمان
تەخ
قاب
##ەنسا
##ریخ
هیچمان
شکڵ
ئاشکرابوو
سۆڤێت
دەستپێبکات
لادا
##چر
ئامریک
بەکارهاتووە
سینگی
خودێ
کەبەش
##وگرافی
پرسیاریان
مەبدە
ژوورێکی
دیدارێکدا
دیکتاتۆریەت
یەڵدا
بابم
حیزبەوە
کۆلێجی
حاشاهەڵنە
سیی
یدا
##غیر
بەرەب
ڕاپێچی
ڕەنگین
دەژیت
نمایشک
ڕەواندزی
بێسەروشوێن
دێڵ
##اناک
دارەکان
ڕێزگرتنی
ولاتێکی
چۆمانی
رە
غر
چاندی
##گشتی
لێدەکەین
نووسەرێک
ئاگاداربوون
موسڵمانەکان
بسەپێنێت
دەستبەکاربوونی
دازانن
بووکە
مەزنەکان
لیبراڵی
جەماعەتی
لّ
ڕوە
گێچ
##دەیی
##چیە
##ڵم
دواو
نێوەر
داوایە
لەبەرەی
هەنگئاوت
پەلەی
عەمار
دێموکڕات
بێژی
یەق
##لن
پێزانین
یەکەمەوە
ناگەڕ
ڕێزان
هەڵکەوتوو
##هێڵی
بگەیەننە
شوکری
زاد
وەختە
بەزم
##دیکە
##رۆیی
دەدایەوە
بیرێکی
گوندو
سولەیمانی
##ەبەڕێزەکان
##اا
پێکنە
نێردەی
##ساتی
لەموسڵ
##هاتەکانی
نووست
دیپلۆمات
ناگونجێت
سووپای
کۆکردۆتەوە
لەوەو
ئازارێکی
##اهیری
بەئاگا
پشتیوانیکردن
ئۆرۆ
لینگ
قالب
یەعقوب
##بێژە
##ێون
ساڵەوە
ماڵەکان
##ێردرێ
تۆمارکردن
گفتوگۆیەک
دەبوونەوە
پاشتر
##ِینَ
پریمەرلیگ
##دایەوە
##سێکی
##ێنران
یەکبوون
##الت
##اللە
پارلمان
سوێدی
بخوێنێت
نوێبوونەوە
بەئەندام
تەکان
ڕخ
##ازو
دووە
##ۆڕا
تاوەکوو
سەرکەوتووە
بیناس
ئیجرائ
دەعوە
کوردەو
لەوجۆرە
خۆمە
درشت
لیمۆ
لەپۆست
##بکرێ
دەقەکانی
کۆبوونەتەوە
##کەکە
کۆڕە
دەستدانی
##ەییدا
دروستبکەینەوە
جیاوازو
ئامادەگی
سۆزداری
دادگاکان
وەرگێڕی
دۆڕان
نامیق
دەگوزەرێت
ڕێر
##نم
ناواز
ناومان
هیزە
دەول
تەموز
بتەق
ڕێزمان
هۆکارێکە
مەریوانی
نەشتەرگەریی
کەرنەڤاڵی
##ێنێتە
##ێوەندی
لەوکاتەوە
بزان
پیویستە
هەڵبژاردەکە
##وکراتی
دەخەم
ماراد
تاقانە
عەشای
خانەوادە
یەزدانی
کما
هەڵدانی
ڕوونکردنەو
وشکە
لێبڕ
سەلاحەددین
دووبارەکردنەوەی
وەیە
دەباتەوە
بەپشتیوانی
پێودان
کۆمەڵگاکانی
سەلیمی
فەخری
عیزەدین
لەگرنگ
دووان
بەڵێند
دەسگیر
ئۆجەل
سەرمایەداران
دەکۆڵ
ببەین
پێڕا
تایفە
##فور
##إک
##ِم
تشرین
توێژێکی
عیزەت
بەرپەرچدانەوەی
بۆب
دوگ
دابووە
تەماتە
پێگەیشتووە
چەکیان
دابمەزرێت
خورشید
کۆدەنگ
لانووسەر
ئەنیمێ
دەوەستێت
یابان
سەرکێش
نەبۆتە
دڵتەز
ڕێوڕەسمەدا
سوودان
قوربانییەکان
بگێڕێتەوە
##سۆز
##بة
زۆرترە
کەسێکدا
ڕێبەندانی
گومانە
ڕۆیشتووە
بانیازین
پاییزی
خستۆتەڕوو
ئارشیفەکەمان
##حەتی
زیارەت
دروستکراون
مێژووییەکانی
##ێویست
داڕێژراوە
وجودی
نەجیبە
ئیمرالی
گەه
##ەبری
##ۆسە
کاروبار
درێژخایەنی
دەشار
زانستییەکانی
خەباتگێڕ
مامەڵەیەکی
##ۆپۆز
کونسوڵخانەی
بۆک
بکەر
دیبە
دەبەین
عارەبی
پێشهاتەکانی
دیگر
لەسەرانسەری
بەشەری
هەمیشەی
دەسەڵاتەی
سەورە
وێرانی
پێنووس
نەخست
نەمێنێ
شێوازەی
##دەسەڵاتی
سروشتیی
مەقامی
##شادی
باسەکەی
دەمەق
مادەیەکی
نەوتییەکان
لێرەش
ڕاکێشاوە
ڕێکەوتنێکی
ئم
##لووی
##ابووم
ڕاچ
ژماری
پێداچون
داواکاریەکانی
نێودەوڵەتییە
زەیتی
مۆدێلێکی
ڕواندز
دروستدەکرێت
چاککردنەوەی
بەهەماهەنگی
غەریبی
لێکۆلینەوەی
ەری
##ینت
لەسەرکرد
کاتەش
##گەیەنێتە
پێشمەرگەدا
زیندانەکان
##ەدەرەوە
نەریمان
هەناسەیەکی
بەجێهێشتووە
تێم
شێک
دەلال
ڕحا
لانووسەرەبەڕێزەکان
تێزی
سستی
غول
یع
##هار
##ْب
ناوماڵ
##بووندا
خاوەنەکانیان
شێوەیەیە
هۆبەی
قبوڵکردنی
نەخۆشخانەیەکی
هندی
ڕب
##ەکاتی
##ەڵەت
دینامی
تایمی
بڕیاردەری
لەزانکۆ
لەخولەکی
##ەکن
ناهاو
دڵێکی
##پانیای
بەرزەکانی
موسلمان
بارینی
ئەرشیفی
حوسەین
بژیت
##ۆدۆر
فۆ
یشی
##گەکاندا
ئەگەڕ
دورە
کەوتنەوەی
شکاندن
کەون
یاسایانە
زەحمەتی
خیزان
حاش
##قد
##ەنام
یاساوە
ڕابگەیەنن
مەحەمەد
لەناوخۆ
دەنووسی
شارستانیەت
کولی
تێکب
نەهامەت
##ییەکدا
سکال
سربیا
ئامادەبوان
جگەلە
سەرۆکوەزیران
پلاندانانی
سەوا
ناج
بەنزینی
بابەتەکەی
خۆپێشاندەران
ئۆکسجین
سایکس
دەستن
وڵاتەیە
##مەرگەی
جێبەجی
بەدیلی
شاعیرو
##عراق
چووین
ئاکامەکانی
بۆخۆم
لة
وإ
##ەیاڵ
گۆڕانەوە
وتووێژە
ئەنسار
بگەڕێنێتەوە
ناوچەیەی
ڕازیکردنی
کورتەیەک
پەسەندکرا
ئەحزابی
ئەکتەرەکانی
دوورکەوتنەوەی
کوردستانێکی
سینی
دەبێتەهۆی
سرودی
##نەتەوەیی
شارۆچکەکان
پەیمانگاکان
دەگوازرێتەوە
ڤیزای
کوردم
هیزی
ترشی
بەڕێوبەر
دەنگدەری
جەماڵ
گەڤەر
گوندێک
ئیسماعیلی
پەسندکردنی
دراوسێکانی
خەزەڵوەری
ئەژم
هێشتووە
خێرخواز
کولتووریی
کۆچبەری
مەخابن
بەمانایەکی
نەخوێندەوار
لەئەگەری
##ەنق
##ەلەو
بەشانی
##یزم
دەبینرێن
خۆپیشاندانیان
مەلاکان
بخوێنن
وێژەی
یکی
بەربەر
لەهەمو
سکرتاریەتی
مامناوەند
گرۆ
ماناکانی
تاوانێک
##ڕاگرتنی
هەمەلایەنەی
نێونەتەوەییەکان
##دانەی
##بەخۆ
مانج
بەرپرسن
سالآ
نەنووس
تەماشاکردنی
بەریتانیاو
ڕەنگاوڕەنگ
لوڕستان
##ەکۆن
##ردام
دورو
##هێنانەوەی
ئۆرد
پۆلێک
زمانەوە
داکوت
سەندووە
##زەیەک
##ارەیەک
نەوتەوە
چلۆن
ناسیونالیزمی
زگماکی
##سوار
کەدەت
خۆدا
پەیجی
##ەبەرچاو
عەبدولسەلام
وەیسی
ناگونج
بەکاربردنەکە
دکەن
پیتە
بەبار
ئاراستەکردنی
بخوڵق
پێشوازییەکی
ئایەتوڵڵا
وەزیفەی
ەند
الز
کردندا
پیاوانەی
دابەشکرا
نەفرەتی
##ُواْ
##ئەدات
##ەکارانی
##ەکیم
دوانە
هەڵهات
خوێندا
هۆنگ
ڕەچەڵەک
##نەکرد
##طر
##ستێ
بکڕێت
داگرتنی
##هێنرێت
ناگات
دەترسم
مانچستێر
حەڤدە
حەک
شەوت
هەوری
باشەکانی
شەڕانگ
##ێنەرانی
یاخۆ
هونەرەجوان
بپارێزێ
حەمەدۆک
پیلانگێڕی
شەیدای
ئن
##ورای
##ەخانەکان
هاوڕی
لەروی
پەکخستنی
قەناعەتی
شانۆنام
لێوەی
##عام
##ەنینی
ویت
ئەمنیەتییەکانی
بەیەکێتی
دەستبەسەردا
پیلانێکی
دون
##اکرا
سەلج
سالاری
کابینە
مناڵانی
نرخەکان
پێوەندییان
دووز
لەیاس
ئوپ
بەدواداچونی
خەندەق
بەفرانبار
ەکی
دەیڤید
لەخەباتی
ۆرتەکە
شکا
پاق
##ەوەت
##ستێت
داش
لەسەروبەندی
زۆریی
لایەنگران
موسلمین
بەدبەخت
بەرگریکار
ڕێکخستنە
ماتۆڕ
فۆکۆ
تەد
فانت
ڕات
##لۆی
##ییر
بۆئەوە
دەستنیش
پەیوەندیم
سێشەممەی
##سەوە
##ادۆ
ئیسرای
لێز
خاڵەی
دامەزراندووە
بەدەگمەن
کەجەکە
دەڵیت
هاوکاتیش
فابریگاس
##دانیە
چیاکان
جێگۆڕ
هەڕەشەیان
گفتوگۆکردنی
ڕێککەوتنەکە
گەنمی
دەرچوانی
بەڵێنیان
ڕایدەگەیەنن
سیحری
تب
سەین
چلەی
##فاقی
ئاشق
لەلایەنە
ئەساس
دەوڵەتانە
دەقێک
حاڵێکدایە
جەماوەرو
لەچاوەڕوانی
بەرامبەریان
##زێی
دواییانەدا
قاسملو
پسپۆڕان
سۆڤییەت
مەئموور
صالح
کُرد
##ەیک
سەرکاری
کلۆر
دەستووریی
ندا
##برین
هەڵگورد
##وکم
تۆژ
سەدری
بگەڕێمەوە
داراییەکانی
نووسەرەکەی
یادگ
ڕێکەوتنێک
بشکێنێت
بەنموونە
عەڕەب
ئەملاو
یەکریزی
دەرە
بارست
کێشانەوەی
سەرچنار
سازانی
ناشیرینی
دێڕە
غەمگین
وەلاتێ
##سەکردنی
هەرێمەدا
هەڵبگرێت
لەپرسی
زماندا
بردۆتەوە
شکانی
پێوەیە
سنورەکەی
تابلۆیەکی
فەوزی
عوبەی
##دارد
کارامە
فەرزاد
الام
ئاگرین
لەڕادەب
پڕۆژەکەی
پێویستییان
کوژراوی
ڕێزم
نەکردەوە
فارسیی
گولەن
##چکی
پێووی
##ەکەینەوە
##اسیۆم
لەگەڵمان
لەوەف
زامدار
فراکسیۆنەکان
تەجرو
ئانی
##تماع
الکرد
ڕاگەیاندو
خۆشبەختی
بردۆتە
نەیەت
لێنا
تێکشکانی
ئوبونتو
جه
حەوان
وەهەر
ڕەوانسەر
نێردراوی
قوست
داپڵ
موستە
پرسەو
تاقەتی
دیپۆرت
خۆئامادەکردن
جێک
##چەکە
هەوڵێکە
سەربەخۆکان
کوژراوەکان
عیباد
نێرین
دەستەواژە
بێنم
زیاترین
##پاردە
بەڕێوەبرد
نارنج
ویلایەتەکانی
بسەلمێنێت
##بەرەی
ناوخۆدا
هەڵبژێردراوە
لەکۆبونەوەی
حل
##ووتە
سەرکێشی
سەرۆکێکی
کەشتییە
کوێتی
هاوری
بێهی
دڵمان
هانای
یەکێتییەوە
خۆکوشتنی
مڕ
چوک
##بێری
دادا
سیاسیانە
ئامادەکر
بەرپاکردنی
ئاماژەش
هێرشەکان
قوتب
دەیانوت
زانستگای
دەگەڕێ
دەڕو
خوێندنەوەو
حسەین
پارتییە
لێکۆڵینەوەیان
شارەداری
بص
نەکە
منداڵییەوە
بەرپرسەکانی
هێرشەکە
نامەیەکدا
بخوێنەوە
پترۆ
پێڵاوی
دەرنا
##گینی
هیگو
پیپی
حوکوم
##دۆستی
لەخاکی
بنەڕەتییەکانی
پەیدابوو
ئەلیکس
میهرەبانی
ئەلعێراقییە
دووساڵ
جیاوازییەکان
توانستی
گیرفان
المت
هیوایەکی
گەوهەری
شەن
##وُ
##ژوو
دەستگیرد
کاردۆ
چاوچن
لەبەرز
دەیڤد
بەدین
چالاکییەکان
تیپەکانی
شۆڤینی
شدا
نێژ
پەکی
ڕج
##خل
##ئەک
ئاینە
ترن
لەکۆڵ
نابەج
نەمدەزانی
بارەگا
ئایدیۆلۆجی
لەئاکامی
ودو
##تسکی
پێشهاتە
چیمەن
بارت
موزی
ژیانت
پارێزگاریی
لەتاران
پزیشکە
ڕژێمێکی
زاڵبوون
گۆلکاری
میوانان
پسپۆرانی
##بادی
##نامەن
مۆناکۆ
زانستییەکان
زرار
ڤینۆس
حیجاب
##لیت
قەرس
لێرەشەوە
تێدەگەن
نێودەوڵەتییەکانی
شۆرشگێر
درێغی
بەکۆمەڵی
پاڵنەری
مم
دەپەڕ
##ەبار
خوەی
هەروەسا
مەزاری
لیژنەکان
هەنگاوانە
ڕوسیای
تیکاب
بەکە
معر
##چاوەی
کۆمەڵگەیەک
پەیکەرە
لەهەڵبژاردنەکانی
##زەو
ئەوانیان
هەراسان
تاگی
##رێسی
دەڵێیت
سیاسییەکەی
ڕۆشنبیرە
گورزێکی
فێستیڤاڵەکە
تێنەگەیشت
##اتیی
بەرەور
داشک
لەسەرۆکی
نوجەی
السل
دامەزراون
وەرزشکردن
دابینکراوە
وروژاندنی
دیمانەیەکی
ساند
ناهێنێت
تێکستە
نووستن
دەسەلاتە
گواستراوە
کۆچیان
ئاڵۆزییەکانی
ڕابکێشێت
لەڕیزی
##هۆڤن
ڵا
ئافەر
ستانی
##گانەی
ساڵێ
##الیب
وێنەکەی
ناکاتە
ناسینەوەی
باڵەکانی
گۆڕانکارییەک
لەهەفتەی
مەزنترین
نظ
ئەون
##ۆکسی
تایلەند
جومگە
گوێدانە
تایبەتییەکانی
لەناحیەی
ئەیوبی
فیرد
پلانێک
گۆڵە
سەودا
لەخۆگرتووە
پەروێز
لپ
بەڕێژەیەکی
تێچوونی
عیراقێ
ڤیکتۆر
واشنگ
ئەهواز
دڵسۆزانە
ماسوول
گرتووەتەوە
##بەخۆیی
بەژنان
لەخوێندن
میدالی
لەولاتانی
##بانە
##غر
دیتن
مورد
ئەسینا
تواناسازی
لەداو
جوتیارانی
سیحر
##اکانم
بەجین
پشێو
زیندانەوە
تێرۆریستی
حورمەت
بەوهۆیەوە
سیاست
باپیری
هەبیت
فیڕۆ
لەدەنگ
چاپکردنی
کۆچبەران
سێکسیی
##زانیاری
تەنز
شانسی
پەیوەندییەدا
وەهبی
دەگۆڕێ
دەخوازێ
ڕادەکێشێت
چادر
##تیژی
گوایا
##جیم
دلاوەر
ناسەقامگیری
زەڵ
##وەک
##جەل
##ونەتەوە
الله
داوەری
دژبەری
نووسرابوو
هەفتانەی
وشەکە
لەئایندەدا
##دێران
##چینی
هەوڵیاندا
ئەندامەتی
ئایدز
بنبڕکردنی
کند
بۆق
نیست
کارتۆن
بەرپرسیارێتیی
تەنگەژ
وشکانی
ڕێکدەخرێت
لەکابینەی
##بونە
الکت
ڕۆمانێکی
هاویندا
نوقم
فرانسوا
##ەهەواڵ
شرنەخ
اما
##بود
##زیش
هەمووانە
##بوویان
فێرکاریی
ڕویداوە
تورکمانەکان
لەرۆژئاوای
خارپێت
ڵک
کەلی
بۆردی
کوی
هەنوکە
شەهیدبوون
وەڵامدانەوە
پۆلێنکردنی
ناڕەحەتی
خاچی
ومەر
چووک
##فەت
پێشنیوەڕۆی
##کردنەوەدا
تەلەفونی
پەلامارە
ئینتیمای
داخوا
لەسەروو
نوێش
دڵۆپ
دیارکر
ئینگلیزەکان
ئۆغڵو
یاخوود
##ووج
ئۆفیس
پڕۆفیسۆر
مێژووەکەی
##کسۆن
##ۆکراسی
ڕۆحە
خەتەر
شازدە
شڕن
وآ
گلەی
##ەواز
کوردبوون
دەرم
هیگڵ
شێوەو
مەسەلەکانی
لەکارکێش
بمانەوێ
شەیدا
کەهاو
دووشەممەی
جارجار
بەغداش
شاعیرێک
بڕوخ
کوشندەی
غەدر
پێکەنینەوە
کونی
##شیا
ڕۆتین
ئێمەن
ئەنجامدەدەن
دەگونجێت
ئاراستەیەکی
##ائۆ
##جاڕی
پێشکەوتنەکانی
دەناڵێنێت
مێین
ێی
##وێی
عێراقێکی
ئامانجەکانیان
کڕیوە
زرێپۆش
فەقی
##کیی
##واس
بوەوە
خەسار
##ەمەرگ
بیخاتە
نۆڕ
##گس
##چەیەکی
ڕەوانی
فیستە
ڕویان
ئەلش
فرمانی
ڕۆژئاواوە
سازدەکرێت
گومانەوە
سادقی
بلاوکردنەوەی
دەدوێن
دەستاودەست
##زال
هەمووشیان
ئەرگ
دەدەیت
ئەنجامدەد
ئازادیە
کەڵکو
لەزمان
داقوق
سەروبەندی
کۆیان
ڕۆد
##روم
تەموزی
بڵاوبکرێتەوە
سرنج
بێوار
عەللاوی
هەورامانی
داخوازیەکانی
دێک
##پەرستان
هونەرێکی
ڕاوێژی
کۆڵبەری
کۆمەلگا
خەوش
لیستەکە
دەلێ
ڕوبەرو
وەختێ
شەکری
بشکێنن
ساتەدا
نێوەندەدا
##ڕدرێت
##ةی
جۆرێ
کانون
بەرهەمد
##ییانەیە
خۆرئاوایی
ماددەیە
##ۆکەکانی
سیوەی
ڕۆژانەیان
##بەرز
ناهێڵن
هەڕەشەیە
وەڵامەکەی
دیالێک
گۆڤارەکە
بەرشەلۆن
سادەترین
##ڤای
تینی
بەئەرکی
پێدێت
سەعدون
هەرزەکاری
زەقی
##هایم
##ەعات
ئەبەدی
برینداربوو
بایەخە
لێوەش
لەوەڵامدا
ابو
تایت
دەکری
##ەهی
ئۆست
ڕووبەرێکی
دەمامک
واشینگتۆن
فەجر
اگر
چوە
##عیە
##اتیڤ
##ترۆن
دەتو
گەواهی
عامری
ئەستەنبوڵ
سامسۆنگ
مێری
##نەم
##بۆن
##وونەوەی
##ەهید
بەرپرسەکان
ڕەنگێکی
##لێکەوت
بەپێچەوانەشەوە
نازناوەکە
واپ
##ێژووی
ئازادیدا
تەندروو
مەلەک
دەستکەوتەکان
تاقیکردنەوەکان
بگەرێتەوە
إلا
ەیە
پەروەری
کۆمەڵەو
بڵاوبونەوەی
بەباش
پێڕەو
پەتای
جوب
پووڵ
##شای
##ْک
##ْع
لەبی
##ەفە
ئەوەشە
دانرابوو
کۆنگرەیەدا
دایکیان
##داوەتەوە
بونیادنانی
خەش
##ڕەزا
##زەمان
پێشیان
لەبز
دەیگێڕ
کلیل
بگۆڕدرێت
بیرکردنەوەیە
لێهاتووی
لەکۆتایدا
##پاکی
##ەترە
منم
دەوڵەتەکانی
تێپەڕاندووە
بڕوایەی
حوسەینی
بیرۆکەیەکی
ناوت
هەڵەیەک
##دوڵڵا
بڵندی
نایەوێ
زینداندا
پڕۆسەیەکی
عالی
ژوئ
##راز
جۆرجیا
##اندنیان
نمرەی
ناسەر
لەکتێبی
دەستلەکارکێشانەوەی
##سەن
##ادیش
ڕابوو
تەکسی
بەشدارییەکی
سەگی
کۆمەلانی
عیسای
بکوژێت
ڕونکردنەوەیەک
هەڵکەندنی
سەینت
شڕناخ
##ێێ
##ەرزی
ئەمدوایی
##لیف
کۆلۆمبیا
وێستگە
پانتاییەکی
ڕەشیدی
شۆڕشگێری
##ەکراون
ناوازە
کۆمارە
دەبەخشن
باروود
داگیرکرد
دیندار
یەکترن
دێرسیم
میانڕەو
نینە
##چانی
##قار
##ْس
لەبوونی
##اسپ
##اییش
##ڕیوە
ساڵوە
هێمنانە
سەفەرە
کۆمەڵگاوە
زستاندا
ڕیتمی
گاری
گێم
##ساب
##ئاس
##اتن
##اندنێکی
دوێنێش
بەدرە
خۆرهەلاتی
ئامانجەکان
سیوەیلی
فاو
فلیم
قوژ
کنی
##مەش
##یشناڵ
گەڕاوە
##ۆتان
پۆلەدان
المج
کۆچبەرانی
بکێشێت
##انکاری
کۆمۆن
گەڕانی
کوردستانیشدا
##توس
دارای
سەدەیە
##اهیم
ئەفەری
کەشوهەو
دیمەنێک
لەکۆمەڵگای
خۆڕسک
##دڵ
##ووانی
پێبێت
##ۆشێت
وێناکردنی
کۆمەڵایەتیە
پەناه
هەژارەکان
داخرا
ئالای
ئایینەکان
دارستانەکانی
کانیان
بەرهەمەکەی
##ۆڤان
میللەتێکی
بۆچوونەی
سانا
##ماعیل
گومانیان
پاڕانەوە
پالەوانەکان
##ەڕۆیی
سێدارەی
ئامۆژگاریی
##قرە
کوروش
وتەکانیدا
تراکت
مەستی
بەجآ
دەگەیشتە
ناڕەحەت
گەد
##نەبوونی
##ەداین
بنبەست
ئایدیای
بگەڕێت
بەغد
هێرشدەکەنە
هاوپەیمانانی
گرینگتر
شۆخ
بیردۆز
وەزیف
##ناد
ڕەزایی
نەزانین
جێگیرە
ململانێیە
خەزن
هەڵەبجەدا
تائیستا
تایی
فەش
##گام
##کارەی
دانەر
یەکگرتووە
ئاژەڵە
مەترسیەوە
دووەمیشیان
بردنەوەیەکی
موهتەدی
ڕاپۆرتەکەدا
شارەزاو
هاوسەریی
خەیاڵە
تەشری
بناغە
ۆرتی
لاز
بەنە
##ەتیف
هەڵدانەوەی
ڕوویاندا
ئیسفەهان
بارگ
بەکارهاتوو
ئارسناڵ
بازنەیی
کامب
گەیشتمە
یاساییەکانی
دەستگیرکراو
شیکاریی
باسک
##وشەی
لیستەر
هەڵکشان
سوسیال
لەدانیشتنی
یۆس
##چا
##عین
دەبڕێت
بەڵگەو
تراز
##اهر
سوورەتی
بێدەر
قوربانییەکانی
کوور
بەرفر
##ەنیفە
ئەگەرەکانی
پەیوەندیەکان
لەدروست
##ڕاگەیاند
سەرکەوتووانە
دەژمێردرێت
بهاو
حوم
##سیونی
سوقر
ئازاردانی
بدەینە
##زانێت
بەلاڕێدا
برووس
موسوڵ
پەیوەندییانە
جیاوازیەکی
خۆتدا
جەستەیان
وەفایی
وەفدەکەی
یەکێتیە
ناودارەکانی
بپرسن
پەروەندەی
##ەنانەت
##نیۆم
بکڕن
هاتم
ڕابوون
بەبایەخ
##چوونێکی
ڕێککەوتوون
هندستان
سپێردرا
بەفەرمانی
##ڵز
ئەوها
##ەلسەف
هەرلەو
##اکات
##ەزل
دەستەجەم
پێشکە
بیستووە
خزمەتیان
هاوکارییەکی
یەکلاییکردنەوەی
ئیخوانەکان
دڤێت
پوتین
یم
یاران
##سەل
گەڵی
وشکی
گومانلێکراو
بگیرێ
##باح
بزوێنەری
لێخۆش
ئەوروپاش
تیرۆریستە
کریس
زۆربەمان
کەسایەتییەکان
قەدەری
##ئەستۆ
بەردەرکی
قۆڕ
##ارامی
نەبم
##ۆزا
##ەپەت
لەهەنگ
هەیمەن
سەرچاوەیان
هەموویانەوە
ڕقم
بەمانا
ئایدۆلۆژیای
کەتیایدا
لەپێکهێنانی
شەوێ
نایەوە
واسی
##یشەی
##دانێک
موف
توانیومانە
ڕاستگۆیانە
دەگا
گرتنەوەی
##گێڕان
پۆستەر
اسلامی
بەربژ
ئیزە
ڕووحی
بیستی
ژێرپۆلی
ولێر
ئۆپێر
ئیرادەیەکی
لامەرک
ئایدۆلۆژیا
نڤیسەر
زەبروزەنگ
فەرمانە
سەبر
نێوانمان
پێشکەشکرا
ئاخری
مۆدێلە
گووارانی
لەشارۆچکەی
لەشوێنێکی
##وێر
دەکە
هاوپشتی
لەبوارە
دڵخواز
دەخرێت
خۆپیشاندانێک
شیعرێک
پەککەوت
لێبووردنی
فیزیا
پەپوول
بێبەرامبەر
یاب
##ُول
هاواریان
کەوتمە
کۆڵانەکانی
بێکاران
سارتەر
نەخۆشخانەکان
یەهودی
##حقاقی
نەل
وپێک
##ێنەکانی
دروس
بدایە
دانێ
هەواڵگر
ئەوانن
##ێردرا
بڕیارماندا
هاوسەرگیر
نەزانێت
سیمبولی
ئوروپ
کەمپەین
گۆشەیەکی
کاغەزی
##ێتیە
ڕووەکی
لەهۆڵ
گۆرەپانی
پێشتری
فەرماندەکانی
مژار
هاوڕێکەی
ڕۆشەن
##ەننا
پێێ
دروستبکرێت
دووربخ
ساتێکی
بەقەدەر
فاشیست
بۆندەکەی
کورمانجی
جارەی
وتارەدا
نەکوژ
##اکانیش
لێرەدایە
هەزاری
ئیخوانی
جامعە
تادە
##سانە
##ةو
##الیزمە
کاژێر
##کەرێکی
کلیپی
تەلەفیزیۆن
زانایەکی
ئینسکلۆپی
حەسرەتی
##ەپێدانی
حەزدەکەم
هۆشیارکردنەوەی
دەپرسێت
آل
لوک
##ڕەش
##ردانی
پێیەوە
نامۆیی
نەماون
ناوبژیوانان
ئێزیدییەکان
مەودایەکی
کەپێک
ناوشار
پارا
وێنەهەواڵ
ڕاپۆرتەکانی
بانکەکانی
پەنابەرە
##بینێ
لەجێگای
ڕادەگرێت
دواکەوتوویی
پرەنسیپەکانی
نۆزدەی
نەکەیت
دەنگوباسی
##جیل
##یدایە
تیری
ژێرخان
تیپێکی
ڕازاوە
کومەل
دامەزرێنەرانی
ژێرپۆلەکان
لەکان
##پتی
##ەلاو
لەگەش
هەڵسو
لەخۆم
ئەنجامدراون
دابونەریتی
موجاهیدینی
##ەبین
##انەیەی
لەمەسەلەی
ڕووەشەوە
لەئێر
گرتەبەر
تایف
کریستۆف
خاکەلێوەی
عل
ئەچێت
باسکە
دەنگەکانیان
تازەو
ئاسمانییەکانی
جێناه
شارۆم
منداڵاندا
گیرس
ئەنفالدا
فیدڵ
بێڕێزی
جندیانی
##ێدین
ئایەتەکانی
مرۆییە
گروپەکە
داخران
خواستن
زەمانە
ئۆسلۆ
جومگەکانی
شوفێر
ڕەفسەنجانی
جاوی
کڕن
نەماوەو
بەرپرسیارەتی
بازرگانیکردن
پێداویستیە
دائەن
سیامەند
عەبدولموتەلیب
##زر
##تیڤی
نەستی
ڕیتم
ڕیپۆرت
##زەحمەت
##پارچەی
قەرەداخی
ئەزمونێکی
دەیخاتە
تۆتالیتاری
تێو
##نسیا
خۆیدایە
گوتمان
سیاسەتەکان
بگۆڕێ
دۆڕاو
بشارێتەوە
ئیلاهی
فازل
##وتانە
بەڕادەیەک
کەمدەکاتەوە
نەکەنەوە
تێل
پێناچێت
خەڵکێک
##شنبیر
لەشەقام
پارێزگاکەی
نۆبڵ
سەرەکین
##پارێزن
هۆڵەکانی
پشتگیریکردنی
بیلال
بارسێلۆنا
جآ
یاسایەی
ئەلبووم
ئاساییش
پرسیارم
لەمیدی
نوقمی
دادەبەزێت
ئۆپراسیۆنی
قیرتاو
لەکارە
##ۆڤەر
گۆڵەکەی
شێلگیر
ڕاگواستنی
##کرو
##وەندیی
کردبا
دیکەمان
فارسەکان
هەڵمەتەکانی
دەڕوانێتە
##ۆخێکی
پیانۆ
هەڤپەیڤین
أم
##بکە
##ِب
ئەخو
پیرەژ
پڕەنسی
نازری
میرنشین
##بژارد
لەسنوور
حیکمەتی
یوم
##ڤیت
داخی
لەگەلی
بلباو
هزار
میکانیکی
آنها
کەکورد
پێکهێنراوە
ملت
یەتی
##ەڕەم
دەرکراوە
##ێندراون
بەمرۆڤ
لەناوەوە
ڕوداوەکان
بودجەیە
نیکۆلای
دەستک
دەستێک
کەمەندی
هەنگاوانەی
بڕوانامە
لێپێچینەوەی
وژ
کەدو
ڕێیان
سوریایە
مەدرەس
بگەڕێین
ئیرانی
پووشپەڕی
مومارەسەی
تپ
دێب
کاڤ
کەسیی
ژنەی
شەهری
وەرگرتبوو
خێزانەکانیان
ڕۆبۆسکی
ووڵاتانی
بران
قومار
ساڵانێک
کوردستانیانی
بیرمەندی
ئەدرێت
بەدیدەکرێت
ئیدیعای
شووڕ
هاڵ
##ڤەی
دیتی
پەرتو
لێئ
تونێل
فراوانبوونی
لەخوار
حاڵەتەکانی
خاتەمی
فراوانە
عبدالرحمن
جیایی
کۆمەڵەیە
پڕدا
بفرۆشێت
ئیمکاناتی
لەوکاتەی
بریقەدار
بەخۆڕ
##ڤیلی
عوسمانیەکان
نیزامیی
پڕۆگرامسازی
هەتیو
بەرپەرچی
خوشکانی
ماددەیەکی
یاخیبوون
پێکدەهێنێت
جێبەجێبکرێت
دینە
کسی
کتی
ماڵەکانی
وەزیرانەوە
دەزانرێت
جواب
مەسەلەکان
جێگەیەکی
ئێرانیەکان
سەرەکییەکەی
بێدەنگیی
ئەکتەرەکان
ڕستەیە
موتڵە
جاڕنامەی
گفتوو
ڕۆستەمی
هەڵدەبژێرن
##دون
##زەم
##چێو
##ەخشین
پێشبر
شەڕەی
##داوای
لەجێگەی
دیوارە
نایک
##بینەوە
##ێنێکی
##شتا
کۆه
دوعای
##یانەو
گرەو
لەمافەکانی
بەسەرکردەوە
لەڕوود
هەیک
چەپەڵ
سیمۆن
لالیگا
جیادەکاتەوە
خاپوور
##بەخشی
##سەرای
دەستگیری
پێشە
پۆلێکی
بەدور
دیدارەکە
بوارەکان
ڕوونکردنەوەیەکی
ترسیان
هۆمەر
##تمان
دەبووم
بووندا
ژیانەوەی
باڵندەی
مەدە
##بینکردنی
##ناسیون
تابلۆکانی
##ڤاری
##نوسی
##خراو
دانایی
هەیبوو
نیوێک
گرفتانەی
لۆکاڵ
پرتوگالی
مەولانا
ڕێست
کوردستا
دەدرێتەوە
وەسەر
شەهیدەکان
دەگەڕا
##ووڵاتیان
##لآتی
##َد
##اسڵ
لەباشترین
پێکراو
هەواڵەکەی
##ەکەمانەوە
گرفتانە
ئەبووح
وەیا
شارستانییەتی
عەمەلیاتی
##روشمی
کوردپای
لەدەوروبەری
قاف
پەڵە
##ارسی
بریارد
بەعەرەب
تەرجەم
##گیردرێ
عامر
سەرحەد
پید
نەوج
باکگراون
ئاڵوگۆر
بەخوێنی
پۆشاک
نەویست
##گزی
هەڵسوو
خەمێکی
لاپەڕەیەکی
هەڵدەبژێرێت
ئـ
##ەندروستی
ئاروینی
هاوڵاتیەک
دەکەیتەوە
مەولوود
قابل
کوردستانم
ترکیا
ئاڵتونی
خواردنە
##ماوە
##یرا
##ڕیت
ئۆدی
نیشتمانییە
چاپەمەن
خستنەوەی
ئامادەیبوون
وەستاون
جگەرەکێشان
پاشنیوەڕۆی
هیگواین
##ڕۆیی
نابآ
نوجەیفی
ئاروینیاوا
دەگە
دەستووردا
ئاویان
تەنهایی
کاندا
جیهانیان
هاوسەرەکەم
حوکمەکەی
ئینگلستان
گێرەشێو
بنیاتنانەوەی
لەدادگای
لەجێبەجێکردنی
فاس
ڕد
پەلکێش
شێوازو
دەکێشا
تێدەپەڕێ
ژێردەستی
زیادەڕۆیی
ئاسودەیی
ڕێڤەبەرێ
##بەیەک
##ڵێن
ئەمەوی
کوردەی
##ورەی
##گەرەکانی
داننان
بەغدایە
دیاریکردووە
وەشانێکی
ئەڵمانیاو
هەشتاکان
سەرپەرشتیی
جەختیکردەوە
مولازم
یازدەی
##ەزاق
هەڵگرن
گوفت
لەدژ
ئافرەتدا
ئینتەرلیگ
کارمەندێکی
ڕەفعەت
نەکەوتووە
کابینەکەی
نایت
پشتەوەی
لەدۆخی
نەگەیشتووە
کوردنشینەکان
بگوێز
##اوییەکانی
بەشێ
##خوێنی
دادەند
باسەکانی
بەرێوبەری
گریمانە
بروای
جێهێشتنی
وێلز
بوەستێت
پڕوپاگەند
دابونەریت
هاودەر
گۆلێکی
نیکۆل
لەپای
ناسا
گیراوانی
##ڤانانی
هاتووین
##ەردی
ئەگو
کوردیەکانی
بەتاوانی
گریگۆری
خوشکەکەی
بەریتانیای
بەعسیەکان
سەلماندووە
##جەرگەی
لەئایند
جێژن
##ڤیز
##میت
سلێمانیەوە
دەیکاتە
##خوازەکانی
##بکەمەوە
ڕەوانەکردنی
بگۆڕین
سۆشیالیست
##ەکەداو
دروستکراوی
بیرخستنەوەی
##ووتنەوەی
دەرکەوتوە
هاوکارییەکانی
قڕکردنی
یاو
ڕۆحم
دوولایەنە
##یشان
بوڵ
لێکتر
نەدرا
زیندانییەکی
بەڕێوەبەرە
دەوڵەمەندەکان
ئیڤڵ
##ەکەمانی
سەرسن
##روشت
لەسەردان
ئەلەکت
##هەلات
زێدەتر
ئۆتۆمۆبیل
##قالی
##ۆران
##مانیان
##کێف
بواردا
نەیانهێشت
بڵاوکراوەکانی
هەلبژاردنی
دۆکیۆمێنت
خێوەت
ناوچەو
میسرییەکان
پشکدار
نیگەرانییە
مەملەک
تەعزیری
درکاند
کەرەستەکانی
گیروگرفتی
ووڵاتی
##وستی
پۆپ
چاوەکان
فڕۆکەخانە
دەنوێنێت
##فرانسی
خانەوادەکەی
لەفراکسیۆنی
ئۆی
گڵاو
دەرکەوێت
##ۆکدا
شۆڕشدا
هەفتەنامەی
بنیامین
جنێف
هەڵسەنگاند
زلهێزی
دەڤەرەکە
شارۆچکەکە
مرک
ویی
بەتەم
پەسەندکرد
میوانەکان
چەرخ
میکانیزمێکی
یەدەگی
نانە
مناڵە
تیئ
ئیرلەند
لێکۆڵینەوەیە
خۆڵەپەت
بازرگانانی
ساتەوەختی
مۆنتاژ
ئەهریمەن
خلی
##لة
کردەوەو
##ەدەکرێت
##روس
##وانا
##ویچ
بیکەی
دروستکەری
پرۆست
میلەت
گوللەب
لەکۆبون
قەرزەکانی
بژیم
گەوج
موفەق
پڕۆژانە
گەچ
ئۆرگان
گرانبەه
ڕادەبەدەر
ئۆبامای
سەفا
چێر
گز
##حت
کەپێش
##اڵیا
لەپۆلی
داهاتەکەی
تێکەڵکردنی
##قور
کردوویانە
بکری
ڕیو
##رەجی
موسلم
پاریزگ
مەجارستان
ڕیسوا
##گەکانیان
##جمە
##ەوانەی
##سیار
##اترە
موغ
##ەپێی
بەرزبووەوە
فلۆری
ناسیۆنالیست
خورما
تمەنی
بەرزانی
کۆبوو
نوکە
ڕووماڵ
ناوچەکەوە
دڵەراو
لەناوبردن
بەرهەمانە
گرنگەو
هیواشی
زایینیدا
مشەخۆر
##ئۆغڵ
ڕواندزی
جەری
##ەکۆمەڵ
ڕووخان
یاریەکی
بەتاڵی
ڕکاب
لۆبی
##کەیی
بەزی
سیدنی
ناڕۆ
ئازایانە
دەقەکەیەتی
##بینینی
تێبینیی
ئینسانە
کەسوکاریان
##ائیب
قۆناخە
تالیبان
هەڵەکان
##وانان
ئێرانن
شوێنەکان
##ۆلف
##جۆرەی
بەرەکەت
بەشەوە
ئیسنا
برینەکانی
گوندستانی
هەڵوەشاندەوە
بەهاوبەشی
خانەخوێی
مەنووچێهر
بەجینۆساید
ڕاهات
ئاڵوو
هونەردا
ژیا
نەزەری
دڵتەنگی
پێداویت
بەوەکردووە
##ێشا
بەکەمی
نەداوەتەوە
پاسپۆرتی
دەنووسرێت
لەدونیای
دۆڕا
کەمدەرامەت
گژو
##دت
##زدە
داناو
بڵاوکردنەوەکە
دامەزراوەکان
کۆببێتەوە
مەشەدی
ڕەخساوە
زلهێزەکانی
فەهمی
##دة
##سبەت
##چەیەک
سەرتی
پێخ
##رادی
بەکەڵک
داوێنی
شیوەی
نازناوە
هەکاری
پێنجشەممەی
لەخەمی
بڕوامان
ویستوویەتی
ڕۆمانەدا
بەرفراوانتر
وەکیل
تەندرووستی
جهێ
##ئاباد
نەگەیشتنی
سیاسییانەی
میدیاو
لاڤ
بەخێرب
ئوتۆم
وەرچەرخانی
گەشەسەندن
قوماش
زگ
سۆڵ
##دەکە
##ڵین
##ِیم
##ەترس
دەهێنین
چاونەت
##ەجان
نامەکانی
پەیوەندییەک
ڕێکخراوەیە
بهێننە
مەترسیەکانی
ترسان
زەوین
بەرەوپێشەوە
##ناندۆ
تەلەڤیزیۆنی
زاوا
کاراکردنی
بەردەوامەکانی
داماو
وچەند
##ادزێ
پێدراو
بدەنێ
تازەدا
عەقلی
ئاڵۆزیی
شۆڕشگێڕانی
دەڕوانێت
هەقیقەتی
وەدیهێنانی
جەنابتان
لەئاکامدا
ەڕ
##تاشی
##لیز
پەیج
تەوەرەی
ئینش
مافیان
ڕاستییەکانی
پێشکەشکاری
شەهیدانە
هونەریدا
پیرۆزەکانی
چەمکەکانی
چارەسەرکردنیان
دەژیم
باقر
پێنەدراوە
پێکەنینی
##شەلیم
##َّ
##وومەتی
##ێکیتر
ئامینە
ئامادەنین
ڕۆژهەڵاتدا
چوارچێوەیەشدا
هەڵدەگرێ
چارەنووسیان
ئامادەبن
بەرخودان
تیان
##ضا
لەکارەکانی
سزاکەی
کۆنترۆلی
دیدگای
قەلەم
وەریان
ید
##ژێری
##ازێک
فەرد
مافەی
هێناون
گوناهی
عەبدولوە
خۆشحاڵیی
ڕوخسار
کارناسانی
قامشلۆ
خۆڵەپەتانێ
##ەرانە
##امای
بەریز
چونکو
سەیرم
سنوورێکی
سێرجیۆ
بێهێز
قەلآ
لەڕۆژهەڵاتی
دەپاڕ
ئەفلاتوون
دلی
ژەنگ
هاتمە
وتارێکدا
کتێبەی
پرچ
دەهێنێتە
سلۆڤاکیا
ڕاژەخواز
##ْف
##ەوشی
پەرەست
مونی
کەلەبەر
دانیشتنەدا
بەرەنگاربونەوەی
بیرەوەریی
پێدەدەن
لەخودی
ئاشتییانە
قوتابخانەیە
جێبەجێدەکرێت
ئوکر
خاوە
سۆنی
پاگ
##ببێت
##وومان
##دیف
ڕۆشتن
وتەنی
##خانەیەک
نەتەوایەتیی
نانخواردن
عوسمانیە
ڕاکش
لەحاڵێکدا
پێچەوانەکەی
هەڕەمەکی
کوالیتی
سەرنەکەوت
لەوڵاتە
بناخەی
ئایدیا
ئاسماندا
تەوژم
بەخۆشی
باشەو
##ەعید
تواناکان
شکان
کامانەن
کوڕەکەم
بنەماڵەکانیان
بەهرامی
زوممار
لەنە
دەدان
ناکەیت
وڵاتیان
دەگەڕێمەوە
دوژمنە
تەلەفون
مێگاو
دابڕانی
نەفس
جووتیار
خوسرەو
بها
شعر
ناڵە
کۆدەکرێتەوە
ناوەن
##روشی
کارگەیەکی
درکی
##وریا
باوەڕەی
بوومەلەرزە
شایە
قد
##ڕەوەی
دواپ
کابان
ناردە
محاف
قۆڵبەست
پاساوێک
توشبوون
موخابەر
گومرگی
##ەیر
ویڵ
لەبەرنام
ئامادەکار
هاووڵاتییەک
ساخلەمی
ئارەزووەکانی
زوبان
سندووقی
مەدالیای
دەفرۆشن
هەڵهاتن
تیاییدا
لێکچوو
ئەبین
بەگەور
ستراتیج
تاقمێک
قەدەخ
قڵ
لیل
نوون
ینی
##بەڕ
##هاوی
خوری
ڕێکبک
بوارێک
پێناوەشدا
کۆیلەکان
چڕوپڕ
دک
چنی
تیادایە
ئابوورین
هێناوی
لیستەکان
کۆمەڵیک
پێشکەوتنێکی
چەوساوە
##کۆپتەر
زەردەخەنە
اط
شەرە
وەیان
کێک
پێشگرتن
ئاوێکی
بەوەک
لەپار
یاریزانانە
پەراوێزخستنی
کاروانێکی
هەتاوەکو
تەبی
شووی
ئەمست
سەرۆکێ
دایەو
کەئێمە
عەلائ
زات
پوو
##بەیان
##عات
##ەیەوە
##تیش
ئەژین
کەمینەی
ئاسودە
##کردنەکەی
ناسری
نەوس
کوژراوانی
پایتەختەکانی
حەجاج
چرکەیەک
بپەڕ
##اردەکەن
نەناسی
ڕێوشوێنە
بسەپێنن
پێنوسەکان
دیی
##دەیان
ئایفۆنی
مەتەڵ
##ەمەگر
المن
وێستگەیەکی
ئینتزامی
ڕاسپاردەکانی
جۆزی
نت
چۆپی
##فۆڕ
کوێرە
وەرگرێت
ڕیژی
هێنانەوە
تیرە
تەرخانکردووە
سادەیە
نەرویجی
ناشەرعی
بەروبوومی
چێو
##ستێکی
کاتیک
##کارێک
دەسەڵاتیش
جەنگیەکانی
شۆڕشگێڕانەی
فاشیستی
یل
الژی
باڕ
لێدانێکی
نمایشە
ژەهراو
لەباکوری
خت
##دوور
دەستەیە
بزاو
بڵاکردنەوە
بەکارهێنانەوەی
پارێزی
##وبە
ژیانا
بەلایەوە
پێویستیشە
ئاشکرابوونی
سەردانەکەیدا
دونیایە
ببینرێت
نیشتمانپەروەری
سەرپەرشتیار
میللەتەکەی
شەنگار
تەشکیلات
دەمارگیری
بپێک
گچ
##َة
بەناز
##کۆزی
پرۆژەکەی
ئالۆز
نمونەیی
ئەبینین
دەپرسین
نامانەوێت
اول
مادا
##رنا
سەراب
سیادی
کارەدا
دڵنیای
هێندەش
لابرد
برسیەتی
کوردەواریدا
خۆنووسین
دڕندان
لەمەراسی
بزوتنەوەکە
بفەرم
تاوتوێکرد
وێژە
کینگ
هەواری
##وتەر
دەچوونە
مەترە
خۆراکە
دڵنیاین
سەوزەو
نەرویژ
هەماهەنگیی
ڕیخۆڵە
زبر
##بدا
ناوچەکەیە
دەڵین
##ەنتەری
گیراوی
پلانیدا
دەستبەدەست
فیرقەی
عەری
کازی
بابەکر
دادەپ
ئیسلامیەکانی
##فیزی
بڕیارم
بەوەداوە
کەناڵەکە
ئەنتۆنیۆ
##ۆمبی
کەرە
بڵاودەبێتەوە
ئینگلت
بەیارمەتی
ماندوون
ئیلیچ
##ۆپۆتامیا
قیت
لێنی
##هەنگی
سەروی
یەکخستنەوەی
##ەخم
ڕاستییەک
##لاندی
مسلم
دێموکراتیک
سەقەت
إِنّ
##نەکردن
##اندم
خۆگەڕ
##بیدیا
پڕاو
کۆمپانیاو
گەنجانەی
بیستن
کورتەی
دیاردەکانی
ئاگریان
##ورکیا
چم
لەوێن
لەمامۆست
پیرو
دەبینرا
جوغرافی
ژیاری
قەرزاری
ماشێنی
تۆڵەسەندنەوە
مینە
ئەگەرە
هەولیر
بیرمە
پارێزگاو
دایکت
کۆمەلەی
یۆرانیۆم
سڵێمان
هەڵدەستن
ئیرادەیە
یاڵ
##گبا
ڕێکدەخات
##ەجۆ
تەنک
هەوڵەی
گەیشتونەتە
ئامانجێک
تێکەڵکردنەوە
لەبارودۆخی
بگا
قش
##َم
کردویەتی
تۆزی
ماڵتایی
##ایەکیان
پۆلدەشت
مانگەوە
لەخەبات
ئاگرکوژ
هاوشان
ئەمریکیەکان
ناحیەکە
بۆشاییەکی
فتوای
ناگۆڕێت
اوە
مک
مڕۆ
##ێمبەر
هێزەوە
پلەیەک
بەرپرسانە
توانایان
بەغدادا
خوارەوەیە
تەرکی
مەیم
ئەرکەکانیان
ڕێککەوتننامە
ئۆپۆزسیۆنیش
ویکیپدیا
فەقیر
فڵانە
بەگژدا
جۆڵ
پک
هاتبوونە
##ونیان
کتێبەکەیدا
ڕاهێنەرانی
پێوەرێک
دیرۆکی
الثانی
قۆ
##فەرم
زانیاریانە
نابیت
مەبەستت
فەرهەنگە
گرینگەکانی
کڵێسا
سەنتەرێ
ساوایان
جووەکان
هاورێیانی
عاقڵ
خێل
ڕسی
پۆتین
گەلەکەیان
دەوڵەتەکان
خانەق
دڵسۆزانی
ڕێگریکردن
دێنی
هەرا
الڵ
یەگ
درێژکراوەی
لەچەم
سەیرتر
دەروەی
لەجەنگی
دادگایە
کڕیار
شەرعییەتی
ڕەبیعە
بەوەزارەتی
شات
سوێر
دواخست
عەرەبییەوە
پێکهاتەو
سەربازیەکانی
ڕاپەڕینەوە
فەرموون
توندیان
ئەسپەکەی
ئەتوانێ
کاسترۆ
ساوت
پێکبهێنێت
هێناوەتەوە
بەرزەوە
سەیارە
بەرپرسێ
نەتەوەییدا
دەبیننەوە
ئاساییدا
بەزاندنی
خۆکار
##ەسەی
ڕێکلام
نەبنە
عەرز
بەدروستکردنی
بڕیارانەی
ئۆپز
تازەکان
گالیسک
ئایدیۆلۆژیا
هاوڕێکانم
شاژن
ئەهلییەکان
لێش
پێبکەین
##راوا
حکومە
ئیدئ
##غانستان
تەنگژە
توندوتیژییەکان
ڕۆبۆت
چاڵاکی
گۆتێ
جوت
بەژیان
##شتم
خۆدز
جیمز
بەکێش
هەمیشەش
سێیەمیش
داخوازییە
دانیمارکی
پۆتاسیۆم
ئیسرایل
##بەو
ئەوسای
دەرپەڕ
نامۆیە
بەچەش
تۆمەتب
##بەخشە
وخۆ
چەمی
##ەنەیی
کردبو
جێیان
لێدوانەکەدا
غەزەل
ناڵێن
بیانوویەک
دەخوێندەوە
جۆی
دآ
مابێت
##هۆل
##ەتەبەر
بەهەوڵ
لێدەب
ژنێ
باید
باوەڕپێکراو
کەچۆن
هەوڵدەدەم
جری
قەپ
##ەرەوەی
هەوالی
بیتو
##دارو
بوێ
کێشەمان
تێکدان
##ردووەو
بەدەستبهێنن
توخوا
درێژتر
وشانە
جوام
مەلەوان
##دێنت
بازنەیەکی
پن
##نزیک
##انیدەکان
##رداد
دەبڕی
چاوخش
لێکدا
پرۆتین
ڕەنگەکانی
بەڕێوەبەران
جەنگیز
دەدرەوش
کشور
زەماوەندی
ئۆپراسیۆن
##پارە
##جیە
بەخاوەنی
ئەنجامدان
بەیاس
چاوەڕواند
ئاواتەکانی
عَڵی
هەڵدەد
سیدی
نوست
پێکبهێنن
ئەرکەی
کەلێنی
شۆڕشێک
تێبک
بازاڕدا
وابڕیارە
گومرگ
لەمەیدانی
کانیی
##ژێن
##قات
##ۆکا
خۆزگ
وەرزەی
سپێد
هیوام
خەسڵەتە
ئیمتیازی
##جەت
ئەول
وردەوردە
داخراون
پزیشکیی
ڕۆحێکی
سێدارەد
تج
فع
##ازاڕ
دەربازی
دامو
ئەڵبەتە
تۆمارکراون
شکستێکی
سنورەکە
سوتاند
بپارێزرێت
سیاسەتمەداران
تێگەیشتم
ماشین
غەمبار
بێستوون
بپۆش
سریانی
##ڕشتنی
کوپ
هەراو
##اکوو
دەکار
کارلۆ
پیاوەتی
##ەکردەوە
ئاگرە
کورسیەکانی
دیکتاتۆریی
چارەیەکی
لەرۆژهەڵاتی
زەریای
دەشکێتەوە
فشارە
تۆکی
قبول
##مانەکانی
دوبار
نیەتی
بێتاوانی
ویکیبیدیا
بوغ
بەبەڵ
بایر
ماوەو
ڕەتدەکەنەوە
مەهابادی
ئەشێ
بۆچوونەکان
پێرسی
سنورەکان
الیوم
توێژینەوەکان
##اگرتنی
##کرین
##خراوە
سەرێکی
##گەیشتە
##ەسێک
خێرخوازیی
ئەڤرۆ
گەڕەکێکی
زوربەی
کەمینەکان
##پشت
##بەجێ
##ایاند
##اسێکی
یەکەو
لەمرۆڤ
بەهانەی
لەبەرواری
یارمەتیان
گشتییەوە
داڕێژراو
بروان
پاڵەوانێتیە
هۆرمۆن
خۆشدەوێت
صاڵح
ژاوە
ناویاندا
پیرۆ
شوێنیان
سامانێکی
گۆرانییەک
هاوسەنگیی
تەلەڤزیۆن
فرسەت
وەرچەرخانێکی
لاند
وص
ژنیش
ڵاتی
##میان
##وومی
بەرکەوتنی
##اییەک
لەنوێ
شارەکاندا
ئەدەم
لەرێک
نایەتەوە
دیاردەیەک
دەترسێت
سەرهەڵدەدات
تێرۆریست
فیشەکی
دابمەزرێنن
شوێنەوارە
پلینۆم
##ڤێن
کەشتیی
دووگیانی
##وانێکی
بەکارێکی
ڕێکخرابوو
ڕابەرانی
پرسگا
دیارکردنی
لایەکمان
مقاو
##اددەی
##راوێک
##ەزام
ئیه
ڕونکردەوە
قەدەغەی
سوننەتی
حەمەساڵح
دیبەگەیی
##باتەوە
##سیپی
ڕۆدری
پەیرەوی
سیاسیەی
وێنانە
فەتو
بەهرام
دەفرۆشرێت
ڕووسەکان
سەریهەڵدا
نیوەرۆی
مانجستر
قاهیر
خولەدا
ئاخێو
ڕادەگەیەنرێت
##هب
گرنگەی
کامۆ
ئیتل
دایکبووی
یەکیک
نابینرێت
سەنتەرێکی
حێز
##چەکەی
##حانە
دەخست
هەڵپەر
##جیاواز
ئاوەڕۆ
ئابلۆ
##زانانی
ئاسایشەوە
سزاکان
ئیشکردن
ئاکامێکی
لەبەریتانیا
بەفرانباری
لێکتێگەیشتن
##لۆس
##ریارە
##دونی
سەدەکان
ئیسلامیان
ئافرەتەکە
بەڵگەش
بگوازنەوە
قای
مارین
پوخ
چەڵ
##پو
سەرتر
خۆیا
لەبەڕێو
مەرام
ڕاگەیاندین
ئینگلیس
توندڕەوە
کۆمەڵگاکان
وەهایە
دەڤەرا
دەفرۆشێت
بۆئەوەش
##اسیا
ئەرکان
وڵاتەو
مەدی
مەبەستمە
خێزاندا
عەبدوڵڵ
میحوەر
هارم
##عەل
##ریلی
##اسۆ
##چیوەی
ئاوریش
کرام
ئەسەسەر
خزمایەتی
دوورتر
پێوستە
ڕووداوەدا
هاوسۆز
ڕوبەڕووی
حر
شاوەیس
##ەکییە
##ەتییەوە
هیز
بزوێن
پرسەکان
دکتۆرە
نەزانن
فەرامۆشی
تەئکیدیکردەوە
دەستدرێژیی
خەیان
ڕایب
##ئاژ
پرسیم
ئەلۆن
ڕێزەوە
نەتەوەییەوە
هەنگاوەکان
دڕندانەی
قۆناخێکی
شازاد
چکۆل
##لاس
##تران
تەرخ
وەڵامدەر
فڕۆکەکە
دەلاق
کۆنفرانسێک
غەزالی
بومەلەر
نێرینە
لێکی
مبار
##ماری
##فن
##ەبەستی
کەسانەیە
دروستدەکەن
بەسەرکردایەتی
ناوبەناو
سوتانی
ئازادیخوازانی
دەرببڕن
خۆراگری
لەدەم
بەرداری
هەمەدانی
خۆفرۆش
نابم
ڕەشپێست
چالاکیەک
ڕێگاکە
ئەسڵەن
مەراسیمێکی
بێسنوور
زهنی
##گۆت
##دێک
سەروب
کۆمەڵەکان
بزنس
##خوێنەر
##ێندران
پیاز
##ەکانمانەوە
لەتەنیشت
پیرۆزدا
شاعیرانە
هەڵمەتەکە
ئەمەریکایە
ئالیووش
نێگەتیڤی
تەقیوەتەوە
نادادپەروەر
ئوب
##خبار
##ییەکەدا
باشەکان
دۆغان
ناکەوێ
دەنواند
لەچاوی
فرەژنی
تەئکیدیان
دادەمەزرێت
نەکردووەو
یس
##ۆرێ
##مانان
ساڵییەوە
نەگۆڕی
##کواند
جۆرەش
##وزەی
دەنکە
مونشن
ئەنفالکراوانی
دێز
وهەم
##ڤێر
گەلۆ
کۆنگرەدا
ئاکر
دڵنیابن
شەقامێکی
نەخشەیەکی
حەوشەی
فەلەستینییەکان
غەرام
بیکەنە
لەرزۆک
قبووڵی
خەدی
پووک
ئەوینی
کوچ
کارناسی
##ێتیدا
ناسراوەکانی
گەرمترین
سەرکەوتنەکەی
زیانلێکەوت
شۆفێران
کەئەمە
ئێزدییەکان
هەردولا
ناسیونالیستی
پایەبەرزی
لینگالا
##دران
##قێکی
##ۆرن
بەهیو
پۆپەر
فەرهادی
بەئاست
هاوپەیمانە
سزایەکی
##کریم
بژێو
ئایینەکانی
ئێکەتی
ئەشکەنجەدان
پرەنسیپە
اللَّ
خاوەنداری
کارامەیی
موتڵەگ
##ناز
##بەندە
##کردوەو
هاوارێک
لەبڕ
##وتەوە
لەلاپەڕ
مەترسیەکی
حەمدی
زوویی
ڕاسپاردە
تۆڕێکی
زاهی
##ڵەق
فەرانس
ژمارەکانی
ئەیمی
سەمەرە
وەرگرین
بەخشرایە
بیرکردنەوەیەکی
شاژنی
شوورای
لەگەرمیان
مێژە
ماین
##دادیە
گشتیەکانی
ڕەوەند
لەسەنگ
ئەمانەشدا
کەباب
حەیات
زەویە
بەردێک
پەسندکرا
ئەردەش
سۆکرات
##ەمۆی
دەگەیشت
ئارامە
بەرهەمێن
یارمەتیدان
فارقین
ئەترس
گروپانە
وەرگیراون
شووشە
کاراکتەری
وەخ
خۆپەرست
##ێندراوی
بڵاوکراوە
ئازادیەکانی
ڕوئی
گوتەنی
گۆرانیبێژە
مەدەنیەکان
دەرئەنجامەکانی
لەنیوەی
لەدار
##ێندرێن
دەروونییەکان
پارچەپ
خەلیفان
شارەوانییەکان
##دایی
خۆدەر
پاڵێوی
بەبەه
لەڕوو
بەجدی
ئێوەدا
خانەدان
شانۆکاری
هەڵدەستێ
بەسەرجەم
باشوورو
##کارییەکی
نەتوانین
کاندیدێکی
شەرمن
ئەمەریکیەکان
یاداشتێک
ژەنەراڵ
پەردەپۆش
گۆشەنیگای
ئەنس
لەڕاست
جیاوازییان
پرۆژەیاسای
سۆمەری
کەمتەرخەمیی
چوارگۆشەی
##ەخۆری
ناوچەییەکان
##یدارەی
مۆزیک
بەرزدەبێتەوە
دەنرخ
مادەکانی
گەیشتوە
ڕووبەڕ
لەکاتێکی
تایکواند
زیانبەخش
##لایێ
جنێوی
بەکاردەبەن
خانەقینی
##اپی
ئەمنیش
##تیزم
لەبەکارهێنانی
چاولێک
حکوومی
ڕزگاربوونی
ئومید
بێباوەڕ
وقد
لەوتار
بەجێبەجێکردنی
سەریهەڵداوە
شتومەک
بەرزاییەکانی
برەوی
##گێڕانی
نوسینە
دەقیقەی
لیستێک
لەباربردنی
دێنەوە
##مەندە
##هند
ئەژی
خویان
##وران
ڕووح
کەمیش
قەرەوێڵ
مەزهەر
بەلامەوە
مەشخەڵ
موزیکژەن
کەئەویش
حەسیب
مارادۆنا
جاڵ
لیرەی
##ەتیکی
ناگرێ
ببو
تەواوکاری
موقەدەس
ناهەقی
کەمپینەکە
بێنەوە
وەیس
##گەیت
##بوونەوەو
##انەتان
هاندەرێکی
کەباس
بووژانەوەی
ڤۆڵ
##فات
##ێتییەوە
هەرلە
##ادەت
سیڤیل
خۆشیی
لەئێو
ئەیوان
ئاهەنگە
ڕیشەکێش
تلکێف
دارد
##تاندا
دەرامەت
پیرەمەگر
بنەماڵەیە
شکۆمەندی
##ابەی
هێزەکەی
پەنیر
هەژموون
داڵدەد
##ُو
بەزیاد
باڵاکان
فەرمانگەکان
تەقەل
قەرەک
حزبەکە
ڕێگاکان
سیفەت
سەرپشک
تۆڕەکانی
زەیتون
داقووق
مانچستەریۆنایتد
گێران
##لەدەست
##اشن
وێنەیی
ئەنجامداو
بەتیر
لەسە
مستخدم
پاکتاوی
نییەت
شاندەکەی
مەسیحییەکانی
ئایدۆلۆجی
حەجی
ئەبولحەسەن
بەرزنرخاند
دپ
دەبەم
پیاسە
مرۆڤایەتیی
گەیلانی
ناردنە
دۆڕاندنی
##فس
##اوەش
کەدا
بەسەردەب
ئارم
تاون
##ۆلۆژیای
سمێڵ
خەلیف
سەرنووسەر
ڕید
##شێن
دەسنیشان
ماڵتا
شەڕەوە
بەلآم
ستوون
ڕەزازی
تاقمێکی
باشیش
کۆسپی
##توو
سەرۆککۆم
ئاشوری
هەینیی
سەرکوتکردن
جلەکانی
بەختەوەریی
ناوزڕ
سترانبێژ
خەندە
##واڵ
##بژێر
##ەکەتە
##داندا
ئاگاداریان
دەچنەوە
دەناسم
وەفاد
بناسرێت
دامەزراوەو
بوودجە
حەتمی
بتوانیت
دکتۆری
عِ
ئابادی
کچەکان
بخەنەوە
باوەڕەدان
دووبارەبوونەوەی
بێوەژن
مسر
پەنگ
وتین
السیاسی
مامو
نینۆک
دیکەم
گێڕانەو
وێدەچێ
بەرەنگاربوونەوە
بڵاودەکەنەوە
لەشکرکێشی
##مانن
کارڵ
ئیسلاح
جۆرا
چوارقوڕ
##ەعی
چەپڵ
ئورمیە
پێشانگەی
##تیلافی
مەغریبی
کووەیت
لەهەرێمدا
نەهێڵێت
بنەبڕکردنی
##شەکانی
##سپی
لەخۆش
بووبە
کارێکە
##گرتوە
لێهەڵ
ئازادیان
ملێ
بکرێنە
دەنوێنن
قائید
داهێنا
##لیکس
بەستێنی
بزوێنەر
الّ
##هاتووی
بوەتەوە
خراپەی
تاوانب
بۆمن
سیمبول
ئەیی
##ەدەبات
شیکا
دەمێنێ
ئەڵبەت
بڕیاروایە
چاپکراوە
ئۆتۆمبێلەکە
پێدەکرد
محمەد
وەرگرێ
دڵنەو
بەرزبونەوەی
هێرشەی
##خوازن
گەیاندۆتە
کلاسیکۆی
هەلبژارت
ئایدیۆلۆژیای
بترس
##ئاستی
ڕۆشنی
##اردنەوەی
زمانێ
کچانە
ئێوەیە
ڕودەدات
دیموکراتییەکان
دیمۆکرات
ڕەخنەگرانە
ئەسەسەرد
هِ
هوش
ڕاهی
ئۆپێک
ئافرەتانەی
گوڵانی
ڕێبەرایەتیی
دۆڕاند
فاشیزمی
دەگرنەوە
کاریکاتێری
هوتێل
تەرازووی
ئەلەکترۆنی
##کەیەک
##افیز
سێحر
هێرشبەرە
بەئاڕاست
کرێکارێکی
ئاشکرایی
##ایتدی
پاریسی
المژ
داخرانی
ئیجاب
هیش
##ەنگەی
##ەکەیت
لەماف
لەئازادی
سەردەمێکدا
هێلکەی
دەبیتە
لیڤەرپوڵ
زاکی
##یانە
##ریر
##اریدا
##تیری
کوردستانمان
##ۆشین
ئامادەکراو
لەپێ
قۆناغەکە
میرۆ
شیعرەکە
ناڕاستەو
ڕێساکان
##بەس
##ەکرێتەوە
مەرز
تاوێک
سپاردنی
دکتۆرای
ئالو
ئیئتیلاف
هەردوولادا
بوونەوەرە
##ەرەکەی
هەوکردن
هەڵبگرن
##ەرمەندی
ئارسین
دانس
دەمێنیتەوە
کەناوی
ولایەتە
دەریدەخات
فێرگەی
کردوەتە
شیرکۆ
دایناوە
ماکیاژ
دوارۆژ
بەسەرکەوتوویی
##موس
دەستڕۆی
##نامەکان
##کەوتوون
پەیوەندیگرتن
ڕێکخراوو
ناڕوونی
کەنەوە
داگیرکردن
ئاییندە
گۆڤارو
وبۆ
لیستەی
نرخەکانی
ناکۆکیەکانی
ئەمەریکاش
تۆزێ
هەڵگرتبوو
ناوکیی
##ێتیان
##ستیتۆی
بەڵگەکانی
بەڵگەکان
موەلی
ئەمەشیان
لینکی
ڕەخنەکانی
سارکۆزی
لەگۆڕەپانی
##بکرێنەوە
لەئەزموونی
ژێن
دووت
گوڕی
بەستە
چیتان
##کرات
دەخۆم
##ایەکەوە
ئاکادیمی
بەڕێوەچوون
سپێدە
ئەنفلۆن
فەرەنساو
لەزیادبوون
کێبەرکێی
زستانە
##ەوز
لەسەرەکان
کاردەکەین
لەڕێوڕەس
ناتەواوی
نەمزانی
هەوڵیانداوە
پێکردبوو
جەماوەردا
سێیەمدا
ڕێبەرە
لەکارکێشانەوەی
واقیعێکی
کیلۆگرام
موسوڵمانەکان
پارلەمانت
پاشەکشەیان
لەکوێوە
خۆبەخشانە
##پای
##وشە
بەرابەری
پێخۆش
##گەرێتی
##وتنەوەی
بەرزبۆتەوە
جیاجیادا
##ڤسکی
هەرێمێ
لەئین
کامەیان
قەرزە
ئارەزووە
گیای
ئەندازەیەک
##اشینکۆف
زۆرانبازی
لۆڤ
##خەڵکی
خوز
تایبەتییەکان
یانزە
بەستبوو
بابەتەوە
تێکن
بەدەستوور
##نەتەوەی
تۆپەکە
شارەزاییەکی
دەگوازێتەوە
میژووی
ڕۆژئاڤا
سۆنیا
##ڤارا
##َان
خۆهەڵ
منەت
##ەنگیری
گیرابوو
##امانج
بریندارەکانی
نمایشێکی
وەرگێرانی
بنوێنن
عەبدولڕەزاق
##وإ
##قم
کۆز
کارتە
میخا
ئازاو
سیناتۆر
حیزبیی
بوارێکدا
ڕەفتارەکانی
قزڵ
زیادەی
چالاکییەک
هەڵکەوتەی
تەرزە
ڕێوڕەسمەکە
ڕیکاردۆ
دەسکەوتە
ڕاڤەکردنی
نابینین
بەئارەزووی
أبو
بهات
عامی
ڕێم
##رۆڵی
گرتی
هیزەکانی
ڕێچک
یاریەکەش
بەتەنگ
هەوڵبدەن
چالاکییەکانیان
گوتنی
ڕێزدێنت
شەوو
سنوورییەکان
مەوادی
فۆرمە
سەرگەردان
گژوگی
زێری
##ەکوژ
##یلەی
نێویاندا
لەبەرگرتنەوەی
باشووردا
##انییەت
لاوەکان
مارکۆ
نۆبڵی
فایل
شەهیدکردنی
##ناسان
تادێت
بەبیانوی
ئوتومبێل
دواتردا
لێبووردەیی
موئ
##ومەرجی
کچەی
نەیەوێت
کۆبونەوەکەی
بِال
یەعنی
مەشهەد
تکا
ڕشت
دەگو
گەڕۆک
زمانەوانیی
دیاریدەکات
کچەکەم
فەرموودە
بەرگێکی
نوخبە
مۆدێڕن
ساکاری
##ەڕنی
##اکراوە
وڵاتەکانیان
باسکراوە
ئاماژەدان
ڕیفراندۆمدا
سانایی
نۆرویژ
پێداچوونەوەکانی
بەدەستیان
نزمترین
شانەی
##ەیرە
شاروم
##ۆڵێکی
تاڵانی
مەزڵ
گەنجینەی
##ناکەم
دونیایەکی
جەماوەرەکەی
کۆمەڵکوژیی
ڕەتیدەکاتەوە
لەبازاڕی
گوشارەکانی
لەئیستادا
بارگاوی
##کڵ
##وارەی
##حل
دەبڕن
##زیف
ڕیشی
بەلش
لەنێویاندا
هەستمان
ئەلعەرەب
ئوک
چۆکی
مێژووەوە
دەستبەردار
دەگرنە
خۆڵەمێشی
دەسەلمێنن
ڕاگەیەندراوێکدا
لاپتۆپ
ڤید
##سوڕ
##ەنشین
بەلا
نوێیەکە
داگیرکردووە
تورکەوە
نیشتەجێیە
قیب
ئەقڵانی
خۆبەڕێوەبەری
سوودوەرگرتن
پام
##افت
نەدایەوە
لەدنیای
نیشتمانییەکان
لەمەوبەری
ڕۆژەڤ
کۆبونەوەکەدا
عەونی
وخو
جیم
بەهێم
نەبڕ
مەلەوانی
شەریکی
##اردەکرێت
ڕاوەستانی
ڕێوڕەسمێکی
چاوەرێی
زیندەوەر
سۆنگەیەوە
حەپەس
بەیەکدا
هیی
هذا
بۆکانی
پەیڕەوانی
لەمۆندی
کرکوک
ئیما
وڵاتیش
پاڵاوتن
ئێسقان
نامرۆڤانە
جەس
شوون
فدر
بۆناو
##ەڕای
##لیمین
ئافری
هەرێمێک
##گیرێتەوە
کۆنەکەی
دەماری
سوپایە
کەئەوان
ڕەئووف
##چەشن
لەنەخۆشخانەی
شڕ
هەرت
خوادا
ماموست
بەبواری
سەمەد
بێبەز
شمشێری
بیردۆزی
فرانکف
کڵێسای
دوماهی
هایدی
##واق
ڕووین
بەلووچ
داواکراوە
لەوەیش
ئامادەییان
وێبدا
وەستانەوە
بێباک
عەسر
هاویشت
فیستەڤ
لازی
##نێن
##اوێزی
##ەدرید
دۆسکی
دەنگمان
دیموکراتیکی
شاندە
ئاژەڵان
سکاڵایان
مۆڵەتیان
بەرامبەریشدا
شانۆگەرییە
ساسانی
##انان
##راوەکەدا
حکومیەکان
ڕاستای
دەیبینن
ئاشتیدا
کلکی
حەمزە
یەکلای
ئاوێنەنیوزی
زۆرەملێ
خودموختاری
دخ
چۆڵی
##کەیە
##الات
##سیپ
##ێیەک
کارۆلین
لەودیو
##کەوتنەوەی
مرۆڤەکانەوە
ڕابیتەی
جەلالەوە
گوتراوە
حەماسی
تەلەفزیونی
کۆتاییی
دوگمەی
ئینسکلۆپیدیای
هۆڕ
##ووقی
##مانا
نوێد
ئەنریکی
هەشتاکانی
چیرۆکێک
لێکدانەوەیەکی
سۆمەر
ووشە
سەتەلایت
جەد
زەبی
چۆمی
##قەکان
کونە
کوردۆ
##کیف
هەمووکات
##ۆتین
هەڵبژاردنەکەی
بەگوتەی
فێرخوازان
تۆمەتبارە
لۆج
ڕەقە
کس
##ێپەڕ
ئیوە
##اردایە
##ەستن
ئابڕوو
منداگ
##ناکەن
ویستویەتی
بەخێرهاتن
بسەلمێنن
ڤێتنام
میتافیزیک
لەمڕۆدا
زێن
زوان
سووچ
کەق
دەپۆش
بندەستی
لەلایان
ئاوەکەی
لێڤەرپ
پیرانی
لەشاخ
ناوبڕ
دەستگیرکردووە
شەعب
ئنجا
چاخ
ئەمی
پێشڤە
ببڕن
سێل
دەقاو
قوتابیی
فەرمییەکان
پشدەری
لەبارودۆ
میراتگری
فۆس
ولیام
##ناخ
بەژێر
##ێنراوی
##ەبکرێت
ڕاهین
پیاودا
وەزارەتەکەی
مورت
ڕوباری
دۆسیە
شەعبان
دەجووڵ
سکۆتلەندا
ڕێکبخرێت
لەباشوری
لەگرنگترین
هەمواری
لەولاتی
سەریدا
هیوایان
لەجاران
سووتاند
ڕیکلامی
کادیرانی
هەڵیانکوت
##اماندا
##الیز
بریندارانی
هۆکارو
بژاردە
بروسیا
بەرێوەبەرانی
خەییام
داپڵۆس
##نانەوەی
##کردۆتەوەو
وتانەی
ناجی
دەمێنێت
ڕزگارمان
خودایی
نەخشەو
ڕونکردنەوە
خوازیارە
ئەمجەد
موعت
##کۆنێک
سایکۆلۆژ
چیدیکە
وەتەن
بەوەکالەت
##پێر
کەدەست
ئەودیو
##ێبەری
بەکو
کرێن
پەیامەکانی
گەرماو
شتێکمان
##عماری
شخ
شیروان
لوکس
دولت
لەمەدا
برن
دیارترینیان
دێڕی
شانۆگەریی
پەلامارەکانی
ستراتیژیەتی
ئێکسپ
دەبەسترێت
حەریری
فەنتازی
ڕاوەدوون
##هیل
##ەرگرتنی
لەگەور
گەڕا
بێینە
چۆنایەتی
##وردە
گرینگیی
چواردەی
تێناگەم
دەستەمۆ
ئێری
##نسا
کوردییان
کارکردی
بەستەز
##وارت
ئەکەوێتە
قەراغ
سەربازێک
مەرجانە
##ڤانان
نەناوە
یەکتریدا
بلیتی
ئەمنییەکانەوە
خزری
بەجیهانیبوون
ناتەبایی
پێوویستە
ژلایێ
یەکشەم
ناونووس
هەڵئ
##ووتەوە
دنیایەک
نەرمین
تیۆرە
سمینارێک
نەخوێندەو
پەژاک
##ۆرای
لەگۆڤ
مرۆڤن
دۆگم
نابنە
##پەرەستی
بەرپرسێک
جودی
بالە
پێشبڕک
سەردێڕ
دراوسێکان
دەسکەوتێکی
هەف
بەروب
بەردەب
هەمووە
وێنەکێشان
قسان
پرسێک
حزبوڵ
ڕاگەیاندندا
کۆڕەکە
لەجەنگ
دیسانیش
لیبرالیزم
چالاکوانان
##گەورەی
##گاکاندا
##بانێ
##دابوون
لەبڵاو
بەپیر
هەڵبژاردنەوەی
بەشداریکردنیان
ناڕێک
هەلەبجە
پیرۆزەکان
بەدیمان
##ائر
گومانێک
بەردباران
ئایدۆلۆژ
ئاڵوگۆڕە
کادرانی
بزووتنەوەکە
یادەوەریی
وهی
بەرخ
##ارییەتی
##ەساز
دانۆڵد
سەرنجێکی
فەرمانبەرە
بناسن
هاوشێوەکانی
ڕاگواستن
خائین
خوراف
نەکەوێت
وتووێژێکی
هەفتەیەکدا
توندترین
سەرکەوتنەش
باخەوان
لەکۆتاییشدا
مونت
تووندوتیژی
ناراستەوخۆ
کاڵی
دووشەم
هەڵنەب
وتنە
نەکرێتەوە
لەکام
بەرنامەکەی
##کەیتەوە
نووسراوەکانی
جەنگەڵ
یۆنایتد
دۆستێکی
مردوون
سەنتەرە
ڕایە
ۆال
##روون
##قة
##ادەن
پەڕەکەدا
##کادی
دەیبینی
دەنگم
بەغا
##راهام
کوێرانە
خۆکوژیی
پشو
دەپرسی
بەنووس
لێدەدا
هێڤی
سوننەکانی
بەخودی
ئیماندار
کەمئەندامانی
ئاخاوتنی
دەڕۆین
##لەکەت
##هول
##ەباڵ
بێجی
وەزعە
ئاواتە
لەهێرش
دەسەڵاتدارە
ئەڵێی
وەزیرێکی
بازاڕێکی
پێشکەوتووە
سانجێر
کارەساتەکە
جۆزێف
جەیمس
حەوا
یەشار
##تص
##جوو
##ارة
بەرەڵ
دوازدەی
##ارییەک
هەوایی
میڤان
ئەنجامدەدات
لەرێ
دەگەڕایەوە
مەترسیە
خوێندنیان
ئەتلەتیک
گاڵتەجاڕی
هەڵکێشا
وەکالەت
بەشم
##جینیا
شیت
مندالآ
ئەدهەم
دەنێر
بخوێنینەوە
فەرمانڕەوایەتی
هەین
تەمووزی
نیشانەکان
سەردانەکە
لەدیدی
کورسییە
جێنشینی
دیوارەکانی
ئەژدی
هەڵقوڵاوی
گوون
سەراوی
بەڕاشکاوی
لاین
کۆتاییشدا
ولایەتی
چارەکردنی
لێتان
دواناوەندی
پێکدادانەکانی
دەمارگر
سەرفرازی
هەیکەلی
جاڵج
سانی
لەمانەش
ئاودێر
تیرەی
ئەفەرم
قەرەج
لەروود
ڕەگەزەکانی
حوکمرانی
ئۆپۆزسیۆنە
ئیلاف
ئینتەرنێتەوە
شەمسەددین
بورژوازی
گاریس
ەس
یەکەکان
هەنگوینی
بڕیارانە
هاوکاریمان
پرسیارانەی
ڕێنووس
لیتوانیا
پیاهەڵ
شارستانییەت
##ەخوارەوە
وئی
##دارەی
##ەرێت
پەیمانە
کۆمەڵەکە
ناهێنن
بیکەین
بارودۆخەدا
نەگەیشتۆتە
ڕێکبخات
ناوبانگێکی
گوێڕایەڵ
تالیب
##ستراتیژی
ڕۆناڵدۆی
چری
##بنی
کوتان
##ابوور
بەهارە
پۆپۆلی
تێکرد
پێویستیەکانی
بەدیهاتنی
نییەبە
سەرشان
لەرۆژانی
هەخامەنش
پاشی
##صک
هاوپێو
لەگەڵم
لەمادەی
مێژووییەوە
لەشفرۆش
سەربازیدا
گەڵاڵی
##کەساڵی
کاربەدەستێکی
دەسەلاتدارانی
یوڤی
کەمانگەر
سوقرات
گازە
##بژی
##ەودا
بەحکومەتی
##دەچ
گەرایەوە
مەسەلەیەک
##ائەددین
دوابخرێت
ژمێریاری
ۆژ
##هدا
##ەبەندی
ئەشت
لەگەر
مێزەکە
سکپڕی
ساردو
شانۆنامەی
چاد
##پەنا
##ەندەڵی
پەرەپ
##دەکرا
بوونمان
بەلانی
جێیەک
فەرمییەکانی
بەشداربووەکان
پەروەردەکردن
پیاچوونەوەی
ناودەبات
وەپ
ڤییەن
##ۆرەوە
بناسە
وێنەیان
مەرگەیی
پڕۆت
سەرنجیان
وەفادار
ڕکەبەر
هەواڵدەرییەکان
فەلەستینیەکان
لەپێکهاتەی
زەوا
وەکە
##واد
کوردکۆنێک
هەرئەو
درێس
بەسەرەوە
ڕابگیرێت
بڵاوکەرەوەی
پرسیارکردن
نیوەڕ
لەسەریەک
فاکت
گەلەکەماندا
دەناسن
##وقە
##ەمر
بەڵک
نێودەولەتی
ئەسلەم
دووربک
عەقل
پۆستەی
بەقوربانی
دەزگاکان
لۆگەکان
پلاستیکی
چەکانە
##ەکییەکان
پێبوو
هەڵای
هەمووانی
بیبی
##خۆمان
دەمەدا
مەتەر
هەلویستی
دۆزراونەتەوە
سپیی
سپاسی
فرۆکەکانی
پاپۆڕ
شلێر
لۆت
##ودو
##ارام
##شیدی
نەسی
##نجام
جیهانێ
لەدهۆک
بانگێشت
مەدەنیانە
وەرگیرا
کولتوورە
نەخۆشخانەکە
ئەوقافی
ئیدارەدانی
خاشق
##اوییەکان
بۆڕی
##ەزە
##ۆنیس
عەربەت
پرۆپاگ
##لتۆن
دایەل
شانۆدا
تیۆرییە
ژمارەکا
دەڕواننە
کیمیابارانکردنی
دوانیوەڕۆی
وەبیری
بهێڵن
کایا
##وندوتی
دوشەممە
##رۆپ
##الیسم
یاریەکەی
ڕایەکی
لەپاراستنی
##خستنەوە
مادەکان
هەڵدەگرن
پێدەگات
بۆرج
سەرسوڕمانی
ژەنەڕاڵ
عەبدولوەهاب
خیل
دووا
وتارو
وەرزشیی
ناچن
گوڵاڵە
مێخ
سووتاوە
دەگۆڕن
دەبەستێ
حەقیقەتە
هەژماری
فڕینی
##ْڕ
بەزان
شوڕ
تەکەت
##خانەکاندا
حزبانە
زیندووکردنەوەی
هیچیتر
ترۆپکی
نۆڤەمبەری
نوروێژ
ڕوناکبیری
دوڕگەی
لغ
##ەکارە
##ەخنە
کاریش
ئاودانان
بەمنداڵ
وەع
##ێڵن
موسڵی
میدیاکار
##ۆڤسکی
کابرایە
داتاش
ناحەزانی
بەئاوێنەی
بەئەنجامدانی
لەولاشەوە
سەردەمانێک
ژە
##بح
##ئاش
##ەڵانی
کۆشی
گەڕانەوەیە
کاتێکە
پیرۆت
ئامانجەی
گونجاندنی
بەحرێن
یوسفی
ئینتەرنێتی
یەدەگ
ئەندەلوس
کانە
یام
ئەمانەو
بەرشە
##تیۆم
بەڕو
موگناتی
هەڵبژێر
بەڕێوەچووە
پێشبینینە
چاوەڕواننەکراو
دەعوەت
مسوڵمانان
##ۆڕینی
##کۆک
##ارشی
##کرابێت
##اقیعی
ماوەتی
ولایەن
ئاستەدا
بمرێت
ئاشکرایدەکات
ناخەوە
شەیتانە
ئۆزێل
قاوەخانەی
ڕەبەت
گەییشت
ئۆری
عیراقیان
فیفای
درێژترین
بڕیاریش
مارکا
بەسوودە
پێدانە
خۆشەویستە
چووبوو
نەزەر
دەمانچە
خورماڵ
بنچینە
ئەگین
کێبر
سیمینارێک
پڕۆگرامێکی
دووکەڵی
ئینگلترا
سێوی
##فڕ
ڕێکوپێکی
##الیکی
بەڕازیلی
دەستکاریکەر
بڕەکەی
پێشنیارە
سروشتە
قەیدی
ستراکت
سیستەمێک
مللەت
هیندو
بەبەرچاوی
شاخەکانی
درووستبوونی
مەسیحیەت
قرار
قەشەنگ
میخائیل
دارێکی
سازە
شێرە
##برو
##اکام
دیش
پێنجوین
ئەلکسی
تواناکانیان
ئەوروپییەکان
نەناسراوەوە
سعوودیە
پێکدێنن
تاهیری
چند
دووس
نیق
دەوڵەتانەی
هۆڵەکە
گونجاودا
##دامەز
مەترسییەک
دەنگداندا
##ەخانەکە
پەپوولە
دڵۆپە
کوردکۆنێکشنی
ببیت
نەقی
ڕێفراندۆم
##دەکەون
ڕێکخەرانی
سزایە
ئێوارەیە
سیستەمەکە
پەروەردگاری
تاقیکردنەوەیەکی
حەبیبوڵ
سەرئێشە
خراوە
کەشک
خواوەندی
لەسەرمان
هاودەنگی
بارزانیش
زیندانیە
بەرانبەردا
مەڵبەندەکانی
ترۆتسکی
بویەوە
نایانەوێ
لەبەریەک
سوسیالیستی
نێوەڕاستی
سەلمێنەری
نادادپەروەری
نشینی
##بینە
##ۆرس
دیان
##هێنێتە
گۆڕاو
گرتەیەکی
##ەوانانی
زانستەکانی
بازرگانە
توێژەکان
سەرمێزی
##ۆگۆ
بەچەکی
کارگەکان
داواکارییەکی
ئێشک
هاولاتیان
ماهر
پنت
##دراون
دەدی
##ەبردن
##ێرەوە
بووش
سیاسین
##دوویی
ناموس
وەشانە
یاریزانانەی
تەمەنیدا
ماوەدا
بزاڤە
هەتاهەتایە
ڕول
##ْض
جیایە
ڕێکا
هێرشێک
ئاشکران
بەهەرێم
مەیسەر
ڕێگەکانی
گیانبەخت
ڕەفتارێکی
وابریارە
شەیتانی
حەشیمەت
کفر
کۆمارییەکان
##هێنانەوە
بیچ
چوارشەم
دژکردەوەی
پاکژ
ئێدی
ڕاهێنەران
بەردێکی
سۆماڵ
تەلەفۆنیدا
##هانس
##ژنە
##ەسەن
شود
چالاکییەکە
کەوچک
ناوچەگەریی
تیرۆریستییە
تەقینەوەیە
شەرمەزارکردنی
تەگەرە
قاتی
##سارت
##دیل
بەرس
هەرل
لەسوید
توندر
قوربانیدانی
گەشتەکەی
وەبەرهێنەر
وئە
زیندووان
ئامادەبێت
کارەکتەرە
بێستون
حەوانەوەی
ئهو
تێوەر
##شەر
##چییە
کەسانەدا
سەربڕینی
پرۆگرامە
گوڵێکی
دەرەوەش
ملازم
چەپڵە
لەخۆبایی
بۆنەیە
پێبەخشی
لەحزب
##تْی
جڤاکێن
گاگ
##ۆرسکی
داخستووە
دیکارت
خوت
##زیل
چونەتە
تێپەری
##کراسی
خراپەکاری
نووسیبووی
کلک
دەترسا
العربیە
بیانیەکان
جەماعەت
بەرخودانی
زەیتوون
خزمی
سکان
وانەکان
##ببنەوە
کۆمپ
گرەوی
تائەم
پەڕەدا
سەرۆکەکانی
دابەشکرد
بەرپرسیارن
ماسکی
دیلۆک
تراژیدیا
سایکۆلۆژیای
خاشاک
سەراپای
##ازەکانی
##دوخ
بەنفی
دەگمەنە
نوێنەرە
بهێنێتەوە
کرێکارەکان
گەورەیەو
بایەخیان
بەجێهێنانی
پەیمانگە
ڕامین
سوودە
پالەوانی
سەعدییە
##فراوان
لەبەرگرتنەوە
کرانە
نابات
دەمەو
سەرەکییان
مەڕان
کوردیین
نمونەیەک
عەفان
##کەشی
##اییەی
کاندیدا
ڕەگەزێکی
##ائیری
دەخوێننەوە
برایانە
ڕێبەرێکی
هاونیشتیمانی
ئەکە
وهەموو
##ماز
هەڵەد
##بەرن
ئەرسن
دەردەکەوت
بەدووری
مەزاد
بگرنەوە
گۆڕانکارییانە
هەڵدەگرین
دیپڵ
حەشارد
هەڵپەڕکێ
جر
جانس
##دراوی
##اوایی
ئەوکارە
##ێرەکانی
دەرز
دەرهێڵ
##گەرییە
دەوروپ
دروستکردنەوەی
دەدایە
کرچ
بریا
نەوتەی
هونەرمەندانە
هەفتەدا
سەرنجێک
##کێشە
##ۆچون
پرۆسەکانی
سنورێک
##ەکێشانی
ڕەوشا
ئیمزاکرد
لەئەنجامدانی
خەمە
##خراوی
میه
بارەت
دەڵآ
سەدامی
کۆڵانی
چوونەوە
بهێت
ئوردون
پۆرتۆ
یووسف
##ترد
##راپی
بەهاکان
بارانە
هەڤاڵی
ڕۆژنامەیەک
حوکمەت
سەردەمانی
##ُمُ
تۆکمەی
ئۆزال
فریشتەکان
##بارەیەشەوە
ئافەرین
##پور
##ئاگ
سەرابی
ڕاژەی
گەیەند
یارمەتیمان
خراپیان
جولی
هونەرەکانی
دەزگایەک
بڕواتە
##نەکراوەکان
وێستگەکانی
پۆشاکی
پلیکان
گێز
##ژێتە
سەردەکەوێت
ئامری
وێنانەی
هەروەهاش
سیاسییانە
خراپیی
پرۆسەیەدا
گڵکۆی
ئاشنابوون
هەڵاتنی
خوڵقاند
ناتەندروست
لەدەقیقەی
عێر
بەگری
##ەلآ
دەستکە
پەروەند
ئاسنین
##گەڕێن
هەواڵانە
بەشداریم
هەستەکانی
دەنێرن
ڕاپۆرتەی
لەهاوڵاتی
أحمد
##فێر
##ەخانی
بزە
وڵاتەکەم
یارییەی
تێکچوو
لایەنگیری
کردنێکی
خوێنم
پێداگیری
پەلکێشی
بڕوانن
ڕاگەیەنراوە
دێربی
چەلێ
##ەریکا
##سەردەم
چاوەکانت
بەسەرچووە
دانەب
مۆنۆپ
ئاگات
مەکین
##بینانە
نەخشەڕ
عباس
بەسیج
ئەژنۆ
مانە
وگر
کونج
##ێشێت
دانپیان
دەوڵەتیش
سەیوان
دەیانگرێتەوە
کامەیە
شەربەتی
ئەویدی
داهێنانێکی
بجووڵ
گێرانەوەی
وەلانانی
دیمیتری
تیوری
بەهێزیان
ئیتلاعاتەوە
ڕابواردن
دەسەپێنێت
جهان
ۆڵ
##ەکێشی
##ەوسی
##اکەو
##الۆگ
هاوڕا
بەڕێوەبەرێتیی
دڵنیابە
##بونیان
ئاژەڵەکان
لەوتەیەکدا
میکانیزمەکانی
شەترەنج
شووڕای
براه
##خاڵ
##صن
دووتوێی
خۆگونج
##گەشت
باشان
مندالانی
##وومانە
حیزبەکە
بەهێزترە
##مارک
بەوەشداوە
پشوودان
قسەوباس
یۆگ
ینک
کردەوەیە
##ورانی
لەویل
پاراو
##ەسازیی
یاسر
دڵپاک
شوێنکەوتوو
خولەکەدا
سوورن
ئەمانەت
##ەکەیی
##ەوترێت
لەگو
##ژیت
پێکهێنەری
کەمێ
کۆمەڵایەتیەکانی
ڕێژەکە
عەرەبیەکان
شانۆییە
بسووت
بەیاننامەیەدا
کۆمەڵایەتییەکاندا
ناحیەکان
سووڕی
ڕێبازێکی
نورەدین
نەگونجاو
پرتەقاڵ
##لەق
##حات
دەرحەق
لەواقیع
##کرنەوەی
ئەزانین
لەخۆمان
نەهاتۆتە
ڕەخساند
فاتح
بڵاویانکردەوە
ڕؤ
##عاب
گۆگ
ڕێکارە
ئاسوو
شوین
یاساش
##کرایە
ڕەنگاڵە
خەلق
دوژمنەکانی
نۆیەمی
زرێب
بەگیانی
دیجیتاڵی
##نەدانی
##باچ
##ەوبەر
دەستهێنانی
کارپێکردنی
الات
سەبار
دادەنیشت
چارلز
نادرێ
ئەمریکیی
##ەکوژی
ئاژەڵداری
کاولکاری
بازید
دەگەیەنێتە
سەرتیپ
لافی
##زیم
##ویلا
ڕێخۆش
وڵاتەکەیدا
پێیڕاگەیاند
مانگێکدا
نۆخ
دەریخست
خەودا
خۆشەویستییە
نەسرا
بەتواناو
گەردەلوول
لێزان
یەپ
##یا
یەکێکیش
یەکبخ
داستانە
##ەهێشت
چونک
پیشکەش
باوەڕەدا
خێراو
جەستەو
گەمەیەکی
مۆڵگەی
گوێگران
بنیاتی
ئەتلەتیکۆم
سۆشیالیزم
ماهیەتی
پتری
درۆیە
ویستە
##دوڵ
لێکدەد
منداڵەکانمان
هەبووایە
دەستوورێکی
پێگەیشتنی
##وشنی
دەرگایەکی
دوانزەی
ڕووناکبیرانی
نەزانراو
نوکتە
پرۆلیتاریا
کامبۆجی
فا
فۆرد
وسی
##سازە
##لێس
##قانی
##قاز
##وماڵ
دەسکاری
بادا
بەپەل
جۆرو
تایەر
پەنابردن
خەرجییەکانی
حەوزی
بۆمبێک
ستراتیژییە
وڵامێک
نیوەرۆ
حد
##فۆ
##ەرێن
خۆڵی
پۆشینی
ئاوس
ڕایس
گەلەوە
##دەرز
##ناکرێت
لێبکەین
سالان
بەچەک
قەولی
کشاناک
نوسەرانی
بەرەوپێشچوون
بجەنگ
ئیدانەکردنی
##بۆلی
دەکریت
نیگا
شاراوەکانی
مرۆڤەکاندا
گشتیان
بمێنێت
تیرۆریستییەکانی
چەواشەکار
فستیڤاڵی
پاڵەپەستۆی
انەی
وچاو
کاریی
ۆن
ئەوانەدا
سەرەنج
کۆدەب
سیاسەتەوە
سەرۆکج
بەپاس
##وڵە
##تەرا
گوندەک
دیموکراتیەت
گەشتەکانی
بەریو
محێدین
تەرمەکە
پێشوەختە
دەکێشن
عەلمانیەت
پێکدە
تیلی
دانیشتوون
کۆمپانیایانە
زیرەکانە
نەوەیەک
کاسبی
هاوڵاتییەک
دەپرسن
پێکهێنرا
##إکإ
بۆبەر
##اکەن
پەرویز
گوآ
خوارۆ
جاڕی
دەروات
تەشەنە
وزەیەکی
تایەفە
دەبوا
قەزاکانی
جەستەیەکی
وەستاو
بچووکتر
وابەستە
##کوژێت
میهرەب
لێژنەیەکی
خەشای
هإ
##واندنی
##ەییەکی
داهاتەکانی
حەسرەت
پەلامارد
ڕفاند
##قلاب
کۆنسێرتێکی
ئیمتیازاتی
بایکۆتکردنی
حەقیقی
ئیمپریالیزم
بەخوێندنەوەی
قب
##رات
##وخو
##ژەنتینی
هەرشتێک
نیوتن
وتو
چیڕۆک
ژمارەکان
ناوچەکانیان
##هەڵگر
شاخاوی
چاودێرێکی
پایزی
لێکردین
مەشقەکانی
هاوڵاتییان
لەشێوازی
پێناکرێت
باسکرا
لێکنزیک
منداڵبوون
بەجێگەی
گەورەتری
نادەست
ئیستای
نیشتمانەکەی
##هاوێژ
کیشەی
مریشکی
ڕاوەستابوو
پراکتیزەکردنی
گەرموگوڕ
موە
##یرو
##ەدرا
بەهجەت
هیگل
شێوەکاریی
##ۆشە
ڕابی
هێنێ
ئیسپانیای
پارێزگارێکی
دۆخێک
ڕەفتارو
بسوت
خۆشەویستم
ژینگەپارێزی
ڤێل
بەرەنجامی
[...]
